the 972886
, 699282
of 630713
. 508175
and 496329
to 413786
in 310124
a 265054
ed 187038
@-@ 180341
for 162841
) 151331
( 150624
on 148885
ing 144816
that 138890
is 127983
The 113741
re@@ 99655
al 99504
e@@ 95833
or 95069
be 93955
by 93277
as 91704
with 90877
an 90598
S@@ 86638
/ 82574
es 81431
are 76313
in@@ 73923
s 73738
C@@ 71964
s@@ 71139
&quot; 69634
M@@ 68599
at 67656
f@@ 66632
er 63971
: 63516
ation 62635
t 61424
t@@ 61178
it 59310
y 58815
P@@ 57845
w@@ 55911
h@@ 54419
b@@ 54099
E@@ 53669
i@@ 53485
D@@ 52830
d@@ 52669
al@@ 52491
from 52142
F@@ 52083
g@@ 51130
T@@ 51104
B@@ 50797
&apos;s 50223
l@@ 50104
st@@ 49877
ers 49481
ate 48892
H@@ 48144
ar@@ 48086
; 48022
en@@ 47911
its 47561
L@@ 47408
A@@ 47281
was 46798
not 46729
this 46351
un@@ 45784
m@@ 45190
y@@ 44534
d 44403
r@@ 44359
c@@ 44006
o@@ 43240
which 43134
p@@ 43104
ated 42778
e 42685
have 42190
- 42091
ts 41527
de@@ 41501
ad@@ 41174
A 41132
will 40379
ting 39337
N@@ 38601
ent 38590
all 38323
er@@ 37838
R@@ 37633
on@@ 37484
an@@ 37330
O@@ 37074
W@@ 36998
has 36856
u@@ 36807
li@@ 36244
m 36017
k@@ 35692
G@@ 35479
it@@ 35121
th@@ 34874
1 34785
ly 34616
their 34151
I@@ 33983
tion 33795
ment 33334
Canada 33165
c 32909
ted 32839
ac@@ 32231
o 32080
n@@ 31612
el@@ 31556
In 31340
am@@ 31087
le 30521
ally 30388
ations 30121
v@@ 30056
.@@ 29919
at@@ 29910
2 29896
ance 29863
ic@@ 29504
I 29484
ro@@ 29401
as@@ 29255
se@@ 28572
pre@@ 28466
a@@ 28097
ti@@ 27391
age 27388
also 27345
sh@@ 27163
other 27054
one 27007
ary 26994
been 26974
dis@@ 26937
di@@ 26848
3 26805
k 26460
en 25829
able 25528
is@@ 25373
em@@ 25271
were 25203
pl@@ 24971
• 24819
ch@@ 24697
si@@ 24683
ter 24492
ity 23824
ar 23543
n 22818
our 22683
ab@@ 22636
op@@ 22510
im@@ 22472
con@@ 22466
should 22430
United 22318
ag@@ 22228
l 22165
S 21956
le@@ 21830
information 21829
more 21827
et@@ 21823
als 21719
or@@ 21716
h 21615
U@@ 21430
es@@ 21316
ence 21199
per@@ 20961
ant 20648
would 20628
ur@@ 20623
any 20606
ds 20583
ul@@ 20568
tions 20563
lo@@ 20524
V@@ 20501
ex@@ 20140
ments 20092
In@@ 19721
th 19711
ative 19645
mo@@ 19590
ver@@ 19575
to@@ 19485
Committee 19445
ent@@ 19432
such 19407
ap@@ 19364
ty 19349
ri@@ 19347
comp@@ 19346
Pro@@ 19301
Ch@@ 19213
red 19185
res@@ 19175
work 19160
sp@@ 19095
K@@ 19047
et 19025
under 18866
inter@@ 18855
Re@@ 18734
can 18676
C 18619
had 18602
par@@ 18585
tr@@ 18522
we 18403
States 18276
4 18225
ous 18111
z@@ 18081
9@@ 17956
2@@ 17946
ec@@ 17897
su@@ 17872
Nations 17662
Council 17618
us 17534
p 17426
development 17377
This 17320
om@@ 17298
ement 17293
new 17264
4@@ 17191
7@@ 17159
ating 17132
ents 17122
co@@ 17109
It 17108
i 17063
5 17038
ol@@ 17028
may 16870
international 16824
3@@ 16794
6 16746
Con@@ 16720
g 16632
General 16602
de 16565
they 16526
ks 16522
8@@ 16456
te 16423
D 16277
rec@@ 16269
out 16208
ad 16194
use 16040
el 16033
Commission 15941
cre@@ 15939
b 15779
these 15741
ties 15671
te@@ 15662
you 15646
ve 15617
6@@ 15391
les 15331
time 15194
Canadian 15046
est 15034
report 14970
countries 14959
pro@@ 14856
ess 14600
European 14578
between 14548
7 14492
$ 14476
il@@ 14404
into 14362
bo@@ 14359
vis@@ 14331
we@@ 14306
% 14305
E 14297
_ 14131
um 14059
very 14024
but 14021
than 13999
ical 13963
oun@@ 13946
po@@ 13893
us@@ 13828
man@@ 13781
me@@ 13730
ay 13707
including 13686
5@@ 13673
support 13603
P 13546
who 13499
8 13470
J@@ 13463
ic 13459
ded 13413
ot@@ 13385
made 13383
ase 13340
ory 13332
ding 13276
must 13273
ms 13206
vi@@ 13200
O 13163
se 13122
rights 13106
ain 13075
Th@@ 12972
national 12952
Y@@ 12939
ements 12891
ph@@ 12873
ure 12783
9 12780
bi@@ 12780
sub@@ 12735
well 12735
oc@@ 12692
shall 12667
off@@ 12602
ter@@ 12591
ess@@ 12586
Ex@@ 12585
there 12524
ected 12490
ob@@ 12475
ak@@ 12470
ed@@ 12470
R 12464
those 12445
only 12393
under@@ 12365
through 12324
cont@@ 12267
com@@ 12231
1@@ 12213
services 12195
exp@@ 12168
ine 12164
comm@@ 12086
public 12046
reg@@ 12037
ings 12032
ing@@ 12012
year 11962
ability 11934
ep@@ 11875
anc@@ 11862
up 11849
ne@@ 11842
system 11833
be@@ 11790
ters 11771
health 11763
&apos; 11747
der 11708
if 11653
des@@ 11651
T 11617
An@@ 11543
gi@@ 11468
per 11434
order 11404
fac@@ 11385
pr@@ 11370
ear@@ 11360
no 11336
ves 11313
day 11299
hi@@ 11299
trans@@ 11287
qu@@ 11257
enti@@ 11223
sion 11190
0@@ 11187
pos@@ 11152
he@@ 11143
pri@@ 11136
id@@ 11131
Par@@ 11124
number 11100
sec@@ 11087
fi@@ 11070
tive 11063
about 11056
ons 10976
used 10957
gu@@ 10930
ates 10889
two 10867
activities 10830
min@@ 10784
dec@@ 10760
tri@@ 10741
av@@ 10614
over 10578
ely 10558
ell@@ 10554
ard 10541
10 10525
w 10469
St@@ 10434
human 10412
Government 10405
where 10405
within 10404
years 10403
ou@@ 10400
j@@ 10388
provide 10374
tional 10364
low 10344
some 10329
fin@@ 10317
ass@@ 10308
compl@@ 10280
most 10275
wh@@ 10263
so 10262
ency 10258
ia 10247
his 10236
ection 10208
UN@@ 10195
pres@@ 10185
ai@@ 10165
onal 10147
ce 10114
out@@ 10107
first 10091
king 10078
ast 10053
2005 10026
ari@@ 10001
str@@ 9982
ach@@ 9953
des 9924
ority 9917
people 9908
do@@ 9903
2006 9863
tu@@ 9814
pe@@ 9801
end@@ 9766
me 9748
f 9684
women 9681
no@@ 9674
date 9662
Act 9613
We 9578
ci@@ 9529
form 9529
2004 9505
ther 9505
process 9498
State 9491
du@@ 9484
x 9471
ori@@ 9466
dem@@ 9456
sur@@ 9437
end 9431
form@@ 9428
when 9416
International 9409
ill@@ 9402
sel@@ 9357
level 9349
ages 9340
mat@@ 9295
your 9294
00 9245
gr@@ 9195
ently 9182
ve@@ 9180
being 9155
ir@@ 9155
ants 9150
ish@@ 9143
based 9125
au@@ 9095
ch 9073
B 9061
speci@@ 9048
gh@@ 9047
need 9038
policy 9022
law 9014
F 9004
non 8992
ra@@ 8968
Al@@ 8963
economic 8950
take 8932
against 8924
ans 8920
could 8919
am 8916
management 8913
country 8909
resolution 8909
ise 8903
he 8898
them 8896
mar@@ 8887
part 8849
ver 8841
ven@@ 8769
Res@@ 8720
re 8716
view 8709
oper@@ 8694
ev@@ 8684
ended 8653
for@@ 8643
lim@@ 8637
ited 8634
ors 8627
following 8626
ses 8625
do 8614
od 8607
many 8603
provided 8599
2003 8590
ici@@ 8576
aw@@ 8572
? 8567
wn 8534
measures 8512
eg@@ 8495
2007 8463
As 8446
children 8427
ho@@ 8427
ati@@ 8420
hol@@ 8419
appro@@ 8416
both 8413
la@@ 8413
fied 8407
ow@@ 8405
ensure 8397
act 8390
ences 8389
int@@ 8365
sed 8365
&#91; 8353
pu@@ 8311
fo@@ 8305
session 8279
implementation 8259
represent@@ 8258
Wh@@ 8227
government 8223
during 8220
um@@ 8217
issues 8205
M 8204
right 8190
action 8189
For 8167
part@@ 8164
ful 8156
way 8156
ite 8152
social 8147
fe@@ 8146
Ar@@ 8145
lin@@ 8136
mon@@ 8122
each 8079
Member 8073
Assembly 8071
Convention 8069
&#93; 8066
port 8066
1.@@ 8057
x@@ 8042
2002 8014
ice 8012
stat@@ 7970
Co@@ 7946
data 7932
clo@@ 7918
ying 7904
ture 7882
fun@@ 7858
auth@@ 7829
meeting 7814
make 7810
impl@@ 7808
&apos;@@ 7797
ru@@ 7796
so@@ 7794
duc@@ 7787
important 7785
financial 7781
members 7776
cent 7762
and@@ 7751
tical 7745
sup@@ 7720
after 7714
medi@@ 7687
ord@@ 7673
service 7669
2000 7632
For@@ 7629
available 7623
2001 7620
ay@@ 7612
security 7587
ss 7580
acc@@ 7576
Mr. 7575
12 7556
Health 7550
ving 7540
place 7523
ist@@ 7508
por@@ 7494
N 7477
taken 7477
De@@ 7473
research 7462
Article 7460
ational 7457
paragraph 7451
air@@ 7444
sive 7441
case 7440
Development 7438
decision 7438
related 7432
period 7395
land 7390
all@@ 7385
set 7383
work@@ 7370
cl@@ 7365
ects 7333
resources 7328
section 7316
ies 7296
elec@@ 7292
ser@@ 7281
st 7274
arm@@ 7256
areas 7227
community 7224
br@@ 7217
change 7209
15 7184
Ad@@ 7179
particular 7168
sc@@ 7133
19@@ 7100
go@@ 7095
respect 7076
Secretary 7073
National 7053
President 7053
organizations 7045
ail@@ 7028
2.@@ 7012
over@@ 6998
equ@@ 6986
main@@ 6959
ght 6956
AN@@ 6951
same 6946
aff@@ 6941
further 6934
Su@@ 6929
der@@ 6923
ect 6920
30 6916
car@@ 6913
reas@@ 6896
IN@@ 6890
vely 6875
determin@@ 6861
see 6859
line 6856
tors 6852
ue 6845
ning 6830
indic@@ 6824
access 6816
fication 6771
ome 6766
11 6747
exc@@ 6746
quality 6742
tain@@ 6741
Mo@@ 6687
ann@@ 6683
att@@ 6683
three 6637
contr@@ 6614
val@@ 6613
ten@@ 6611
&gt; 6580
ame 6566
ens@@ 6561
regional 6553
dic@@ 6540
20 6522
ight 6496
respon@@ 6496
legal 6465
training 6452
fr@@ 6444
ant@@ 6437
high@@ 6430
before 6417
possible 6409
Group 6399
project 6398
L 6397
what 6395
Fin@@ 6381
Ap@@ 6380
Board 6351
ol 6334
area 6307
gro@@ 6297
Office 6295
ff@@ 6288
zed 6270
required 6264
air 6255
Se@@ 6254
fy 6253
ther@@ 6252
present@@ 6223
ain@@ 6219
ures 6211
protection 6210
requi@@ 6197
mi@@ 6192
Per@@ 6177
ris@@ 6159
regul@@ 6153
agre@@ 6150
come 6135
dies 6135
loc@@ 6123
ural 6123
Ac@@ 6112
cooperation 6109
rel@@ 6106
tic 6080
3.@@ 6074
ulation 6072
2008 6068
less 6068
13 6051
include 6046
own 6046
present 6046
ack@@ 6042
review 6037
necessary 6034
high 6015
efforts 6013
sign@@ 6001
ish 5992
person 5992
site 5982
effective 5978
program 5978
then 5965
If 5955
Me@@ 5955
Un@@ 5954
Rec@@ 5951
ten 5946
To 5945
Security 5940
ge 5925
Minister 5916
atory 5913
ved 5913
ail 5908
like 5904
Union 5898
working 5894
role 5893
business 5890
coll@@ 5890
basis 5879
dg@@ 5874
ok 5872
stu@@ 5872
education 5860
market 5857
specific 5855
En@@ 5854
&amp; 5852
ong 5839
programme 5836
defin@@ 5820
G 5816
million 5805
position 5785
draft 5770
ances 5765
ale 5764
how 5759
appe@@ 5758
now 5746
proc@@ 5743
10@@ 5730
tl@@ 5720
198@@ 5719
because 5711
ported 5709
Dis@@ 5701
coun@@ 5690
of@@ 5675
produc@@ 5673
appropriate 5672
low@@ 5651
wor@@ 5651
Conference 5647
world 5646
ference 5641
assistance 5630
our@@ 5626
ace 5624
om 5620
adv@@ 5609
Europe 5603
without 5602
eng@@ 5601
application 5594
bil@@ 5584
general 5584
continu@@ 5578
jo@@ 5573
0 5557
bro@@ 5557
tur@@ 5548
among 5543
political 5532
tern@@ 5524
ets 5509
Mon@@ 5476
identi@@ 5475
her@@ 5466
EC@@ 5465
relevant 5450
conditions 5448
ore 5437
erg@@ 5434
Nor@@ 5429
held 5426
established 5421
pay@@ 5419
December 5408
Reg@@ 5408
water 5397
ret@@ 5390
ality 5388
princip@@ 5385
pai@@ 5382
leg@@ 5376
outh 5370
clai@@ 5368
acy 5367
requirements 5358
asi@@ 5357
However 5353
does 5343
groups 5343
succ@@ 5331
Com@@ 5329
persons 5317
ues 5315
mp@@ 5306
tor 5306
opport@@ 5304
streng@@ 5304
group 5302
Rights 5297
Human 5294
conduc@@ 5291
ang@@ 5287
ilities 5283
ig@@ 5279
pen@@ 5274
self 5267
ni@@ 5265
sector 5265
key 5264
Republic 5258
developing 5257
issue 5241
results 5241
4.@@ 5239
increase 5239
adopted 5238
acts 5234
la 5233
needs 5232
ack 5231
since 5229
her 5228
tion@@ 5225
Tr@@ 5215
ports 5209
rit@@ 5209
accordance 5206
Department 5195
14 5190
sum@@ 5179
trade 5173
tor@@ 5166
Bu@@ 5156
foc@@ 5156
eci@@ 5154
local 5150
term 5150
care 5146
Agency 5142
while 5142
ust 5141
direc@@ 5138
iz@@ 5137
improv@@ 5135
These 5134
different 5133
ext@@ 5132
fer@@ 5132
ately 5130
On 5123
staff 5121
qui@@ 5117
There 5116
rece@@ 5108
sions 5104
continue 5103
situation 5099
whether 5099
50 5093
ner 5085
Gu@@ 5083
gener@@ 5080
EU 5070
products 5069
kno@@ 5065
ER@@ 5059
cases 5040
tes 5033
1999 5032
expres@@ 4995
ship 4983
ew@@ 4982
provisions 4980
ze 4978
vention 4977
June 4973
gen@@ 4967
,@@ 4959
ass 4956
tly 4954
tics 4952
ist 4949
duction 4943
lead@@ 4936
future 4922
inv@@ 4922
parties 4918
New 4915
ble 4911
given 4909
ali@@ 4908
ators 4905
ID@@ 4904
cour@@ 4901
article 4899
ases 4898
ines 4895
At 4894
ained 4890
reques@@ 4883
Fo@@ 4873
pur@@ 4873
Im@@ 4869
considered 4858
Dec@@ 4854
dy 4851
party 4848
rati@@ 4846
conclu@@ 4843
esses 4837
ens 4825
sen@@ 4814
capacity 4813
means 4808
Public 4802
proposed 4794
life 4790
risk 4788
help 4783
med 4783
199@@ 4769
rou@@ 4768
systems 4764
Fe@@ 4762
12@@ 4758
lis@@ 4758
govern@@ 4751
regard 4750
uring 4748
establish@@ 4743
Pre@@ 4737
lu@@ 4736
ective 4731
offici@@ 4726
ories 4725
pow@@ 4718
25 4712
enh@@ 4712
current 4711
Americ@@ 4706
ered 4702
ge@@ 4700
my 4698
full 4695
Service 4693
ree 4687
projects 4686
els 4684
20@@ 4679
institutions 4678
fu@@ 4676
tic@@ 4675
16 4671
ke@@ 4671
vic@@ 4670
Court 4668
tro@@ 4668
AR@@ 4665
mis@@ 4660
employment 4656
force 4655
mental 4645
long 4644
eve 4639
ized 4638
recogni@@ 4637
Parliament 4634
vent 4633
atives 4629
IC@@ 4624
example 4622
18 4620
table 4613
said 4610
ound 4609
March 4595
Comm@@ 4592
levels 4588
side 4588
strategi@@ 4588
func@@ 4582
mission 4581
document 4580
special 4580
control 4579
Au@@ 4574
associ@@ 4570
design@@ 4567
plan 4567
Mr 4559
though 4557
total 4556
subject 4551
particip@@ 4547
rem@@ 4535
ders 4529
ols 4529
corpor@@ 4524
comple@@ 4519
point 4515
result 4509
plac@@ 4496
using 4489
cons@@ 4487
ban@@ 4483
id 4478
policies 4474
contribu@@ 4473
del@@ 4464
sk@@ 4463
5.@@ 4458
RE@@ 4454
ow 4450
ening 4449
rement 4444
sid@@ 4443
approach 4438
man 4438
deb@@ 4426
various 4421
cri@@ 4418
Information 4417
discus@@ 4417
environmental 4412
materi@@ 4411
provides 4408
tis@@ 4408
Environ@@ 4406
Program 4405
fully 4395
0.@@ 4387
member 4382
account 4377
invest@@ 4370
cho@@ 4368
mary 4367
reports 4367
dra@@ 4366
www.@@ 4364
ib@@ 4361
* 4360
nex 4353
incre@@ 4352
amount 4351
ization 4350
second 4350
struc@@ 4346
uni@@ 4346
31 4334
dit 4334
actions 4329
framework 4323
entr@@ 4322
addition 4316
September 4310
population 4307
comb@@ 4301
Trans@@ 4297
ation@@ 4297
fl@@ 4293
developed 4292
curr@@ 4291
19 4287
standing 4275
oms 4274
scho@@ 4274
agreement 4273
achiev@@ 4271
federal 4269
ental 4266
ach 4263
ices 4262
Community 4260
costs 4260
address 4254
Le@@ 4253
protec@@ 4251
pers@@ 4242
00@@ 4240
May 4239
Po@@ 4236
itted 4235
call@@ 4233
17 4231
did 4228
ma@@ 4222
expl@@ 4220
Pr@@ 4219
terms 4217
ward 4216
arly 4212
accep@@ 4211
tice 4210
even 4206
active 4198
CO@@ 4197
cap@@ 4197
mark@@ 4192
est@@ 4191
ased 4185
refer@@ 4184
und 4183
sure 4181
az@@ 4178
ef 4174
Mar@@ 4167
integr@@ 4165
environment 4162
deleg@@ 4161
Inter@@ 4158
valuation 4155
ways 4152
fer 4151
commit@@ 4150
ator 4145
ne 4144
rate 4143
Ro@@ 4138
ste@@ 4138
therefore 4134
programmes 4131
il 4122
programs 4121
spe@@ 4116
ands 4110
ness 4108
ology 4107
operation 4107
ur 4107
region 4105
X@@ 4104
making 4104
ender 4103
val 4103
enc@@ 4100
certain 4092
tain 4092
industry 4089
fic 4083
Off@@ 4076
suff@@ 4075
alis@@ 4071
competi@@ 4071
good 4067
progress 4067
half 4056
impact 4055
World 4053
app@@ 4051
col@@ 4051
major 4049
authorities 4046
July 4045
production 4044
No. 4034
fact 4031
000 4029
fic@@ 4028
technical 4012
building 4008
plann@@ 4004
above 4000
April 3995
Cor@@ 3993
put 3992
EN@@ 3991
ests 3991
interest 3991
received 3991
Pl@@ 3989
invol@@ 3975
wel@@ 3975
dom 3973
individual 3963
ering 3962
bel@@ 3961
funding 3961
ave 3949
Direc@@ 3947
Fr@@ 3947
forc@@ 3947
particularly 3945
Is@@ 3938
dam@@ 3936
encour@@ 3931
Pe@@ 3928
Special 3923
dated 3922
lic@@ 3921
common 3920
aci@@ 3918
No@@ 3915
cost 3914
gre@@ 3913
First 3912
ners 3912
Report 3911
18@@ 3910
recommendations 3910
ards 3909
territ@@ 3908
cu@@ 3907
eth@@ 3907
Economic 3904
knowledge 3904
significant 3904
assessment 3902
Br@@ 3901
conflic@@ 3901
Acc@@ 3899
great@@ 3894
October 3893
sol@@ 3892
ological 3891
pursu@@ 3888
unities 3888
Y 3881
legislation 3880
small 3879
IS@@ 3876
ill 3876
inform@@ 3874
vision 3874
21 3870
child 3865
intro@@ 3864
try 3861
allow@@ 3859
ety 3859
question 3856
additional 3852
included 3850
.1 3848
inclu@@ 3844
tern 3843
changes 3838
accoun@@ 3835
due 3833
ws 3832
beli@@ 3829
set@@ 3828
Ass@@ 3827
IP@@ 3825
ose 3824
Pri@@ 3822
Social 3821
esti@@ 3818
tre@@ 3817
art 3813
cial 3811
budget 3808
up@@ 3808
Research 3806
atis@@ 3805
r 3805
sug@@ 3805
guid@@ 3804
benef@@ 3800
field 3800
found 3796
Min@@ 3792
crib@@ 3791
AT@@ 3789
tural 3789
study 3787
Services 3782
vari@@ 3782
January 3779
ital 3779
beg@@ 3775
standards 3774
November 3773
24 3772
ju@@ 3772
private 3770
ner@@ 3765
pa@@ 3760
led 3753
H 3749
increased 3749
are@@ 3746
tin@@ 3743
Man@@ 3741
Management 3731
s. 3731
orities 3730
ber 3728
eting 3727
anti@@ 3726
investi@@ 3718
esp@@ 3717
retur@@ 3710
value 3710
prob@@ 3709
light 3705
ared 3704
bu@@ 3700
tra@@ 3700
amend@@ 3698
fil@@ 3698
goods 3698
AC@@ 3693
bre@@ 3691
ily 3690
aged 3689
still 3685
Ontario 3681
eted 3676
taking 3673
concerned 3670
ement@@ 3649
pi@@ 3648
communities 3646
food 3643
char@@ 3640
existing 3640
cat@@ 3635
har@@ 3628
Z@@ 3625
cir@@ 3625
ication 3625
ications 3625
upon 3625
They 3621
jur@@ 3616
organization 3610
Govern@@ 3608
wards 3608
refl@@ 3604
Sub@@ 3602
eria 3594
rules 3594
submitted 3594
develop 3589
lab@@ 3582
ina 3572
cle@@ 3570
Bo@@ 3564
II 3564
igh@@ 3562
global 3557
dr@@ 3555
Institu@@ 3552
large 3552
regi@@ 3552
third 3550
No 3544
importance 3543
dat@@ 3542
ps 3542
Indi@@ 3540
growth 3536
income 3536
vo@@ 3536
deli@@ 3531
last 3528
ask@@ 3526
remain@@ 3526
Organization 3525
ext 3523
institu@@ 3522
duced 3521
agenda 3520
af@@ 3519
sti@@ 3518
istr@@ 3514
peace 3504
request 3502
tax 3501
Working 3499
eral 3497
concerning 3495
eli@@ 3494
22 3493
ours 3492
ek 3490
propos@@ 3486
several 3486
EC 3484
aining 3483
address@@ 3482
nership 3481
society 3481
mechanis@@ 3480
cor@@ 3478
All 3476
potential 3475
Centre 3474
ren@@ 3472
ics 3470
improve 3466
property 3463
cover@@ 3462
going 3462
participation 3462
cultural 3455
ked 3455
practi@@ 3452
zation 3449
= 3446
family 3443
performance 3443
better 3440
lat@@ 3433
1998 3432
lar@@ 3430
hic@@ 3428
agencies 3422
note 3422
Regi@@ 3421
60 3417
appli@@ 3417
previ@@ 3416
sing 3413
tim@@ 3412
IV 3410
ems 3410
just 3406
ES 3397
already 3397
cro@@ 3397
hy@@ 3397
terroris@@ 3397
ace@@ 3394
safety 3394
effici@@ 3391
net@@ 3390
Affairs 3386
conom@@ 3381
He 3380
documents 3376
operations 3376
nam@@ 3375
noted 3374
however 3373
ong@@ 3370
five 3367
four 3367
much 3365
ON@@ 3362
nal 3361
promote 3361
them@@ 3361
list 3358
Agreement 3355
Ter@@ 3349
fre@@ 3347
negoti@@ 3344
enting 3342
ress 3341
... 3337
eu@@ 3336
free 3332
Programme 3329
eff@@ 3328
organiz@@ 3325
treatment 3324
carri@@ 3320
mod@@ 3320
itation 3319
ple@@ 3319
lear@@ 3318
bal@@ 3315
,000 3312
ope 3311
IT@@ 3309
technology 3308
cul@@ 3305
responsible 3305
procedures 3303
consideration 3301
least 3298
best 3296
Africa 3293
Qu@@ 3290
pat@@ 3280
TI@@ 3276
mer 3275
23 3274
effecti@@ 3273
objectives 3268
buil@@ 3267
crimin@@ 3267
initi@@ 3258
Canadians 3255
employ@@ 3252
tered 3249
energy 3248
mit 3248
views 3247
40 3246
constitu@@ 3240
unity 3239
acro@@ 3235
language 3235
ry 3234
ends 3229
forms 3227
ft 3225
ept 3224
context 3221
problems 3221
ces 3216
ei@@ 3214
response 3212
cop@@ 3211
sustainable 3211
another 3209
ships 3206
vol@@ 3206
iv@@ 3201
item 3200
ars 3197
days 3197
ey 3197
involved 3197
depart@@ 3195
resp@@ 3195
ned 3194
op 3186
larg@@ 3182
benefits 3181
concer@@ 3179
isl@@ 3179
providing 3178
cust@@ 3175
Col@@ 3174
status 3173
Bri@@ 3172
works 3172
proposal 3169
ince 3168
13@@ 3167
tw@@ 3167
difficul@@ 3166
here 3163
citiz@@ 3161
governmental 3161
issu@@ 3161
main 3159
comes 3157
effect 3156
abor@@ 3155
apply 3152
bili@@ 3152
ling 3152
rest 3151
ouse 3150
istry 3148
nat@@ 3147
ously 3142
bur@@ 3141
consi@@ 3139
Other 3138
meet 3138
valu@@ 3138
targ@@ 3135
u 3131
Cl@@ 3126
elines 3126
atic 3125
ke 3124
ecutive 3122
clear 3119
exper@@ 3116
Tra@@ 3112
meetings 3112
proced@@ 3110
dru@@ 3109
practices 3109
gs 3108
purpose 3104
Treat@@ 3102
Af@@ 3098
multi@@ 3097
Commission@@ 3094
activity 3094
26 3093
hen@@ 3086
analysis 3082
strategy 3078
Parties 3072
suppl@@ 3071
ains 3068
initiatives 3068
Des@@ 3064
chem@@ 3063
together 3063
OR@@ 3056
sy@@ 3056
tel@@ 3054
milit@@ 3049
With 3048
&#124; 3045
duce 3045
V 3043
ive 3042
phy@@ 3042
Sup@@ 3040
pon@@ 3038
proce@@ 3037
ask 3035
provision 3035
thern 3035
Regulations 3034
pol@@ 3034
state 3031
decisions 3028
asing 3025
Aboriginal 3024
27 3023
individu@@ 3022
follow@@ 3021
bia 3020
arian 3018
ature 3018
uclear 3018
adi@@ 3014
go 3013
domestic 3011
responsibility 3011
28 3010
aid 3004
Ho@@ 3003
K 3003
cip@@ 3003
em 3001
hist@@ 3001
dents 2998
facilit@@ 2997
ide 2997
next 2997
wide 2997
ales 2991
annual 2991
del 2991
dependent 2990
fol@@ 2989
months 2987
viol@@ 2985
29 2980
evidence 2977
monitoring 2973
17@@ 2969
El@@ 2967
challeng@@ 2967
relating 2962
foreign 2959
become 2956
differ@@ 2955
ew 2954
ism 2952
An 2948
ending 2945
v 2945
cannot 2944
give 2943
ou 2943
Wor@@ 2942
15@@ 2940
product 2938
Q@@ 2937
poses 2935
Fund 2934
int 2928
February 2927
Strat@@ 2923
lik@@ 2923
He@@ 2922
regarding 2918
ination 2915
Section 2912
hel@@ 2912
6.@@ 2911
pp@@ 2909
peri@@ 2908
detail@@ 2907
TR@@ 2905
co 2905
posi@@ 2903
tradi@@ 2902
Stat@@ 2900
Sp@@ 2895
depend@@ 2894
course 2893
res 2893
Ban@@ 2891
conn@@ 2891
SC@@ 2890
essenti@@ 2885
ource 2885
compli@@ 2880
cent@@ 2877
men@@ 2877
metho@@ 2876
ordin@@ 2874
1,@@ 2870
porting 2870
tation 2867
Chil@@ 2864
01 2862
ll@@ 2862
mul@@ 2862
not@@ 2862
ton 2860
pub@@ 2859
identified 2857
oth@@ 2856
ater 2855
Secretariat 2854
accord@@ 2853
ury 2852
vement 2852
violence 2848
Sum@@ 2847
gn@@ 2846
ign 2845
stand@@ 2845
cau@@ 2844
employees 2844
experience 2842
ulations 2841
Tribunal 2838
ce@@ 2838
Director 2837
Li@@ 2836
rap@@ 2836
cription 2834
tron@@ 2834
mu@@ 2827
range 2827
view@@ 2826
grap@@ 2825
gration 2825
raft 2825
14@@ 2824
16@@ 2822
Rel@@ 2821
Policy 2817
attention 2817
let@@ 2816
Or@@ 2813
professi@@ 2809
anies 2808
bri@@ 2808
Techn@@ 2799
having 2795
quali@@ 2795
recommend@@ 2793
Gre@@ 2790
conc@@ 2788
ership 2786
ake 2785
back 2784
reporting 2773
Que@@ 2771
inc@@ 2769
pris@@ 2767
Afric@@ 2765
nee@@ 2762
ss@@ 2756
ign@@ 2751
bl@@ 2749
Action 2747
.m. 2745
OF 2744
ject 2743
ills 2742
trav@@ 2740
direct 2739
contin@@ 2736
plans 2736
aver@@ 2733
equipment 2733
ord 2733
ges@@ 2729
emb@@ 2724
2009 2721
Aug@@ 2721
gh 2720
observ@@ 2719
Law 2716
Plan 2713
inst@@ 2713
1997 2708
French 2705
ene@@ 2705
iter@@ 2703
old 2696
times 2696
197@@ 2693
Coun@@ 2687
ere@@ 2687
ind@@ 2687
discrimination 2686
exclu@@ 2685
som@@ 2683
enni@@ 2681
ecti@@ 2671
Char@@ 2670
CI@@ 2669
quar@@ 2666
pli@@ 2665
tries 2663
Di@@ 2660
tem@@ 2660
cum@@ 2655
consider@@ 2654
Ger@@ 2648
ition 2646
Administr@@ 2645
X 2642
manufac@@ 2633
civil 2631
rele@@ 2631
THE 2630
exten@@ 2630
substanti@@ 2629
AL 2628
tax@@ 2627
AD@@ 2621
communication 2617
omen 2614
inf@@ 2613
ls 2611
cas@@ 2604
den 2589
ine@@ 2589
pass@@ 2588
questions 2586
saf@@ 2584
don@@ 2576
Ne@@ 2574
1996 2570
Comp@@ 2569
che@@ 2566
face 2565
dro@@ 2563
examin@@ 2563
establis@@ 2561
simil@@ 2561
actu@@ 2560
ods 2558
US 2556
nature 2542
Go@@ 2541
Op@@ 2538
imp@@ 2538
http 2533
Ag@@ 2530
ak 2530
assess@@ 2530
tures 2529
gation 2527
Eng@@ 2522
sible 2522
til 2521
versity 2520
serv@@ 2519
ple 2517
contribution 2515
occ@@ 2514
administrative 2512
ere 2511
ote 2508
exerc@@ 2503
soli@@ 2503
ays 2502
.g@@ 2501
arrang@@ 2501
ber@@ 2499
sem@@ 2498
un 2493
otel 2492
achi@@ 2486
applic@@ 2485
ot 2484
estim@@ 2476
type 2476
ument 2472
Amend@@ 2471
Isra@@ 2459
office 2458
arri@@ 2456
Jus@@ 2455
Pol@@ 2455
DP 2454
Indus@@ 2454
recomm@@ 2454
transport 2454
nor@@ 2453
bec@@ 2452
tiv@@ 2451
ili@@ 2449
satis@@ 2448
istan 2444
Vi@@ 2443
vice 2440
! 2435
crit@@ 2434
nu@@ 2431
Russi@@ 2430
son 2426
tal@@ 2426
gl@@ 2419
rais@@ 2419
innov@@ 2406
mor@@ 2406
vers 2405
University 2401
reli@@ 2400
file 2396
consist@@ 2395
dge 2393
bec 2388
ick 2386
sou@@ 2386
Ab@@ 2381
TA@@ 2377
ole 2373
aint 2368
resul@@ 2366
provincial 2363
Ko@@ 2361
vers@@ 2356
igh 2349
porteur 2348
Protoco@@ 2346
CE@@ 2344
tection 2344
100 2343
Contr@@ 2343
agricul@@ 2343
discussion 2343
initiative 2343
7.@@ 2342
num@@ 2342
cy@@ 2339
Jo@@ 2338
Employ@@ 2336
Bel@@ 2334
Cont@@ 2331
xim@@ 2330
New@@ 2328
Table 2328
conven@@ 2324
urg@@ 2323
basi@@ 2318
ese 2317
◦ 2317
Code 2315
.gc.ca 2312
cam@@ 2309
ort 2309
obligations 2308
capital 2306
poin@@ 2305
U 2303
final 2303
grad@@ 2303
inte@@ 2299
location 2294
RC 2291
sul@@ 2288
chi@@ 2286
ax 2285
deral 2281
tric@@ 2279
ources 2275
reco@@ 2273
page 2272
lish 2265
AP@@ 2260
certi@@ 2259
os 2256
ion 2253
minis@@ 2253
ven 2248
concern@@ 2247
subm@@ 2246
portation 2244
ade 2243
pap@@ 2242
objecti@@ 2240
C. 2235
ON 2234
CC@@ 2233
olu@@ 2225
ession 2224
prof@@ 2224
contributions 2220
long@@ 2216
uses 2216
entation 2214
famili@@ 2211
sus 2206
missions 2205
there@@ 2205
Doc@@ 2203
truc@@ 2203
S. 2199
met@@ 2199
Minis@@ 2196
z 2195
02 2194
1995 2194
Sci@@ 2194
contro@@ 2194
ER 2193
ittee 2191
transi@@ 2189
police 2187
points 2185
financ@@ 2183
restric@@ 2183
centr@@ 2179
personnel 2179
ref@@ 2179
Syst@@ 2177
the@@ 2177
sw@@ 2175
humanit@@ 2173
03 2170
opinion 2170
rest@@ 2169
shi@@ 2168
Air 2165
issions 2164
six 2161
Am@@ 2158
Cro@@ 2157
chang@@ 2155
fa@@ 2153
Add@@ 2152
ats 2149
AS@@ 2148
anim@@ 2148
ections 2148
throu@@ 2148
migr@@ 2147
contact 2145
fir@@ 2145
ords 2141
paration 2140
scienti@@ 2139
arg@@ 2136
dent 2136
Asi@@ 2127
olutions 2126
Division 2124
05 2120
participants 2119
Inv@@ 2118
Internet 2117
coordin@@ 2116
iver 2115
clu@@ 2114
ustr@@ 2114
applicable 2112
SI@@ 2104
55 2100
acti@@ 2094
04 2075
aspects 2072
sites 2071
fications 2070
Ph@@ 2069
construction 2066
emp@@ 2063
-@@ 2060
meas@@ 2051
tak@@ 2050
maxim@@ 2046
Association 2044
ful@@ 2044
adoption 2042
justice 2038
applications 2036
W 2033
ans@@ 2033
ile 2030
06 2029
compar@@ 2029
sal@@ 2029
8.@@ 2026
tification 2025
sis 2024
amp@@ 2020
oph@@ 2019
commercial 2017
ament 2016
ables 2015
distribution 2012
version 2012
requ@@ 2004
modi@@ 2002
Gr@@ 1998
oll@@ 1996
consultations 1993
AC 1992
correc@@ 1990
Tur@@ 1988
exam@@ 1983
Mission 1980
sources 1979
occup@@ 1978
ins 1977
ST 1975
act@@ 1972
C.@@ 1970
Proc@@ 1970
alestini@@ 1968
develop@@ 1968
infrastructure 1968
dation 1967
vote 1967
confi@@ 1966
joint 1961
45 1959
insp@@ 1958
35 1957
SC 1956
lement 1956
ich@@ 1955
rup@@ 1955
equi@@ 1952
priv@@ 1952
promo@@ 1952
Her@@ 1951
conse@@ 1950
ii 1950
structure 1950
denti@@ 1949
reat@@ 1947
On@@ 1945
employe@@ 1942
Em@@ 1939
influ@@ 1931
cel@@ 1930
concentr@@ 1926
Ottawa 1924
coordination 1923
instruments 1923
gran@@ 1922
ear 1921
Date 1919
dialogue 1919
Lo@@ 1914
+ 1913
dou@@ 1911
experi@@ 1907
fav@@ 1904
sm@@ 1903
partment 1902
Por@@ 1901
ti 1901
Commun@@ 1897
radi@@ 1897
Dem@@ 1891
AL@@ 1887
norm@@ 1886
promotion 1886
AM@@ 1884
adop@@ 1880
ques@@ 1875
1994 1874
63 1873
UR@@ 1871
cer@@ 1870
Ob@@ 1869
confir@@ 1865
France 1864
super@@ 1864
Rap@@ 1863
ision 1863
situ@@ 1863
migration 1862
@ 1860
RO@@ 1858
net 1858
maj@@ 1857
q 1856
uc@@ 1849
EM@@ 1848
judici@@ 1846
Num@@ 1845
mun@@ 1844
prov@@ 1844
ous@@ 1842
US@@ 1838
Ira@@ 1835
source 1833
icul@@ 1831
Cap@@ 1827
lob@@ 1826
administration 1825
arr@@ 1825
ga@@ 1824
80 1820
Tor@@ 1820
P.@@ 1818
CH@@ 1816
90 1802
arb@@ 1802
classi@@ 1801
minimum 1800
charg@@ 1799
menti@@ 1798
susp@@ 1797
inten@@ 1793
with@@ 1793
ES@@ 1790
perform@@ 1790
forces 1789
usiness 1789
Ser@@ 1784
civi@@ 1782
We@@ 1781
relation 1778
Be@@ 1777
consultation 1777
58 1776
Initi@@ 1776
2,@@ 1775
57 1775
stitution 1774
avo@@ 1773
types 1773
culture 1771
-- 1770
analy@@ 1769
docum@@ 1768
sexu@@ 1767
ath@@ 1766
dom@@ 1760
Gen@@ 1757
just@@ 1756
Bi@@ 1752
ani@@ 1749
ATION 1747
expos@@ 1741
industri@@ 1741
treat@@ 1738
ran@@ 1734
uti@@ 1734
religi@@ 1733
Ou@@ 1732
Lib@@ 1729
monit@@ 1729
Web 1727
limin@@ 1727
mes 1726
59 1725
calcul@@ 1725
pati@@ 1725
serve 1724
33 1723
Memb@@ 1716
read@@ 1716
soci@@ 1715
technologies 1714
langu@@ 1712
9.@@ 1708
61 1707
.org 1704
ox@@ 1704
assu@@ 1703
signific@@ 1703
itable 1701
mer@@ 1700
hand@@ 1698
essi@@ 1696
met 1692
Total 1684
tan@@ 1679
AN 1676
CR@@ 1676
70 1674
crime 1674
L.@@ 1673
eption 1672
charge 1671
transpar@@ 1671
56 1666
og@@ 1666
ire 1662
ariat 1661
exis@@ 1657
thou@@ 1657
aur@@ 1653
consul@@ 1653
fore 1648
experts 1643
log@@ 1643
effor@@ 1639
vir@@ 1638
relations 1636
ducation 1630
III 1627
dence 1624
r. 1623
ions 1618
nation@@ 1617
indi@@ 1616
PC@@ 1615
pend@@ 1612
Bureau 1611
32 1609
essions 1608
IM@@ 1607
onn@@ 1599
iture 1598
0,@@ 1597
EP@@ 1597
ST@@ 1594
07 1593
Mal@@ 1593
egy 1593
port@@ 1592
▪ 1590
Sy@@ 1589
pan@@ 1587
propor@@ 1586
iti@@ 1583
termin@@ 1582
urr@@ 1582
ENT 1580
communications 1579
sci@@ 1579
moder@@ 1578
Speci@@ 1566
grow@@ 1566
oring 1565
reign 1557
ress@@ 1557
Si@@ 1554
onto 1550
produ@@ 1550
wi@@ 1550
é 1545
urb@@ 1542
incid@@ 1540
asse@@ 1539
ones 1538
can@@ 1535
cle 1535
affir@@ 1528
EL@@ 1526
reven@@ 1526
tho@@ 1522
fisc@@ 1520
positions 1519
peop@@ 1517
habit@@ 1515
tribu@@ 1513
Car@@ 1511
aste 1510
centre 1502
ir 1501
24@@ 1500
SO@@ 1500
hav@@ 1499
stoc@@ 1499
ub@@ 1496
ellectu@@ 1494
Joh@@ 1493
dren 1490
obj@@ 1489
Alberta 1485
adap@@ 1482
sor@@ 1482
ths 1481
candidat@@ 1478
Can@@ 1474
08 1473
au 1472
solution 1471
34 1467
istance 1464
recru@@ 1463
ont 1462
vul@@ 1461
cause 1459
distribu@@ 1456
encies 1456
mic@@ 1456
tention 1456
cli@@ 1452
orig@@ 1451
base 1450
commun@@ 1448
75 1444
aly@@ 1444
TS 1442
hon@@ 1442
que 1442
acces@@ 1441
29@@ 1440
jus@@ 1440
ites 1438
stain@@ 1438
2010 1437
instr@@ 1436
san@@ 1436
62 1435
ches 1433
37 1432
é@@ 1431
budg@@ 1430
A. 1429
itte@@ 1427
pe 1424
Soci@@ 1422
51 1420
olution 1420
da 1417
Sec@@ 1416
ment@@ 1416
province 1416
public@@ 1416
36 1415
itr@@ 1414
54 1412
omm@@ 1411
centres 1409
hom@@ 1409
67 1408
enn@@ 1399
harmon@@ 1399
48 1393
rom 1393
CN@@ 1390
Ver@@ 1390
anis@@ 1390
ementation 1388
prises 1384
quanti@@ 1384
cal@@ 1383
rer 1379
chall@@ 1377
anding 1375
39 1374
certain@@ 1371
usin@@ 1371
ause 1370
fem@@ 1370
pose 1368
pre 1368
amework 1365
lig@@ 1364
09 1363
dix 1362
41 1359
eri@@ 1356
extr@@ 1356
ty@@ 1356
ission 1351
parti@@ 1348
original 1345
collaboration 1341
permanent 1338
65 1336
assi@@ 1333
PO@@ 1331
ana 1330
paragrap@@ 1330
500 1328
dang@@ 1328
obligation 1328
diver@@ 1327
pil@@ 1326
1990 1323
Str@@ 1319
erc@@ 1315
articles 1313
dre@@ 1309
ht@@ 1308
second@@ 1307
So@@ 1306
Sel@@ 1301
PRO@@ 1296
trad@@ 1287
aj@@ 1285
ange 1283
exemp@@ 1282
ived 1281
49 1280
egi@@ 1280
sident 1279
fig@@ 1278
publication 1275
eld 1274
Organ@@ 1273
ploy@@ 1270
solutions 1270
correspon@@ 1267
provinces 1267
four@@ 1265
ution 1265
sibility 1264
uit 1262
44 1261
simp@@ 1261
IL@@ 1260
proper@@ 1260
95 1258
du 1257
facil@@ 1257
municip@@ 1257
tec@@ 1255
52 1253
licence 1248
servation 1247
bon 1246
ATI@@ 1241
di 1241
mag@@ 1241
tt@@ 1238
42 1237
provis@@ 1237
ie 1232
memb@@ 1232
mari@@ 1225
program@@ 1225
ech@@ 1224
GR@@ 1220
organis@@ 1213
fur@@ 1210
COM@@ 1209
direction 1209
28@@ 1203
fix@@ 1203
38 1198
audi@@ 1197
exist@@ 1196
populations 1196
64 1195
oration 1193
quent 1189
gar@@ 1188
SA@@ 1182
VI@@ 1182
possibil@@ 1182
tour@@ 1179
PR@@ 1178
techn@@ 1177
autom@@ 1175
minu@@ 1175
CON@@ 1172
agrap@@ 1171
candi@@ 1168
ax@@ 1166
import@@ 1161
ule 1161
enda 1159
airs 1158
ich 1156
provi@@ 1156
ra 1155
distinc@@ 1152
abil@@ 1151
construc@@ 1151
tres 1151
ame@@ 1143
ron@@ 1142
install@@ 1141
substances 1141
&lt; 1139
stainable 1139
impos@@ 1135
ils 1131
J 1129
Program@@ 1129
oth 1128
condition 1125
tari@@ 1122
Sal@@ 1120
asp@@ 1119
ager 1116
crip@@ 1115
ules 1114
uments 1112
zone 1108
Parti@@ 1106
aine 1096
# 1095
Cer@@ 1095
clients 1094
venant 1092
engag@@ 1089
peti@@ 1088
LE 1086
liber@@ 1086
bour@@ 1080
3,@@ 1076
Pub@@ 1076
tit@@ 1075
explo@@ 1071
IR@@ 1069
cr@@ 1068
Q 1067
chap@@ 1065
ense 1064
sever@@ 1061
Nov@@ 1060
doc@@ 1060
placement 1060
avail@@ 1057
cid@@ 1053
tab@@ 1053
Uni@@ 1048
uation 1048
° 1048
CE 1047
UNIC@@ 1046
knowle@@ 1043
necess@@ 1038
absence 1037
unique 1037
subst@@ 1036
conomi@@ 1035
200@@ 1033
ographi@@ 1032
syst@@ 1032
UR 1022
ples 1011
plo@@ 1011
acqu@@ 1009
q@@ 998
DE 996
appropri@@ 995
stitu@@ 995
ll 993
nov@@ 992
ta 991
formation 990
abr@@ 989
ma 988
transfer@@ 985
ﬁ@@ 985
incip@@ 980
relati@@ 970
aire 966
dispos@@ 964
ait 960
regar@@ 960
glob@@ 958
TION 951
TH@@ 950
plus 948
prise 948
cc@@ 946
cou@@ 941
organisations 939
ors@@ 938
add@@ 937
dur@@ 936
fe 936
ith 936
interven@@ 928
mil@@ 926
origin@@ 921
Québec 919
syn@@ 919
journ@@ 909
relative 903
dev@@ 901
pon 901
dollars 900
conform@@ 899
nom@@ 898
vities 896
mal@@ 891
Develop@@ 890
server 890
sion@@ 889
gni@@ 888
Roy@@ 886
ut 885
const@@ 883
aut@@ 880
Tri@@ 878
attribu@@ 878
ener@@ 877
directive 876
dits 876
illi@@ 875
iss@@ 872
\ 870
.ca 869
aff 865
ais 852
abs@@ 848
ird 847
ologi@@ 835
discrimin@@ 829
lic 829
prom@@ 828
indus@@ 825
isation 824
tant 824
internation@@ 823
exploitation 822
ette 821
olog@@ 821
tre 818
ET 817
ond@@ 816
c. 815
pop@@ 811
minim@@ 810
class@@ 807
€ 804
deman@@ 803
ais@@ 802
tot@@ 802
fici@@ 801
pression 799
à 797
vel@@ 791
As@@ 790
La@@ 790
organ@@ 787
M. 786
sidence 780
formul@@ 779
quot@@ 776
5,@@ 775
ourn@@ 775
consult@@ 772
appl@@ 771
Parli@@ 770
ready 766
hal@@ 765
................@@ 763
whe@@ 763
hau@@ 760
isc@@ 760
appar@@ 756
enef@@ 756
tives 756
rier 753
earch 752
rig@@ 750
tude 745
entre@@ 743
ticles 742
principal 739
environ@@ 738
euro@@ 738
poli@@ 737
gan@@ 733
cha@@ 728
proj@@ 728
rements 728
compos@@ 725
tings 725
mise 724
ille 721
fau@@ 720
destin@@ 718
vise 718
une 717
va 716
annu@@ 715
OM@@ 713
alisation 713
anç@@ 712
car 710
uly 709
ablis@@ 708
occu@@ 699
ises 693
era 692
hum@@ 692
Oc@@ 690
techniques 690
Ann@@ 687
á@@ 685
Euro@@ 684
capac@@ 683
yer 682
tionn@@ 678
rev@@ 671
conf@@ 669
ier 662
La 661
ient 660
tob@@ 659
prot@@ 655
alth 654
condi@@ 652
infr@@ 652
surveillance 646
affec@@ 645
prog@@ 645
auc@@ 643
pment 643
Hum@@ 642
mati@@ 642
fron@@ 641
mani@@ 630
propri@@ 627
cus@@ 626
organisation 625
nav@@ 624
echn@@ 623
ins@@ 622
intention 620
Colom@@ 619
í@@ 619
pren@@ 617
tou@@ 612
mises 609
urs 608
ai 604
strat@@ 602
relev@@ 599
union 595
cin@@ 594
ould 588
ó@@ 585
sit@@ 581
engagement 580
tel 579
anci@@ 576
manu@@ 574
potenti@@ 573
· 566
fs 560
agr@@ 558
human@@ 558
diff@@ 557
sib@@ 557
wle@@ 557
− 556
bun@@ 550
oblig@@ 548
alogue 543
envis@@ 543
© 543
minist@@ 539
ques 537
distin@@ 531
ü@@ 530
astruc@@ 526
Z 524
respec@@ 524
grav@@ 523
ha@@ 522
jud@@ 521
Associ@@ 517
aison 511
cher 511
cen@@ 507
toco@@ 506
chil@@ 505
----@@ 504
ô@@ 502
É@@ 500
millions 498
doll@@ 495
j 494
abo@@ 492
derni@@ 490
moment 490
vidu@@ 486
ö@@ 484
tend@@ 482
® 482
alestin@@ 480
prove 479
elle 477
che 476
Cour@@ 475
anni@@ 473
administr@@ 471
exes 469
fam@@ 468
Agre@@ 464
activ@@ 462
occasion 458
pour 458
eurs 457
pes 457
sa 448
Av@@ 447
ta@@ 447
tent 447
± 442
� 441
opin@@ 440
aux 436
rend@@ 436
ix 435
Le 430
polic@@ 428
ount 422
tat@@ 422
gues 421
commerci@@ 418
hab@@ 417
porter 416
premi@@ 411
LA 409
qual@@ 408
righ@@ 407
ue@@ 407
sur 406
aven@@ 403
lev@@ 401
commerce 397
cos@@ 397
Grou@@ 395
isions 393
atin@@ 392
icip@@ 392
zones 392
ears 391
estin@@ 390
je@@ 383
grou@@ 381
assurance 378
cham@@ 378
Ã 377
--@@ 376
ée 373
beau@@ 365
trou@@ 365
ween 363
gestion 361
terr@@ 360
ä@@ 358
lut@@ 357
unions 356
par 355
ada 354
portant 354
mom@@ 353
c.ca 351
Organisation 347
Vo@@ 345
‑ 341
mech@@ 340
tran@@ 340
aboration 337
aires 337
pens@@ 336
ainst 335
gram@@ 332
liv@@ 327
oci@@ 327
.c@@ 326
erre 326
politi@@ 326
..@@ 325
San@@ 323
Jan@@ 321
servic@@ 321
trim@@ 321
arge 320
velop 319
figur@@ 318
graphi@@ 316
ld 316
§ 316
addi@@ 308
aug@@ 307
ez 306
eau 304
ñ@@ 304
penses 303
teurs 302
bunal 301
particul@@ 301
ires 300
Aff@@ 296
eu 296
oy@@ 295
cil 292
bre 291
occa@@ 291
sep@@ 291
jour@@ 286
islation 284
Les 279
tail@@ 279
urity 279
rent 276
olo@@ 275
ère 275
Europe@@ 274
les@@ 274
....@@ 273
disposition 270
Fir@@ 268
etings 268
lit 268
ré@@ 268
uli@@ 267
.m@@ 265
endant 265
tenant 264
eur 263
usion 262
goti@@ 261
™ 260
ér@@ 258
éti@@ 257
ente 253
µ@@ 252
â 252
En 249
collecti@@ 247
UE 246
condu@@ 246
ights 245
veill@@ 244
~ 244
clar@@ 243
PN@@ 242
ept@@ 238
ucle@@ 238
ssi@@ 237
Premi@@ 233
De 230
és 230
........@@ 229
gether 229
analyse 227
dans 226
lign@@ 225
technique 223
Alber@@ 220
utive 219
cher@@ 218
vie 218
vidence 217
bet@@ 216
efficac@@ 216
assur@@ 215
cad@@ 211
ux 210
dé@@ 209
² 209
agement 207
durable 204
pays 204
perman@@ 204
ﬂ@@ 204
compr@@ 202
nec@@ 201
suite 200
emplo@@ 199
alog@@ 198
è@@ 198
pertin@@ 196
} 196
nes 195
si 195
lib@@ 194
onne 194
ité 192
{ 192
velop@@ 191
Ré@@ 190
idi@@ 188
× 188
él@@ 188
124@@ 179
financi@@ 179
tenti@@ 179
infrastruc@@ 178
uro@@ 176
plu@@ 175
partic@@ 174
prim@@ 174
relatives 174
quo@@ 173
â@@ 173
concurr@@ 169
probl@@ 169
ç@@ 168
ante 167
fon@@ 167
bru@@ 165
mes@@ 165
voy@@ 164
ã@@ 162
enne 160
gram 160
temp@@ 160
μ@@ 160
fai@@ 159
awa 158
α 158
′ 158
andis@@ 157
irs 156
suit 156
asse 154
Ä@@ 154
versité 153
ć 152
fier 151
je 150
ave@@ 149
secon@@ 149
signi@@ 147
té 147
Fon@@ 146
elles 144
été 144
terro@@ 143
issance 142
ú@@ 141
ni 140
á 140
gy 139
én@@ 139
vous 138
ministr@@ 137
ci 136
accord 135
otal 135
qui 135
qué 133
avis 132
affaires 131
jan@@ 131
publ@@ 131
ille@@ 129
ique 129
ég@@ 129
eux 124
favor@@ 123
tique 123
fin 122
ères 122
cit@@ 121
avec 119
bles 118
sex@@ 118
β 118
eso@@ 117
Conseil 116
ww@@ 116
Tou@@ 115
mi 115
tiers 115
ées 113
communi@@ 112
pou@@ 112
ë@@ 112
ande 111
enci@@ 111
pendant 111
tu 111
ê@@ 111
č@@ 111
atisti@@ 110
ateur 109
demand@@ 109
eric@@ 108
jug@@ 108
Î@@ 108
ussi@@ 106
voir 106
fait 105
lieu 105
élé@@ 104
Secret@@ 102
¶ 101
š@@ 101
agne 100
Assemb@@ 99
aut 99
emble 98
vou@@ 98
ét@@ 98
ø@@ 98
α@@ 98
∗ 98
jet 96
reau 96
tiz@@ 96
ticle 92
¨ 92
illes 91
org 91
éri@@ 91
nie 90
avai@@ 89
ember 89
Dé@@ 88
ó 88
entre 87
■ 87
í 86
Ind@@ 85
orer 85
Polic@@ 84
embl@@ 83
trait 83
esse 82
pas 82
ène 82
milli@@ 81
î@@ 81
dossi@@ 80
level@@ 80
£ 80
pré@@ 78
º 78
Â 77
Ö@@ 77
onc@@ 76
parl@@ 76
droit 75
fric@@ 75
év@@ 75
publi@@ 74
iter 73
provin@@ 73
teur 73
Nord 72
Ç@@ 72
éc@@ 72
être 72
≤ 72
gie 70
examiner 69
grand 69
bien 68
recherche 68
lang@@ 67
tée 67
vre 67
Δ@@ 67
cultu@@ 66
fonds 66
Il 65
itre 65
¢ 65
Groupe 64
développement 64
lors 64
utilisation 64
oeuvre 63
reconna@@ 63
éd@@ 63
‰ 63
о@@ 62
dér@@ 61
mé@@ 61
ui 61
½ 61
éco@@ 61
auv@@ 60
leur 60
sans 60
sein 60
É 60
font 59
oeu@@ 59
ouv@@ 59
premier 59
Å 59
Ö 58
ž@@ 58
― 58
iser 57
jour 57
ﬀ@@ 57
augment@@ 56
canadi@@ 56
faire 56
uv@@ 56
ès 56
→ 56
≥ 56
aines 55
dire 55
dre 55
○ 55
cadre 54
nous 54
santé 54
tien 54
w.@@ 54
ège 54
Canadi@@ 53
alim@@ 53
nos 53
tiques 53
utilis@@ 53
Á@@ 53
èle 53
coup 52
dispositions 52
vez 52
Ministère 51
aï@@ 51
nationale 51
proposition 51
qua@@ 51
Õ 51
ε@@ 51
ο@@ 51
и@@ 51
bie 50
ril 50
è 50
с@@ 50
Servic@@ 49
antes 49
ateurs 49
sont 49
Š@@ 49
communaut@@ 48
march@@ 48
mis 48
toch@@ 48
ι@@ 48
ρ@@ 48
ennes 47
pour@@ 47
Loi 46
droits 46
leau 46
å@@ 46
chez 45
† 45
aide 44
enf@@ 44
internationale 44
isse 44
º@@ 44
canadienne 43
pé@@ 43
ï@@ 43
τ@@ 43
ﬃ@@ 43
Comité 42
Envir@@ 42
cas 42
déc@@ 42
entes 42
vier 42
ł@@ 42
а@@ 42
е@@ 42
Des 41
quer 41
techni@@ 41
titre 41
œ@@ 41
♦ 41
Ontari@@ 40
alité 40
avant 40
lui 40
nouvelles 40
oire 40
sous 40
vern@@ 40
ête 40
ā@@ 40
π@@ 40
publique 39
rapport 39
tout 39
travail 39
vue 39
ß@@ 39
ève 39
édi@@ 39
в@@ 39
› 39
È@@ 38
λ@@ 38
н@@ 38
Un 37
ensemble 37
quel@@ 37
σ@@ 37
∙ 37
√ 37
atoire 36
cette 36
comme 36
disponib@@ 36
données 36
ectu@@ 36
illet 36
économique 36
ν@@ 36
femmes 35
gé@@ 35
ités 35
prior@@ 35
contre 34
deu@@ 34
tés 34
veau 34
т@@ 34
^ 33
autres 33
onnement 33
Ø 33
ème 33
éch@@ 33
ı@@ 33
р@@ 33
Fren@@ 32
Ott@@ 32
Pré@@ 32
exe 32
isme 32
nom 32
ouvel@@ 32
tech@@ 32
š 32
Rapport 31
homme 31
sé@@ 31
velopp@@ 31
Ã@@ 31
□ 31
jou@@ 30
leurs 30
mais 30
médi@@ 30
puis 30
rique 30
tous 30
æ@@ 30
atte@@ 29
aussi 29
deux 29
donn@@ 29
endre 29
oires 29
tat 29
éro@@ 29
δ@@ 29
Si 28
atif 28
bonne 28
dont 28
eaux 28
rée 28
sécurité 28
À 28
ôt 28
û@@ 28
ÿ@@ 28
Č@@ 28
ί@@ 28
γ 28
Ce 27
Je 27
Qué@@ 27
canadien 27
raison 27
¡ 27
à@@ 27
ä 27
ération 27
÷ 27
‐ 27
Cour 26
Dans 26
environnement 26
ouver@@ 26
régi@@ 26
tels 26
venir 26
Í@@ 26
γ@@ 26
► 26
● 26
Au 25
Fonds 25
Pour 25
alement 25
ici 25
iste 25
respons@@ 25
système 25
Ü@@ 25
ė 25
ş@@ 25
auté 24
cet 24
coopération 24
déf@@ 24
lais 24
natu@@ 24
nou@@ 24
partie 24
personnes 24
peut 24
sera 24
³ 24
études 24
ï 24
Ž@@ 24
β@@ 24
к@@ 24
‡ 24
après 23
embre 23
matière 23
monde 23
personne 23
porte 23
tats 23
temps 23
très 23
votre 23
л@@ 23
∂ 23
cours 22
effic@@ 22
exig@@ 22
hui 22
jeun@@ 22
même 22
professionn@@ 22
société 22
tifs 22
Å@@ 22
ğ@@ 22
autre 21
conna@@ 21
crati@@ 21
fourn@@ 21
générale 21
jeunes 21
resse 21
télé@@ 21
vient 21
ß 21
ý 21
ă@@ 21
ř@@ 21
Ÿ 21
ς 21
″ 21
démocrati@@ 20
groupe 20
htt@@ 20
hô@@ 20
informations 20
ministère 20
nationales 20
projet 20
revenu 20
spéci@@ 20
tif 20
¸ 20
Ó@@ 20
état 20
ö 20
θ@@ 20
κ@@ 20
Cette 19
Nous 19
ablement 19
accès 19
avoir 19
compag@@ 19
contrôle 19
dat 19
demande 19
entreprises 19
fique 19
forme 19
gouvernement 19
mai 19
proch@@ 19
¤ 19
Ó 19
Ø@@ 19
éric@@ 19
Ε@@ 19
δ 19
η@@ 19
λ 19
Commis@@ 18
agric@@ 18
ainsi 18
culturel@@ 18
effectu@@ 18
emploi 18
enseign@@ 18
fédér@@ 18
général 18
inté@@ 18
notre 18
politique 18
rés 18
selon 18
soit 18
travaux 18
éli@@ 18
ë 18
ę@@ 18
ń@@ 18
ū@@ 18
ν 18
σ 18
υ@@ 18
С 18
п@@ 18
Sept@@ 17
concernant 17
décembre 17
entreprise 17
faç@@ 17
istes 17
juridi@@ 17
politiques 17
ressources 17
¼ 17
ê 17
у@@ 17
Afrique 16
Elle 16
Mme 16
auss@@ 16
biens 16
famille 16
grande 16
hé@@ 16
loi 16
lég@@ 16
peu@@ 16
prest@@ 16
produits 16
préc@@ 16
région@@ 16
sociale 16
tariat 16
travail@@ 16
¿ 16
Â@@ 16
ément 16
équi@@ 16
č 16
θ 16
С@@ 16
➤ 16
fins 15
juillet 15
lutte 15
niveau 15
présent@@ 15
quel 15
renseignements 15
rése@@ 15
Ô@@ 15
érieur 15
ô 15
ú 15
ü 15
ı 15
ś@@ 15
ž 15
Α@@ 15
м@@ 15
1er 14
République 14
afin 14
avons 14
cela 14
doit 14
dée 14
environ 14
grès 14
génér@@ 14
novembre 14
plani@@ 14
prendre 14
péri@@ 14
rir 14
savoir 14
seurs 14
technologi@@ 14
tient 14
¦ 14
Ê@@ 14
Ñ@@ 14
å 14
éducation 14
élec@@ 14
ò 14
ă 14
π 14
φ 14
з@@ 14
⌫ 14
Une 13
abilité 13
alités 13
armes 13
atifs 13
autor@@ 13
ayant 13
cré@@ 13
entaire 13
fonctionn@@ 13
iques 13
jours 13
ligne 13
mesure 13
particulier 13
projets 13
pê@@ 13
qualité 13
réc@@ 13
rés@@ 13
résultats 13
sibil@@ 13
État 13
États 13
érique 13
ð 13
õ@@ 13
ý@@ 13
ī@@ 13
Δ 13
Σ@@ 13
ο 13
∆ 13
⌦ 13
Règlement 12
avril 12
chaque 12
depuis 12
enfants 12
enreg@@ 12
envir@@ 12
ependant 12
européen 12
formes 12
fé@@ 12
iné@@ 12
ministre 12
moins 12
mois 12
médic@@ 12
nombre 12
personn@@ 12
recher@@ 12
reté 12
région 12
secteur 12
toute 12
toutes 12
¥ 12
µ 12
¹ 12
À@@ 12
égi@@ 12
éné@@ 12
était 12
évaluation 12
ître 12
ñ 12
ş 12
έ@@ 12
ε 12
е 12
й 12
❏ 12
Canadiens 11
annexe 11
année 11
appel 11
autochtones 11
commer@@ 11
domaine 11
décision 11
dép@@ 11
européenne 11
financement 11
fié 11
fois 11
fonction 11
frais 11
garanti@@ 11
ième 11
marché 11
mars 11
mondi@@ 11
mondiale 11
normes 11
offre 11
où 11
peu 11
première 11
période 11
septembre 11
suivi 11
systèmes 11
tement 11
trois 11
¾ 11
Ú@@ 11
ç 11
èmes 11
ète 11
également 11
étr@@ 11
étrang@@ 11
étude 11
ÿ 11
Τ@@ 11
η 11
ι 11
д@@ 11
Assemblée 10
Secré@@ 10
Unis 10
aider 10
caract@@ 10
celui 10
certains 10
collectiv@@ 10
compte 10
dépend@@ 10
encore 10
gré 10
maladi@@ 10
matéri@@ 10
membres 10
mesures 10
métho@@ 10
ordonn@@ 10
peuvent 10
plusieurs 10
pouvoir 10
prix 10
répon@@ 10
tenir 10
tenu 10
trait@@ 10
Æ@@ 10
Ì 10
écur@@ 10
ì 10
Ć 10
Π@@ 10
ρ 10
φ@@ 10
ό@@ 10
Р@@ 10
а 10
я 10
Par 9
appel@@ 9
ationn@@ 9
catég@@ 9
celles 9
compris 9
différ@@ 9
ellement 9
fér@@ 9
industrie 9
intég@@ 9
janvier 9
juin 9
nouveau 9
nouvelle 9
opér@@ 9
paragraphe 9
prati@@ 9
produit 9
réalis@@ 9
seil 9
sujet 9
taire 9
valeur 9
véri@@ 9
¯ 9
Ý@@ 9
êt 9
ì@@ 9
ą@@ 9
İ@@ 9
ǫ 9
˜ 9
ά 9
μ 9
χ@@ 9
ω@@ 9
ύ@@ 9
ы@@ 9
ь@@ 9
ا@@ 9
▼ 9
Gouvernement 8
Janu@@ 8
Unies 8
abliss@@ 8
activités 8
agit 8
aient 8
appui 8
celle 8
certaines 8
dernier 8
environnement@@ 8
façon 8
financière 8
gén@@ 8
marchés 8
mettre 8
mieux 8
nationaux 8
notamment 8
objectif 8
obtenir 8
permis 8
pratiques 8
principes 8
processus 8
protég@@ 8
près 8
présente 8
pén@@ 8
règlement 8
rès 8
rég@@ 8
régime 8
sept@@ 8
sibles 8
soins 8
travaill@@ 8
vertu 8
¬ 8
Á 8
Ü 8
âce 8
æ 8
èrement 8
économie 8
élev@@ 8
équ@@ 8
éro 8
étudi@@ 8
đ@@ 8
ń 8
Ţ@@ 8
́ 8
Ο 8
Σ 8
ή@@ 8
υ 8
Ђ 8
в 8
ل@@ 8
≠ 8
Conférence 7
beaucoup 7
devant 7
donc 7
donné 7
effets 7
entaires 7
expéri@@ 7
faut 7
finan@@ 7
isant 7
lée 7
objet 7
octobre 7
organismes 7
paix 7
parten@@ 7
partir 7
polici@@ 7
poste 7
quant 7
rôle 7
texte 7
vé@@ 7
ª 7
Ô 7
Þ 7
Þ@@ 7
énergie 7
établissement 7
êts 7
ø 7
ė@@ 7
ň@@ 7
ų 7
ż@@ 7
ƒ@@ 7
ˆ@@ 7
Θ 7
Κ@@ 7
б@@ 7
к 7
ч@@ 7
‹ 7
↓ 7
⇒ 7
◗ 7
❒ 7
ﬀ 7
Parlement 6
assurer 6
avant@@ 6
bénéfici@@ 6
citoy@@ 6
communauté 6
déb@@ 6
défin@@ 6
efficace 6
espè@@ 6
europé@@ 6
exercice 6
fonc@@ 6
gouvernement@@ 6
gouvernements 6
groupes 6
heures 6
internationales 6
investiss@@ 6
issant 6
issement 6
issent 6
montant 6
opérations 6
procédures 6
prév@@ 6
quatre 6
quement 6
responsabilité 6
rées 6
régl@@ 6
soient 6
suiv@@ 6
titul@@ 6
toujours 6
traitement 6
Ç 6
Ë@@ 6
Ì@@ 6
Ï@@ 6
Õ@@ 6
èg@@ 6
étés 6
ò@@ 6
ût 6
ć@@ 6
ē@@ 6
ě@@ 6
Ł@@ 6
Ρ@@ 6
Φ 6
и 6
й@@ 6
о 6
ع@@ 6
Ế@@ 6
─ 6
◆ 6
ﬁ 6
Minist@@ 5
Octob@@ 5
Président 5
acte 5
activité 5
ailleurs 5
améli@@ 5
auprès 5
ceux 5
changements 5
concerne 5
considér@@ 5
coû@@ 5
détermin@@ 5
employés 5
enfant 5
enquête 5
fiques 5
férence 5
février 5
gouvern@@ 5
issances 5
niveaux 5
nouveaux 5
octob@@ 5
opération 5
ordre 5
plupart 5
pris 5
prévention 5
rapports 5
reç@@ 5
risques 5
règles 5
serait 5
stratégi@@ 5
stratégie 5
suivre 5
tocht@@ 5
ª@@ 5
Ä 5
Ð@@ 5
Ò@@ 5
économiques 5
érieure 5
ð@@ 5
ù@@ 5
ā 5
ľ 5
ő@@ 5
œuvre 5
Š 5
ţ@@ 5
ə@@ 5
ˆ 5
Ψ 5
ά@@ 5
М@@ 5
г@@ 5
х 5
ы 5
ו@@ 5
ب@@ 5
ر@@ 5
│ 5
❑ 5
➔ 5
。 5
・ 5
洲@@ 5
的@@ 5
ﺍ@@ 5
） 5
Ces 4
Règ@@ 4
Secrétaire 4
alors 4
appu@@ 4
avait 4
clé@@ 4
compét@@ 4
différents 4
doivent 4
domaines 4
donner 4
déclaration 4
déjà 4
effet 4
enqu@@ 4
exemple 4
existe 4
exte 4
exéc@@ 4
exécution 4
fondam@@ 4
indre 4
intérieur 4
moyens 4
nombreux 4
négoci@@ 4
partenaires 4
particuli@@ 4
pauv@@ 4
permet 4
preu@@ 4
progrès 4
prés@@ 4
risque 4
seront 4
souha@@ 4
tenue 4
vigueur 4
voie 4
Æ 4
Ñ 4
Ú 4
égalité 4
égard 4
éléments 4
ément@@ 4
érie@@ 4
étab@@ 4
établiss@@ 4
étant 4
ôle 4
û 4
ę 4
Ģ@@ 4
ł 4
Ő@@ 4
Œ 4
Ş@@ 4
Ž 4
ʼ@@ 4
ό 4
ύ 4
Њ@@ 4
В 4
м 4
ф@@ 4
ц@@ 4
щ@@ 4
ю@@ 4
я@@ 4
ה 4
י@@ 4
ة 4
ي 4
ٱ 4
⁄ 4
↑ 4
∃ 4
∑ 4
≡ 4
▲ 4
➘ 4
和@@ 4
年@@ 4
（ 4
， 4
Febru@@ 3
améliorer 3
années 3
avantage 3
besoins 3
béné@@ 3
conformément 3
conséqu@@ 3
coûts 3
demandes 3
deuxième 3
devr@@ 3
domesti@@ 3
démo@@ 3
dépos@@ 3
développ@@ 3
ennent 3
intéress@@ 3
laquelle 3
liste 3
lorsque 3
membre 3
moy@@ 3
moyen 3
mê@@ 3
outre 3
permet@@ 3
pourr@@ 3
problèmes 3
procédure 3
présent 3
quelles 3
quels 3
recommandations 3
représent@@ 3
régions 3
résul@@ 3
souvent 3
suivants 3
taux 3
terme 3
utiliser 3
Ê 3
Î 3
Ð 3
Ò 3
Ù 3
Û@@ 3
ã 3
électron@@ 3
élimin@@ 3
établi@@ 3
établir 3
î 3
õ 3
ù 3
Ć@@ 3
ċ 3
Đ@@ 3
Ğ@@ 3
ġ@@ 3
ķ@@ 3
ĺ@@ 3
ņ@@ 3
ō@@ 3
œuv@@ 3
ŕ@@ 3
ť@@ 3
Ο@@ 3
Π 3
Ω 3
ή 3
ί 3
Ђ@@ 3
Ѓ@@ 3
І 3
І@@ 3
Љ@@ 3
Д@@ 3
О@@ 3
Р 3
ш@@ 3
ь 3
ي@@ 3
ڤ 3
ᑦ 3
‟ 3
↔ 3
∞ 3
≈ 3
⎯ 3
◊ 3
✓ 3
以@@ 3
会 3
会@@ 3
大@@ 3
济@@ 3
经@@ 3
非@@ 3
ﻟ@@ 3
ﻨ@@ 3
； 3
Apri@@ 2
Gouvern@@ 2
ONU 2
amment 2
aucun 2
aucune 2
autorités 2
capacité 2
considé@@ 2
croissance 2
création 2
devraient 2
devrait 2
déclar@@ 2
dépenses 2
détail@@ 2
déterminer 2
efficacité 2
exigences 2
intérêt 2
ivent 2
lors@@ 2
mandat 2
niti@@ 2
néc@@ 2
problème 2
quelle 2
renforcer 2
représentant 2
règ@@ 2
rédu@@ 2
réduire 2
résolution 2
réunion 2
seulement 2
spécial 2
suffis@@ 2
sécur@@ 2
tochtones 2
travai@@ 2
tées 2
visant 2
xième 2
È 2
Ë 2
Ï 2
Ý 2
étaient 2
þ 2
þ@@ 2
Ą@@ 2
ď@@ 2
Ė 2
Ě@@ 2
ī 2
Ľ@@ 2
ľ@@ 2
Ń@@ 2
ō 2
ő 2
œ 2
Ś@@ 2
ů 2
Ÿ@@ 2
ź 2
ż 2
ƒ 2
ǫ@@ 2
ˇ 2
̂ 2
; 2
Α 2
Γ@@ 2
Θ@@ 2
Ι 2
Ι@@ 2
Λ 2
Μ@@ 2
Χ 2
κ 2
ξ@@ 2
χ 2
ω 2
ϊ@@ 2
ϕ 2
Ћ@@ 2
Б@@ 2
В@@ 2
Н@@ 2
ю 2
א@@ 2
ב@@ 2
ג@@ 2
ד@@ 2
ה@@ 2
ט@@ 2
כ@@ 2
ל@@ 2
ם 2
ק@@ 2
ר@@ 2
ب 2
د@@ 2
غ@@ 2
ق@@ 2
و@@ 2
ᓴ@@ 2
₤ 2
⇔ 2
∼ 2
█ 2
✜ 2
➚ 2
➾ 2
中@@ 2
亚@@ 2
作@@ 2
到@@ 2
加@@ 2
发@@ 2
哈@@ 2
地@@ 2
年 2
得@@ 2
拉@@ 2
更@@ 2
概@@ 2
比@@ 2
水@@ 2
济 2
灌@@ 2
社 2
社@@ 2
经 2
而@@ 2
要 2
这@@ 2
ﺎ@@ 2
ﺒ@@ 2
ﻠ@@ 2
ﻭ@@ 2
D&apos; 1
aliné@@ 1
approche 1
besoin 1
c&apos; 1
capacités 1
décisions 1
essus 1
examen 1
fournir 1
gueur 1
internationaux 1
intér@@ 1
manière 1
méc@@ 1
nombre@@ 1
nécess@@ 1
nécessaire 1
nég@@ 1
ouvoir 1
particulièrement 1
permettre 1
ponib@@ 1
pouv@@ 1
principe 1
procéd@@ 1
promouvoir 1
recommand@@ 1
renforc@@ 1
représentants 1
référence 1
s&apos; 1
seign@@ 1
seul@@ 1
sieurs 1
soutien 1
supplément@@ 1
tefois 1
tenus 1
termes 1
vernment 1
Í 1
Ù@@ 1
Û 1
élaboration 1
éner@@ 1
étu@@ 1
éval@@ 1
évalu@@ 1
évrier 1
ą 1
ċ@@ 1
Č 1
Đ 1
Ē@@ 1
ĕ@@ 1
ě 1
ģ@@ 1
ħ 1
ħ@@ 1
į 1
į@@ 1
İ 1
ĳ@@ 1
ň 1
ŕ 1
Ř 1
ś 1
ţ 1
Ů 1
ŷ 1
Ż 1
ƙ@@ 1
ȃ@@ 1
ș@@ 1
ț 1
ə 1
ɛ@@ 1
ʹ@@ 1
̵ 1
Γ 1
Ζ@@ 1
Η 1
Η@@ 1
Ν 1
Ν@@ 1
Ξ 1
Τ 1
Φ@@ 1
Χ@@ 1
Ψ@@ 1
Ω@@ 1
ζ@@ 1
τ 1
ψ 1
ϊ 1
ώ 1
ώ@@ 1
ϑ 1
ϕ@@ 1
Є 1
Ќ 1
Ќ@@ 1
Џ@@ 1
А@@ 1
Е 1
Е@@ 1
О 1
П@@ 1
Т@@ 1
Ф@@ 1
Х@@ 1
Ю@@ 1
г 1
д 1
з 1
л 1
н 1
с 1
т 1
у 1
х@@ 1
ч 1
ъ 1
э@@ 1
і@@ 1
ז@@ 1
ך 1
ל 1
מ@@ 1
ף 1
פ@@ 1
ת 1
ת@@ 1
، 1
ت 1
ح@@ 1
خ@@ 1
ف@@ 1
م@@ 1
ن 1
ن@@ 1
ه 1
٭ 1
چ@@ 1
ی 1
พ@@ 1
ศ 1
ၡ@@ 1
ၢ@@ 1
ၱ@@ 1
Ⴐ 1
Ⴑ 1
Ⴞ@@ 1
ᐃ@@ 1
ᐅ@@ 1
ᐴ@@ 1
ᑏ@@ 1
ᒃ@@ 1
ᒐ@@ 1
ᓇ@@ 1
ᓕ@@ 1
ᔪ@@ 1
ᔭ@@ 1
ᔾ@@ 1
ᕆ@@ 1
ᕋ@@ 1
ᖃ@@ 1
ᖏ@@ 1
‛ 1
※ 1
₫ 1
ℓ 1
№ 1
← 1
↝ 1
∩ 1
▸ 1
◄ 1
☺ 1
♲ 1
❖ 1
➙ 1
➟ 1
➧ 1
➪ 1
、 1
一@@ 1
丁@@ 1
世@@ 1
东@@ 1
严@@ 1
临@@ 1
为@@ 1
了@@ 1
事@@ 1
于@@ 1
亚 1
产@@ 1
人@@ 1
但@@ 1
例@@ 1
保@@ 1
农@@ 1
决@@ 1
分@@ 1
势@@ 1
勒@@ 1
区 1
区@@ 1
卓@@ 1
南@@ 1
原@@ 1
及 1
及@@ 1
发 1
口@@ 1
只@@ 1
可@@ 1
号@@ 1
员 1
啦 1
土@@ 1
域 1
境@@ 1
增@@ 1
壹 1
壹@@ 1
多@@ 1
够@@ 1
太@@ 1
委 1
季@@ 1
定 1
定@@ 1
将@@ 1
尽@@ 1
展 1
展@@ 1
川@@ 1
平@@ 1
建@@ 1
开@@ 1
形@@ 1
战@@ 1
护@@ 1
挑@@ 1
摘 1
摘@@ 1
撒@@ 1
收@@ 1
效@@ 1
文 1
新@@ 1
日@@ 1
春@@ 1
是@@ 1
晶 1
智@@ 1
有@@ 1
望 1
未@@ 1
本@@ 1
查 1
此 1
每@@ 1
比 1
民@@ 1
水 1
泥@@ 1
洋@@ 1
洲 1
溉 1
溉@@ 1
源 1
物 1
物@@ 1
献@@ 1
王@@ 1
环@@ 1
理@@ 1
琉 1
甜@@ 1
生@@ 1
界 1
着@@ 1
短@@ 1
石@@ 1
确@@ 1
稳@@ 1
第 1
简 1
管@@ 1
系@@ 1
紧@@ 1
统@@ 1
维@@ 1
缺@@ 1
美@@ 1
耕@@ 1
茶@@ 1
获@@ 1
蕴@@ 1
藏@@ 1
西 1
要@@ 1
見@@ 1
见@@ 1
览 1
览@@ 1
言 1
語 1
让@@ 1
调 1
貢@@ 1
资@@ 1
足@@ 1
较@@ 1
迫@@ 1
适@@ 1
造@@ 1
達 1
部@@ 1
都@@ 1
重@@ 1
量 1
量@@ 1
钧@@ 1
长@@ 1
问@@ 1
雄@@ 1
需@@ 1
面@@ 1
题 1
馬 1
高@@ 1
글 1
년 1
한@@ 1
ﬂ 1
﴾ 1
﴿ 1
ﺎ 1
ﺏ 1
ﺓ 1
ﺨ@@ 1
ﺩ 1
ﺩ@@ 1
ﺭ 1
ﺭ@@ 1
ﺸ@@ 1
ﺼ@@ 1
ﻉ 1
ﻋ@@ 1
ﻤ@@ 1
ﻩ@@ 1
ﻬ@@ 1
ﻴ@@ 1
ﻻ@@ 1
： 1
［ 1
］ 1
madeupword0000 0
madeupword0001 0
