de 1030469
, 716674
la 532256
. 507591
et 471685
des 448606
les 395567
l&apos; 385132
le 344855
à 344207
d&apos; 288206
du 256347
en 232794
que 197084
a 158336
é 154793
) 153544
@-@ 151764
un 144385
pour 140273
une 137886
dans 136929
er 130539
( 130115
au 127796
aux 120357
sur 117011
est 108469
par 104176
qui 98531
&quot; 98070
e 89011
és 83069
ré@@ 82283
es 80298
ée 78787
s@@ 77308
dé@@ 75816
/ 74647
in@@ 74241
ant 73574
t@@ 70745
ou 69624
é@@ 69286
ement 68417
ent 66678
ation 66040
: 65185
ées 63896
S@@ 62992
ont 60664
v@@ 60270
ce 59827
Le 59805
il 59477
m@@ 59268
l@@ 58433
P@@ 57500
r@@ 56140
M@@ 55594
s 54740
qu&apos; 54254
plus 53134
C@@ 52874
b@@ 52477
sont 52020
con@@ 51827
ité 51727
aire 50927
t 50594
se 50486
ne 50137
re@@ 49676
pas 49332
a@@ 47855
Les 47522
d@@ 46934
été 46910
D@@ 46804
; 46605
ations 46555
is@@ 46453
ti@@ 46300
p@@ 45589
li@@ 45299
elle 44443
c@@ 42896
T@@ 42861
i 42841
te 42149
A@@ 41850
ch@@ 41725
it@@ 41596
avec 41492
g@@ 41263
La 41207
i@@ 40626
u@@ 40475
être 39272
L@@ 39029
l 38941
aires 38820
- 38772
on 38752
ale 38681
pré@@ 38663
s&apos; 38662
f@@ 38192
B@@ 37908
di@@ 37727
en@@ 37069
E@@ 36314
o@@ 36186
ac@@ 36132
R@@ 34701
am@@ 34700
me 34442
d 34344
age 34055
h@@ 33655
ques 33623
tes 33427
n@@ 33215
ag@@ 33089
ence 32964
Canada 32226
1 32112
ces 32072
tion 31849
e@@ 31610
ait 31609
er@@ 31573
F@@ 31003
n&apos; 30945
y@@ 30881
N@@ 30787
ales 30340
2 30176
ér@@ 29994
is 29925
ses 29856
al 29798
leur 29702
el 29690
è@@ 29676
ons 29312
par@@ 29250
or@@ 29097
L&apos; 29074
al@@ 29025
ad@@ 28999
an@@ 28952
I@@ 28845
ar@@ 28797
G@@ 28371
ou@@ 28231
y 28110
pro@@ 28018
pays 27771
at@@ 27720
si@@ 27698
autres 27693
ants 27602
u 27374
qu@@ 27164
on@@ 26862
son 26610
ent@@ 26565
3 26386
au@@ 26246
ère 25971
elles 25630
ex@@ 25595
Il 25450
• 24935
A 24783
ères 24688
cette 24676
im@@ 24508
ers 24108
H@@ 24069
ements 24010
ro@@ 23788
ite 23666
V@@ 23438
tions 23268
nous 23023
ap@@ 22924
.@@ 22896
ci@@ 22890
pl@@ 22864
sou@@ 22622
inter@@ 22543
él@@ 22499
entre 22327
développement 22237
té 22195
ét@@ 21919
vi@@ 21839
ens 21779
ités 21681
comme 21546
En 21421
fait 21322
ic@@ 21249
o 21144
O@@ 21043
ance 21020
cl@@ 20986
E 20921
onn@@ 20866
ab@@ 20837
leurs 20737
U@@ 20433
C 20333
ents 20260
st@@ 20214
ts 20079
tr@@ 20032
rer 20030
mo@@ 20023
ul@@ 19984
Conseil 19862
j@@ 19860
ie 19743
ri@@ 19685
sa 19650
els 19397
om@@ 19339
ils 19298
vo@@ 19232
us@@ 19146
États 19138
ter 19120
c 19090
droits 19072
&apos; 19009
É@@ 18959
ine 18622
acc@@ 18527
services 18476
4 18373
non 18369
able 18319
comm@@ 18311
aient 18235
Commission 18171
rapport 18171
co@@ 18118
k@@ 18071
% 18069
travail 18002
ante 17831
ainsi 17800
vis@@ 17745
9@@ 17570
ables 17496
es@@ 17488
peut 17452
S 17418
7@@ 17395
si 17385
faire 17380
ment 17203
4@@ 17168
én@@ 17152
eurs 17101
pr@@ 17091
us 17065
et@@ 17064
at 16966
5 16931
vous 16879
un@@ 16864
2@@ 16818
éri@@ 16733
tous 16598
an 16541
8@@ 16535
6 16470
également 16457
dis@@ 16454
de@@ 16349
fi@@ 16264
as@@ 16259
r 16226
présent@@ 16107
mes 16035
av@@ 16005
ais 15973
com@@ 15926
tout 15879
eu@@ 15836
J@@ 15810
Comité 15696
3@@ 15687
ue 15643
tre 15617
ur@@ 15471
sécurité 15426
mais 15386
6@@ 15301
eur 15282
sion 15282
it 15281
ure 15181
tra@@ 15107
su@@ 15101
membres 15071
res 15066
in 14970
z 14955
même 14942
santé 14901
ph@@ 14887
ot@@ 14870
deux 14854
ente 14802
ences 14739
I 14730
cas 14588
mise 14571
activités 14466
contre 14463
article 14407
7 14404
Nations 14238
per@@ 14207
droit 14146
ir 14080
tant 14076
gr@@ 14073
f 14026
ê@@ 13951
_ 13832
op@@ 13790
po@@ 13764
programme 13732
cons@@ 13701
ur 13695
re 13605
th@@ 13604
projet 13569
trans@@ 13525
sous 13521
dont 13509
ori@@ 13486
éc@@ 13474
aussi 13462
mesures 13457
doit 13426
8 13389
eux 13362
cours 13353
pos@@ 13348
ren@@ 13336
Unies 13316
cadre 13286
fication 13209
lo@@ 13201
ai@@ 13147
anc@@ 13114
em@@ 13094
cré@@ 13024
personnes 13017
K@@ 12995
ol@@ 12993
port@@ 12938
contr@@ 12876
bi@@ 12792
n 12788
mon@@ 12766
9 12749
tionn@@ 12732
il@@ 12688
antes 12681
se@@ 12676
ob@@ 12589
Dans 12411
gu@@ 12388
partie 12330
spéci@@ 12301
général 12281
W@@ 12255
teurs 12229
ise 12162
Con@@ 12154
5@@ 12095
ver@@ 12092
its 12081
information 12022
fa@@ 11976
afin 11973
ati@@ 11948
direc@@ 11941
M. 11873
rec@@ 11850
end@@ 11839
ill@@ 11766
utilis@@ 11764
soit 11730
gestion 11724
ans 11665
comp@@ 11659
ess@@ 11656
rel@@ 11642
teur 11641
ô@@ 11593
Ch@@ 11565
était 11564
matière 11517
tri@@ 11504
bien 11476
pu@@ 11471
D 11452
action 11411
mar@@ 11370
ages 11362
données 11346
nombre 11325
min@@ 11320
le@@ 11313
che 11244
après 11243
enti@@ 11190
système 11184
év@@ 11177
fon@@ 11148
vue 11131
moins 11119
sans 11095
sp@@ 11087
ateurs 11068
â@@ 11062
du@@ 11061
entes 11019
compte 11012
ser@@ 11001
men@@ 10994
P 10905
ues 10851
rap@@ 10844
m 10841
ci 10814
z@@ 10771
1@@ 10751
all@@ 10719
femmes 10709
concernant 10693
préc@@ 10688
10 10575
In@@ 10567
programmes 10544
import@@ 10495
questions 10478
où 10432
enfants 10424
aur@@ 10386
politique 10378
demande 10374
ec@@ 10261
x@@ 10253
ven@@ 10231
autre 10229
ique 10229
tu@@ 10198
recherche 10183
À 10174
ressources 10147
produits 10071
2005 10064
gi@@ 10052
peuvent 10027
2006 9991
État 9989
question 9969
ter@@ 9968
pour@@ 9942
Pour 9940
répon@@ 9932
générale 9931
indi@@ 9922
î@@ 9904
toutes 9903
Ã 9900
T 9862
gouvernement 9856
lieu 9820
sign@@ 9794
sc@@ 9780
tés 9748
att@@ 9727
ve 9724
iter 9719
jour 9696
as 9684
iss@@ 9667
notamment 9655
tres 9636
protection 9628
constitu@@ 9613
2004 9603
doivent 9600
ances 9592
Nous 9574
politiques 9563
ats 9526
niveau 9502
ass@@ 9480
el@@ 9465
mi@@ 9451
ellement 9426
Dé@@ 9412
voir 9391
0@@ 9373
val@@ 9356
vement 9345
tro@@ 9339
,@@ 9330
uni@@ 9330
application 9309
mettre 9274
actu@@ 9273
rement 9246
enne 9240
déc@@ 9230
Ré@@ 9178
paragraphe 9162
processus 9132
isation 9127
&#91; 9102
internationale 9097
atif 9074
g 9065
ème 9041
point 9030
compl@@ 9029
and 9010
aine 8999
adop@@ 8975
ach@@ 8965
ture 8934
form@@ 8930
équi@@ 8918
résolution 8891
sions 8889
00 8869
main@@ 8845
oc@@ 8829
avoir 8817
ten@@ 8814
tenu 8809
&#93; 8806
for@@ 8802
ég@@ 8802
p 8800
rem@@ 8781
international 8764
R 8751
? 8746
ain 8728
homme 8725
alis@@ 8714
ves 8702
mis 8685
2003 8684
quer 8682
appro@@ 8679
avait 8661
économique 8658
era 8647
b 8636
évaluation 8623
formation 8619
éch@@ 8607
ir@@ 8600
fourn@@ 8596
2007 8591
ire 8573
sé@@ 8545
cu@@ 8538
der 8534
cont@@ 8526
session 8486
avant 8478
soci@@ 8472
modi@@ 8406
fac@@ 8405
ites 8387
trou@@ 8387
temps 8350
européenne 8345
fr@@ 8327
lim@@ 8271
fs 8257
ES 8253
ateur 8247
aide 8219
vers 8206
ge 8134
examen 8111
œuvre 8108
forme 8106
alité 8093
ain@@ 8077
déf@@ 8069
2002 8048
int@@ 8040
ures 8026
résultats 8000
ais@@ 7975
M 7973
part@@ 7961
sera 7961
défin@@ 7959
appli@@ 7958
suite 7953
renseignements 7938
sur@@ 7937
15 7901
ande 7897
pass@@ 7897
tique 7892
alement 7881
vie 7874
toute 7873
suiv@@ 7869
man@@ 7853
$ 7843
ez 7837
Assemblée 7829
cet 7827
um@@ 7814
Convention 7807
année 7793
endre 7790
ist@@ 7788
loi 7788
lu@@ 7772
ang@@ 7752
N 7726
ennes 7721
Pro@@ 7714
conc@@ 7703
jou@@ 7686
sid@@ 7685
cou@@ 7678
anti@@ 7672
base 7662
2001 7656
organis@@ 7652
je 7628
situation 7621
ç@@ 7621
position 7615
cri@@ 7607
12 7577
mati@@ 7577
très 7574
ni@@ 7566
selon 7546
médi@@ 7536
prendre 7535
2000 7532
© 7528
des@@ 7513
décision 7497
por@@ 7493
O 7474
cor@@ 7467
ous 7452
hum@@ 7425
no@@ 7422
secteur 7414
off@@ 7382
dit 7353
mé@@ 7330
fois 7294
fin 7290
ver 7288
pri@@ 7264
autor@@ 7263
ologi@@ 7254
h 7252
so@@ 7250
Loi 7247
eu 7246
financi@@ 7244
coopération 7223
mesure 7220
plan 7203
part 7166
rou@@ 7153
ari@@ 7122
propos@@ 7113
bu@@ 7098
notre 7092
De 7081
lui 7067
Un 7064
accès 7058
Président 7049
alisation 7046
30 7033
uses 7025
aines 7021
ches 7020
pi@@ 7005
Ce 6999
ès 6997
qui@@ 6996
titre 6995
sub@@ 6991
princip@@ 6978
respons@@ 6977
Cette 6971
tement 6964
fédér@@ 6956
éd@@ 6944
Une 6943
F 6941
façon 6939
conn@@ 6937
cho@@ 6935
AN@@ 6932
L 6930
fonctionn@@ 6930
service 6930
période 6925
parties 6913
permet@@ 6912
diff@@ 6905
11 6903
entreprises 6884
ress@@ 6875
B 6863
fu@@ 6862
res@@ 6853
tenir 6851
groupe 6850
Groupe 6841
and@@ 6836
ss@@ 6834
abilité 6833
x 6828
national 6827
19@@ 6818
ice 6809
Union 6808
13 6805
fl@@ 6804
trois 6796
particulier 6792
place 6790
représent@@ 6790
of 6779
chaque 6776
personnel 6764
conna@@ 6754
dollars 6748
priv@@ 6741
rest@@ 6704
projets 6703
votre 6697
oire 6690
différ@@ 6689
assurer 6688
onc@@ 6688
organisations 6683
utilisation 6675
car@@ 6670
On 6669
20 6663
k 6645
environnement 6633
to@@ 6626
compris 6621
tiques 6618
qué 6612
&gt; 6611
particip@@ 6611
ici@@ 6605
Par@@ 6601
égard 6598
augment@@ 6597
la@@ 6586
sup@@ 6585
fier 6577
Qu@@ 6576
dur@@ 6574
cour@@ 6572
loc@@ 6566
devrait 6563
ensemble 6543
conditions 6537
entre@@ 6535
dispositions 6531
dou@@ 6529
public 6512
Organisation 6498
ecti@@ 6479
ble 6476
compr@@ 6464
000 6460
ret@@ 6455
En@@ 6444
pendant 6444
organismes 6442
voy@@ 6437
ff@@ 6435
Secrétaire 6430
domaine 6417
charg@@ 6414
atifs 6413
Je 6412
compét@@ 6404
années 6389
objectifs 6389
IN@@ 6386
H 6380
encore 6379
eau 6371
ets 6370
Ces 6360
DE 6353
ôt 6333
abor@@ 6332
personne 6332
Su@@ 6331
certains 6328
mer 6325
bl@@ 6322
ection 6317
ai 6316
Com@@ 6314
régl@@ 6312
ig@@ 6289
emploi 6288
Al@@ 6287
Si 6284
rôle 6283
génér@@ 6278
étaient 6271
Ac@@ 6266
stat@@ 6266
nu@@ 6255
publique 6253
arm@@ 6249
pe 6246
bre 6243
offici@@ 6242
ON@@ 6230
vers@@ 6221
iser 6204
marché 6202
alim@@ 6199
te@@ 6199
qualité 6190
exemple 6186
inté@@ 6174
esti@@ 6173
id@@ 6169
informations 6169
our@@ 6168
me@@ 6149
sec@@ 6126
2008 6121
nationale 6099
plusieurs 6097
taux 6097
ains 6075
coll@@ 6074
déb@@ 6071
Mon@@ 6061
stratégi@@ 6059
um 6057
ille 6055
publi@@ 6048
paix 6036
communaut@@ 6034
derni@@ 6034
groupes 6031
sor@@ 6028
parti@@ 6008
territ@@ 5995
société 5988
fic@@ 5987
venir 5985
dem@@ 5983
iques 5981
lég@@ 5954
nouveau 5939
uti@@ 5918
Des 5907
étrang@@ 5906
sal@@ 5901
tation 5901
fonction 5885
Au 5878
ins 5867
conformément 5864
exc@@ 5856
donn@@ 5854
vol@@ 5828
Par 5827
aut@@ 5823
présent 5823
Europe 5814
nos 5814
réalis@@ 5811
bil@@ 5810
Programme 5809
manière 5806
travaux 5796
Y@@ 5791
aff@@ 5789
avons 5789
ceux 5785
ennent 5781
ouver@@ 5773
site 5773
ordre 5768
quement 5760
région 5759
visant 5757
effectu@@ 5752
atte@@ 5749
document 5746
contribu@@ 5744
pres@@ 5726
aut 5713
Au@@ 5710
pris 5699
ann@@ 5690
but 5669
possible 5667
contrôle 5663
Re@@ 5661
ayant 5659
som@@ 5656
région@@ 5645
vertu 5641
ep@@ 5627
imp@@ 5626
plac@@ 5621
associ@@ 5619
fer@@ 5617
population 5615
tou@@ 5604
efforts 5594
Ar@@ 5572
rée 5567
élec@@ 5562
donc 5557
lors 5554
198@@ 5552
rés@@ 5544
rit@@ 5543
affaires 5530
prior@@ 5519
50 5515
Unis 5513
millions 5513
0 5504
end 5497
ours 5497
production 5485
G 5479
ard 5479
tent 5479
financement 5475
effet 5474
ell@@ 5473
concerne 5468
tenant 5462
règlement 5457
soient 5456
depuis 5455
mission 5451
dr@@ 5449
tric@@ 5449
ative 5446
mod@@ 5446
quel@@ 5444
asse 5431
14 5429
aci@@ 5425
conséqu@@ 5423
observ@@ 5420
évalu@@ 5412
date 5407
ître 5402
X@@ 5395
considér@@ 5392
seront 5391
1.@@ 5373
rés 5372
quel 5370
administr@@ 5359
or 5338
relatives 5336
décembre 5329
porte 5329
2.@@ 5328
exp@@ 5328
continu@@ 5325
entr@@ 5305
w@@ 5299
présente 5297
documents 5295
ve@@ 5293
essenti@@ 5290
engag@@ 5278
mor@@ 5268
c&apos; 5265
laquelle 5259
nouvelles 5254
première 5240
ra@@ 5226
rapports 5225
atives 5214
prév@@ 5210
lign@@ 5205
gouvernement@@ 5204
For@@ 5201
exist@@ 5200
18 5196
monde 5182
avis 5179
10@@ 5175
inv@@ 5175
besoins 5170
gar@@ 5149
commerci@@ 5148
ue@@ 5144
Bureau 5136
êts 5127
nom 5126
véri@@ 5126
Elle 5123
métho@@ 5119
raison 5111
peti@@ 5105
issent 5096
reç@@ 5096
République 5091
bles 5079
nom@@ 5069
pourr@@ 5068
dev@@ 5065
inform@@ 5055
one 5050
mois 5047
istes 5044
the 5038
ave@@ 5036
déclar@@ 5025
ra 5024
prim@@ 5023
1999 5020
améliorer 5019
élev@@ 5019
ing@@ 5013
accord 5005
proc@@ 4995
premier 4994
app@@ 4992
vou@@ 4992
grande 4987
tor@@ 4980
réc@@ 4971
problèmes 4970
cro@@ 4961
télé@@ 4942
ali@@ 4936
parten@@ 4936
détermin@@ 4932
élé@@ 4927
issant 4921
abil@@ 4920
améli@@ 4919
Ex@@ 4911
participation 4906
AC@@ 4904
isant 4904
cul@@ 4894
actions 4892
16 4888
fonds 4874
juin 4870
ines 4869
nouveaux 4869
fin@@ 4865
juridi@@ 4865
lang@@ 4864
tefois 4856
bo@@ 4853
possibil@@ 4851
duction 4850
ide 4850
dée 4849
outre 4847
institutions 4843
25 4841
identi@@ 4841
cid@@ 4838
pen@@ 4834
public@@ 4830
dre 4825
gé@@ 4824
use 4823
systèmes 4818
faut 4809
ls 4808
canadienne 4806
vision 4804
fér@@ 4799
exercice 4781
lib@@ 4775
terme 4775
hi@@ 4768
pe@@ 4763
issance 4760
hom@@ 4753
sujet 4750
savoir 4746
Direc@@ 4745
ports 4742
état 4720
important 4715
canadi@@ 4711
étude 4711
EN@@ 4708
mondi@@ 4704
Tou@@ 4701
pourrait 4684
administration 4682
Q@@ 4681
ministre 4679
Gouvernement 4667
caract@@ 4663
professionn@@ 4662
seulement 4662
appui 4659
ne@@ 4659
éducation 4650
ins@@ 4649
tel 4648
nes 4647
Am@@ 4639
appu@@ 4634
CE@@ 4631
tariat 4623
missions 4622
3.@@ 4619
oires 4612
canadien 4608
minist@@ 4608
tab@@ 4604
enreg@@ 4603
moyen 4602
dépenses 4597
agne 4593
acti@@ 4581
mp@@ 4581
vention 4580
tures 4576
ru@@ 4575
ich@@ 4570
objet 4570
mat@@ 4564
disponib@@ 4563
lement 4561
* 4560
éléments 4555
ille@@ 4535
UE 4533
requ@@ 4531
habit@@ 4529
favor@@ 4517
nécess@@ 4517
certaines 4513
esp@@ 4504
déjà 4502
ign@@ 4495
mis@@ 4493
ant@@ 4483
comb@@ 4483
17 4482
acqu@@ 4480
chang@@ 4475
destin@@ 4474
ement@@ 4466
fique 4465
valeur 4464
organisation 4463
annu@@ 4462
mars 4460
31 4453
hy@@ 4452
sein 4448
struc@@ 4448
nouvelle 4440
importance 4435
sen@@ 4434
An@@ 4432
quant 4432
accep@@ 4431
ay@@ 4431
12@@ 4428
Conférence 4425
inst@@ 4423
onnement 4422
ordonn@@ 4422
ma@@ 4421
prix 4416
chez 4408
deman@@ 4407
traitement 4406
vent 4406
Mme 4393
sti@@ 4392
ies 4387
rir 4376
Parlement 4373
nécessaire 4363
études 4360
pose 4356
cr@@ 4349
encour@@ 4348
inf@@ 4348
expéri@@ 4343
activité 4336
pén@@ 4333
internationales 4332
opérations 4331
19 4330
ager 4324
do@@ 4322
prises 4320
ace 4316
ligne 4315
commerce 4314
nécessaires 4312
devraient 4311
normes 4311
produit 4311
européen 4309
entation 4307
AR@@ 4306
20@@ 4305
199@@ 4304
porter 4304
dro@@ 4299
obtenir 4297
vient 4284
posi@@ 4278
U 4277
met@@ 4277
our 4274
tien 4273
www.@@ 4260
septembre 4259
étudi@@ 4257
rése@@ 4256
montant 4254
rent 4254
Ministère 4252
IS@@ 4249
Po@@ 4247
di 4239
enc@@ 4233
ication 4232
to 4224
dépend@@ 4221
jeunes 4220
employ@@ 4216
soutien 4216
propri@@ 4215
rais@@ 4214
celle 4212
exe 4212
annexe 4210
cher@@ 4208
économiques 4204
ens@@ 4203
garanti@@ 4201
prati@@ 4200
étant 4200
équ@@ 4195
C&apos; 4193
recommandations 4186
appel@@ 4185
br@@ 4185
près 4185
cli@@ 4181
cir@@ 4180
auprès 4175
organ@@ 4174
ici 4172
capacité 4171
chi@@ 4170
est@@ 4158
serait 4158
avaient 4155
pratiques 4150
tient 4150
ple@@ 4147
celui 4141
urs 4141
ène 4136
ément 4132
institu@@ 4129
ule 4129
ouv@@ 4126
eption 4116
érieur 4116
investiss@@ 4115
fications 4114
multi@@ 4114
Mo@@ 4102
vic@@ 4102
donné 4101
examin@@ 4098
entreprise 4097
D&apos; 4095
réunion 4095
transport 4093
effets 4085
vari@@ 4081
médic@@ 4079
pou@@ 4077
mondiale 4063
emb@@ 4060
fins 4058
opér@@ 4058
cap@@ 4056
peu 4053
esse 4051
tée 4048
social 4046
satis@@ 4042
situ@@ 4041
création 4040
fiques 4039
mécanis@@ 4036
0,@@ 4033
milit@@ 4031
celles 4030
prise 4021
ition 4014
matéri@@ 4008
moyens 4007
cription 4002
hau@@ 3995
risque 3994
col@@ 3993
hé@@ 3991
établissement 3991
illes 3990
quo@@ 3990
21 3987
exig@@ 3986
soins 3986
lutte 3978
uc@@ 3972
install@@ 3970
ar 3963
versité 3959
peu@@ 3955
TI@@ 3953
durable 3946
érique 3943
négoci@@ 3942
str@@ 3939
sus 3939
24 3936
besoin 3936
facil@@ 3936
nie 3933
log@@ 3929
sol@@ 3928
les@@ 3922
titul@@ 3922
bénéfici@@ 3921
conclu@@ 3917
renforcer 3917
heures 3915
type 3913
serv@@ 3912
ing 3909
souha@@ 3909
dép@@ 3901
prof@@ 3895
pouv@@ 3893
ER@@ 3892
û@@ 3892
avril 3891
domaines 3891
intérêt 3890
tif 3890
décisions 3884
analyse 3883
ib@@ 3879
pa@@ 3877
procédure 3869
4.@@ 3864
jusqu&apos; 3864
mai 3864
objectif 3862
appel 3852
juillet 3852
lorsque 3851
enseign@@ 3848
he@@ 3843
éco@@ 3838
OM@@ 3837
gues 3837
sociale 3832
suivi 3831
compos@@ 3830
1,@@ 3826
ouvel@@ 3823
personn@@ 3823
armes 3821
centr@@ 3820
long 3820
reconna@@ 3820
preu@@ 3819
amp@@ 3818
communauté 3818
note 3816
industrie 3815
fron@@ 3804
déclaration 3799
communication 3796
grand 3795
fournir 3794
liste 3791
uv@@ 3791
out 3790
tées 3790
iste 3788
irs 3787
ix 3784
octobre 3783
nationales 3779
viol@@ 3779
arr@@ 3778
démocrati@@ 3773
SC@@ 3771
tives 3771
Co@@ 3770
technique 3764
établi@@ 3763
budget 3762
positions 3759
autorités 3758
moment 3758
pouvoir 3758
rées 3756
Afrique 3755
èle 3753
sibil@@ 3752
dire 3751
renforc@@ 3751
Mar@@ 3748
face 3748
oration 3747
mi 3746
fix@@ 3743
not@@ 3738
cela 3736
dépos@@ 3729
janvier 3726
alors 3724
= 3722
concern@@ 3718
demand@@ 3717
régions 3716
Ag@@ 3708
isse 3705
particuli@@ 3704
reté 3704
isl@@ 3699
18@@ 3698
travaill@@ 3697
hui 3694
jours 3693
représentants 3692
vé@@ 3692
élaboration 3691
1er 3690
pertin@@ 3686
technologi@@ 3685
deuxième 3684
tur@@ 3684
arg@@ 3683
dat@@ 3683
tifs 3683
60 3678
abr@@ 3673
dom@@ 3668
toujours 3668
alités 3667
const@@ 3666
fo@@ 3665
Ontario 3664
quels 3660
novembre 3658
aider 3653
ni 3647
portant 3644
... 3640
sibles 3635
diver@@ 3625
num@@ 3625
spécial 3624
ate 3623
permis 3623
jug@@ 3614
march@@ 3611
pai@@ 3611
tenue 3601
Cour 3599
progrès 3598
travail@@ 3597
22 3595
maladi@@ 3595
natu@@ 3595
pol@@ 3593
100 3591
indre 3586
préoccup@@ 3582
avantage 3578
promotion 3578
quelles 3577
cher 3573
électron@@ 3572
âce 3567
pauv@@ 3562
autochtones 3561
lais 3558
parl@@ 3555
mandat 3554
RE@@ 3552
conse@@ 3551
quatre 3551
arri@@ 3550
coûts 3550
ions 3547
respec@@ 3547
nationaux 3546
jo@@ 3545
enn@@ 3541
formul@@ 3539
mieux 3539
ministère 3538
élimin@@ 3538
intéress@@ 3536
stratégie 3535
soli@@ 3534
ependant 3533
atisti@@ 3531
protég@@ 3530
met 3523
pé@@ 3520
tels 3519
fai@@ 3518
ète 3516
croissance 3509
emp@@ 3507
appropri@@ 3503
atoire 3500
gn@@ 3500
CE 3498
risques 3498
II 3497
frais 3497
VI@@ 3496
établir 3494
1998 3489
affir@@ 3487
espè@@ 3487
affec@@ 3484
sy@@ 3484
Premi@@ 3483
gré 3483
az@@ 3477
interven@@ 3473
pay@@ 3468
tenus 3465
Centre 3462
suffis@@ 3462
supplément@@ 3462
isme 3461
entaires 3459
adap@@ 3457
ailleurs 3457
sident 3456
change 3455
conven@@ 3452
principes 3451
éro@@ 3449
responsabilité 3448
no 3447
reg@@ 3447
cham@@ 3446
ablement 3445
maj@@ 3444
employés 3441
ban@@ 3439
rég@@ 3438
ase 3437
environnement@@ 3437
liv@@ 3434
Gr@@ 3432
00@@ 3426
ors 3425
aucune 3424
discrimination 3424
sem@@ 3422
techniques 3418
anci@@ 3417
CO@@ 3412
exéc@@ 3412
jus@@ 3411
ail@@ 3410
lis@@ 3406
proposition 3404
ordin@@ 3400
rend@@ 3399
int 3396
problème 3396
Ou@@ 3391
cinq 3391
vigueur 3390
relative 3388
justice 3386
dic@@ 3384
tiv@@ 3383
ième 3380
port 3380
ux 3376
étés 3370
gouvernements 3369
différents 3367
40 3365
procédures 3364
tis@@ 3362
prest@@ 3360
suivre 3360
catég@@ 3358
bour@@ 3354
égi@@ 3352
ationn@@ 3351
formes 3347
Office 3343
ef 3343
communi@@ 3339
prés@@ 3339
23 3336
itre 3336
citoy@@ 3332
tin@@ 3327
Règlement 3326
poste 3323
nombreux 3322
assistance 3319
font 3318
pê@@ 3314
long@@ 3311
demandes 3308
agit 3303
beaucoup 3301
proch@@ 3298
intérieur 3294
membre 3293
Z@@ 3292
exte 3292
ève 3291
mun@@ 3290
permettre 3286
règ@@ 3285
ut 3285
déterminer 3284
times 3278
experts 3276
points 3276
TR@@ 3275
car 3275
termes 3273
promouvoir 3271
crit@@ 3269
fié 3269
hist@@ 3269
orer 3267
souvent 3263
développ@@ 3259
vez 3259
total 3258
civi@@ 3257
plani@@ 3254
ût 3252
prévention 3251
fondam@@ 3248
participants 3248
recommand@@ 3248
efficacité 3245
ariat 3244
initiatives 3242
No@@ 3236
Nord 3234
der@@ 3223
he 3221
produ@@ 3218
serve 3212
nor@@ 3211
règles 3208
délégation 3204
tradi@@ 3204
tot@@ 3203
trait 3199
Tribunal 3197
ette 3195
internationaux 3195
.1 3194
éro 3194
&amp; 3191
26 3191
relations 3189
extr@@ 3186
estim@@ 3185
-@@ 3182
liber@@ 3179
embl@@ 3178
collectiv@@ 3177
revenu 3177
urg@@ 3175
ège 3175
13@@ 3173
pens@@ 3172
cause 3168
hô@@ 3167
CN@@ 3166
examiner 3166
scienti@@ 3166
Vo@@ 3165
férence 3163
correspon@@ 3162
Web 3160
particulièrement 3159
oeuvre 3158
St@@ 3157
eaux 3155
entaire 3154
quent 3152
Bi@@ 3151
incid@@ 3151
séance 3151
ourn@@ 3147
tiers 3144
produc@@ 3142
donner 3139
respect 3137
èrement 3135
biens 3131
Gu@@ 3129
explo@@ 3129
iti@@ 3129
ONU 3127
capacités 3126
approche 3125
enfant 3124
secteurs 3119
ail 3118
ind@@ 3118
puis 3118
économie 3118
occup@@ 3117
consult@@ 3115
just@@ 3114
coordination 3113
clé@@ 3110
leau 3109
issement 3107
aujourd&apos; 3105
27 3101
culturel@@ 3101
5.@@ 3100
ules 3100
réduire 3098
ense 3097
érieure 3095
arb@@ 3093
exploitation 3093
famille 3092
gén@@ 3092
ération 3090
représentant 3088
conform@@ 3083
considé@@ 3083
égalité 3076
bonne 3075
judici@@ 3074
texte 3074
ote 3070
aucun 3067
28 3066
omm@@ 3066
existe 3063
acte 3062
De@@ 3052
let@@ 3052
partenaires 3052
fil@@ 3051
partir 3049
AD@@ 3048
ed 3048
ak@@ 3045
mu@@ 3044
législation 3043
sul@@ 3043
référence 3041
régime 3039
rati@@ 3036
intég@@ 3035
milli@@ 3035
marchés 3026
niveaux 3024
efficace 3023
confi@@ 3022
principe 3020
exécution 3017
détail@@ 3010
devant 3008
andis@@ 3002
accro@@ 3001
collaboration 3001
29 2998
Pr@@ 2998
radi@@ 2998
utiliser 2997
permet 2996
&#124; 2991
page 2989
resse 2987
succ@@ 2987
Rapport 2986
Fonds 2983
section 2981
dation 2980
environ 2980
changements 2977
surveillance 2975
bie 2971
enquête 2971
dernier 2969
° 2967
cin@@ 2966
aliné@@ 2964
ber@@ 2961
figur@@ 2961
seurs 2956
mul@@ 2952
Canadiens 2950
pren@@ 2948
be 2947
hic@@ 2945
q@@ 2941
nature 2937
énergie 2935
Québec 2933
anni@@ 2933
ax@@ 2928
uit 2928
amment 2923
V 2922
X 2922
terroris@@ 2920
Commun@@ 2919
cal@@ 2919
lorsqu&apos; 2919
ext@@ 2918
offre 2917
violence 2916
disposition 2914
exigences 2913
éric@@ 2912
financière 2911
régi@@ 2910
certain 2906
compag@@ 2904
olu@@ 2904
plupart 2901
orig@@ 2898
cy@@ 2895
Ann@@ 2894
ples 2894
ton 2892
certi@@ 2890
trait@@ 2890
onal 2889
voie 2888
cle 2886
conf@@ 2884
zone 2884
établiss@@ 2878
concurr@@ 2875
candidat@@ 2873
issances 2873
février 2869
compar@@ 2867
adoption 2863
ev@@ 2863
Pré@@ 2862
aison 2861
17@@ 2856
articles 2856
phy@@ 2848
ord@@ 2846
résul@@ 2841
San@@ 2839
plans 2836
15@@ 2832
Cor@@ 2832
14@@ 2831
anim@@ 2828
ole 2828
anç@@ 2826
tive 2825
istr@@ 2816
IC@@ 2815
rig@@ 2811
IT@@ 2809
erre 2807
dossi@@ 2804
ment@@ 2804
unions 2802
coû@@ 2801
suivants 2789
individu@@ 2788
fonc@@ 2787
nav@@ 2786
condu@@ 2785
porteur 2784
ête 2781
2009 2780
communications 2778
attention 2775
lit 2773
trim@@ 2772
édi@@ 2768
table 2765
assur@@ 2764
menti@@ 2763
pression 2763
ors@@ 2755
EM@@ 2753
fau@@ 2752
1997 2751
mises 2751
ument 2751
moy@@ 2736
Tr@@ 2733
éti@@ 2733
intention 2729
pre 2714
êt 2712
itation 2711
suit 2708
charge 2707
yer 2706
efficac@@ 2705
ll@@ 2702
dent 2701
01 2696
OR@@ 2696
gration 2693
cer@@ 2692
are@@ 2691
budg@@ 2688
ds 2685
mani@@ 2684
érie@@ 2682
2,@@ 2677
construction 2666
initiative 2665
AL@@ 2664
aï@@ 2661
usion 2656
direction 2655
16@@ 2652
sci@@ 2650
ju@@ 2647
Internet 2646
ature 2646
reau 2645
terr@@ 2638
jur@@ 2636
ographi@@ 2633
iv@@ 2630
étab@@ 2630
obligations 2627
avant@@ 2626
inc@@ 2624
Institu@@ 2617
insp@@ 2617
expos@@ 2615
197@@ 2612
Sel@@ 2611
Pl@@ 2607
gran@@ 2606
envis@@ 2603
intér@@ 2603
1996 2601
tats 2599
chap@@ 2598
ords 2598
tude 2596
impos@@ 2595
veill@@ 2595
reven@@ 2592
ulation 2592
occasion 2590
placement 2586
migr@@ 2584
! 2583
attribu@@ 2582
consul@@ 2579
humanit@@ 2577
air 2576
cau@@ 2576
Ad@@ 2575
financ@@ 2573
EC@@ 2572
ge@@ 2571
transfer@@ 2567
paration 2565
exes 2562
clar@@ 2561
industri@@ 2561
termin@@ 2555
technologies 2554
grav@@ 2553
analy@@ 2552
norm@@ 2552
aven@@ 2548
centre 2548
contribution 2548
journ@@ 2547
zones 2538
bre@@ 2536
instruments 2535
exerc@@ 2527
police 2527
commun@@ 2525
Secré@@ 2523
dang@@ 2521
lic@@ 2517
Parties 2516
culture 2515
ade 2505
mê@@ 2505
appar@@ 2504
UN@@ 2495
tat 2495
Ap@@ 2493
recher@@ 2491
solution 2489
http 2487
gation 2485
AP@@ 2481
fé@@ 2480
illi@@ 2478
assurance 2475
ementation 2473
maxim@@ 2471
ps 2471
engagement 2470
mal@@ 2469
IR@@ 2464
resp@@ 2460
rev@@ 2460
auv@@ 2458
vre 2456
agric@@ 2454
nombre@@ 2450
ards 2449
can@@ 2445
Av@@ 2444
Mal@@ 2442
directive 2440
ission 2440
lin@@ 2440
ron@@ 2437
aspects 2436
assi@@ 2435
Car@@ 2434
expres@@ 2434
C.@@ 2430
server 2428
Article 2424
Un@@ 2418
due 2413
tend@@ 2413
dispos@@ 2406
ands 2403
Af@@ 2395
dér@@ 2395
eli@@ 2392
exclu@@ 2392
plu@@ 2392
ond@@ 2391
erg@@ 2388
mari@@ 2377
ET 2375
version 2375
olution 2372
effecti@@ 2370
provis@@ 2368
oll@@ 2363
istan 2362
ises 2359
ore 2355
vul@@ 2354
eng@@ 2352
go@@ 2347
concentr@@ 2346
europé@@ 2346
v 2340
gh@@ 2338
quanti@@ 2330
asi@@ 2328
tan@@ 2321
Rap@@ 2320
recomm@@ 2320
Comp@@ 2319
CC@@ 2317
ga@@ 2315
premi@@ 2315
autom@@ 2314
itable 2311
Man@@ 2309
indic@@ 2305
Ban@@ 2300
Services 2297
os 2297
out@@ 2292
lev@@ 2290
joint 2289
tain@@ 2283
sources 2278
contributions 2277
◦ 2275
vise 2273
bon 2271
ner 2269
sible 2265
clients 2264
potenti@@ 2263
Char@@ 2261
c. 2261
sexu@@ 2261
minu@@ 2259
trad@@ 2256
clai@@ 2254
perman@@ 2252
RC 2250
innov@@ 2246
.gc.ca 2245
principal 2245
ï@@ 2241
acces@@ 2240
are 2240
sidence 2240
seil 2237
contin@@ 2236
ani@@ 2235
Protoco@@ 2233
Roy@@ 2233
consultations 2232
simp@@ 2232
Fr@@ 2231
fric@@ 2231
Memb@@ 2227
Fin@@ 2226
six 2225
art 2223
syn@@ 2223
emble 2220
initi@@ 2220
servation 2219
tax@@ 2217
délég@@ 2215
Di@@ 2210
Cer@@ 2209
endant 2208
1995 2207
pes 2207
intro@@ 2205
prob@@ 2203
UR@@ 2201
crimin@@ 2199
infr@@ 2191
ications 2188
ier 2184
Ob@@ 2178
PN@@ 2176
tic@@ 2172
audi@@ 2171
auté 2168
Th@@ 2166
venant 2166
LE 2163
ris@@ 2162
sep@@ 2160
AS@@ 2159
ination 2158
amend@@ 2154
prog@@ 2154
Ter@@ 2148
ple 2146
distinc@@ 2145
Doc@@ 2143
Uni@@ 2137
time 2137
pon@@ 2135
55 2133
cre@@ 2131
assu@@ 2129
am 2127
Minis@@ 2125
jet 2125
Service 2121
va 2117
cent@@ 2116
CR@@ 2110
TA@@ 2107
active 2106
Commis@@ 2104
difficul@@ 2104
gen@@ 2104
crip@@ 2101
confir@@ 2096
transi@@ 2093
Colom@@ 2090
oblig@@ 2090
onne 2090
graphi@@ 2088
AT@@ 2083
agricul@@ 2081
aj@@ 2081
ho@@ 2081
Bo@@ 2079
SI@@ 2078
dec@@ 2077
rédu@@ 2075
Li@@ 2074
emplo@@ 2072
populations 2072
Per@@ 2069
act@@ 2069
continue 2069
influ@@ 2068
forces 2067
ref@@ 2067
duc@@ 2063
Nor@@ 2060
obligation 2058
El@@ 2056
ON 2056
class@@ 2055
Code 2054
pério@@ 2053
90 2052
ma 2051
tari@@ 2051
Comm@@ 2049
L.@@ 2047
AC 2046
glob@@ 2045
devr@@ 2041
sum@@ 2031
st 2026
02 2024
80 2022
35 2019
tention 2016
Parti@@ 2012
cat@@ 2009
relati@@ 2009
oph@@ 2006
large 1997
alestini@@ 1996
famili@@ 1994
for 1993
ile 1993
fem@@ 1991
sites 1988
dits 1987
structure 1986
6.@@ 1985
LA 1983
ii 1982
45 1981
cent 1981
expl@@ 1979
pati@@ 1977
exemp@@ 1975
ments 1975
03 1973
nég@@ 1972
don@@ 1968
ion 1968
enqu@@ 1967
olutions 1966
Rec@@ 1964
absence 1964
tification 1959
inclu@@ 1955
recru@@ 1952
provin@@ 1951
Ottawa 1949
adi@@ 1948
san@@ 1948
af@@ 1946
consultation 1945
Date 1943
mag@@ 1941
centres 1937
inten@@ 1936
63 1933
3,@@ 1931
Br@@ 1929
quali@@ 1929
types 1927
CI@@ 1917
vir@@ 1914
unique 1913
dialogue 1912
lig@@ 1912
mes@@ 1904
Amend@@ 1903
ol 1903
+ 1901
impact 1899
super@@ 1897
Sal@@ 1896
UR 1896
Association 1888
Tra@@ 1884
condition 1883
ires 1882
hand@@ 1881
tour@@ 1879
vote 1878
gl@@ 1876
province 1876
Plan 1871
enf@@ 1868
ES@@ 1862
ay 1859
sit@@ 1856
Bu@@ 1855
1994 1852
ellectu@@ 1849
lat@@ 1849
transpar@@ 1849
religi@@ 1842
effor@@ 1841
stoc@@ 1839
dam@@ 1836
stitution 1834
fisc@@ 1831
France 1830
éli@@ 1826
xième 1822
fam@@ 1821
Pri@@ 1820
compli@@ 1819
lée 1819
permanent 1818
harmon@@ 1811
moder@@ 1811
CON@@ 1809
correc@@ 1808
itr@@ 1808
04 1806
05 1806
70 1804
force 1804
truc@@ 1804
asse@@ 1802
ective 1798
@ 1795
Asi@@ 1793
58 1790
57 1787
order 1780
trav@@ 1780
ATION 1775
33 1772
RO@@ 1771
Or@@ 1769
we@@ 1769
59 1766
gro@@ 1763
licence 1762
cip@@ 1760
béné@@ 1757
mic@@ 1756
06 1749
SC 1749
solutions 1749
pre@@ 1747
èg@@ 1744
pan@@ 1742
essi@@ 1740
ories 1740
hon@@ 1738
61 1733
instr@@ 1729
minis@@ 1726
publication 1722
cad@@ 1715
ë@@ 1713
AM@@ 1711
Jus@@ 1711
ox@@ 1708
K 1707
distribution 1702
source 1702
substances 1701
Vi@@ 1700
Russi@@ 1699
urb@@ 1699
iter@@ 1693
.org 1691
ave 1691
Ko@@ 1690
olog@@ 1688
sex@@ 1686
Si@@ 1685
euro@@ 1684
ties 1684
che@@ 1683
propor@@ 1683
56 1682
second@@ 1678
PO@@ 1677
fourni@@ 1674
ID@@ 1670
ient 1669
Le@@ 1668
provinces 1667
Division 1661
tal@@ 1659
The 1657
Trans@@ 1657
plo@@ 1655
ustr@@ 1655
32 1654
Des@@ 1650
cop@@ 1650
É 1649
ili@@ 1643
ENT 1640
tim@@ 1640
Envir@@ 1637
classi@@ 1637
P.@@ 1633
Ro@@ 1633
municip@@ 1632
docum@@ 1630
− 1626
signi@@ 1621
ask@@ 1620
sug@@ 1614
gie 1612
ti 1610
veau 1610
migration 1607
opération 1604
ATI@@ 1596
ch 1595
ran@@ 1594
susp@@ 1592
ad 1591
24@@ 1589
union 1584
ession 1580
eth@@ 1580
Mission 1579
Por@@ 1577
nam@@ 1573
per 1571
1990 1568
fig@@ 1565
pris@@ 1564
▪ 1559
PR@@ 1558
-- 1557
PC@@ 1557
mer@@ 1556
investi@@ 1554
pil@@ 1554
rier 1552
distribu@@ 1549
tem@@ 1547
III 1538
5,@@ 1536
q 1536
sive 1536
CH@@ 1535
aint 1530
ections 1525
34 1523
ER 1523
ploy@@ 1523
dix 1522
IP@@ 1519
Tor@@ 1519
Soci@@ 1518
75 1511
ech@@ 1507
tail@@ 1507
GR@@ 1505
TION 1505
Dis@@ 1504
fic 1502
quar@@ 1501
rup@@ 1500
sh@@ 1499
iture 1496
calcul@@ 1495
tern@@ 1493
chem@@ 1491
essions 1490
Gen@@ 1486
Bel@@ 1480
ates 1480
ental 1479
C. 1477
portation 1476
Isra@@ 1474
Alberta 1471
rece@@ 1470
bur@@ 1465
istance 1465
36 1463
gouvern@@ 1460
51 1458
ks 1456
500 1455
New 1455
Ver@@ 1455
addi@@ 1454
Aff@@ 1447
ices 1447
uments 1446
cel@@ 1445
37 1444
7.@@ 1443
applic@@ 1442
62 1441
EL@@ 1435
ed@@ 1435
suff@@ 1435
Cl@@ 1427
39 1426
ame 1424
2010 1422
67 1422
reli@@ 1421
quelle 1420
toco@@ 1416
ases 1415
changes 1415
del@@ 1415
paragrap@@ 1413
concer@@ 1412
accord@@ 1411
54 1409
bun@@ 1409
ision 1408
bunal 1407
ew@@ 1406
Joh@@ 1405
activ@@ 1404
larg@@ 1403
bru@@ 1399
restric@@ 1399
cam@@ 1398
œ@@ 1396
48 1391
syst@@ 1390
main 1389
oth@@ 1385
cha@@ 1377
qua@@ 1377
acts 1373
ources 1373
ath@@ 1372
exper@@ 1372
asp@@ 1366
41 1364
local 1361
Dem@@ 1360
forc@@ 1359
ome 1357
EC 1353
ong@@ 1348
lut@@ 1347
taire 1347
ord 1343
aste 1342
certain@@ 1338
refl@@ 1338
temp@@ 1338
Add@@ 1337
ation@@ 1337
07 1336
PRO@@ 1336
Y 1335
occu@@ 1335
limin@@ 1332
ical 1331
65 1330
capital 1327
International 1324
crime 1324
pon 1321
infrastructure 1317
29@@ 1316
A. 1313
08 1311
minim@@ 1309
denti@@ 1307
Lib@@ 1306
Strat@@ 1306
Syst@@ 1306
onto 1306
final 1305
direct 1304
exam@@ 1303
49 1299
prot@@ 1298
COM@@ 1294
èmes 1292
Tur@@ 1289
52 1286
ST@@ 1284
Ira@@ 1283
TS 1283
42 1279
Res@@ 1278
Section 1277
44 1276
cus@@ 1269
ht@@ 1269
nou@@ 1266
iz@@ 1257
ary 1256
hen@@ 1256
38 1255
signific@@ 1253
erc@@ 1252
28@@ 1247
pers@@ 1245
09 1244
ub@@ 1243
US@@ 1242
Im@@ 1239
ution 1237
bri@@ 1236
be@@ 1232
AN 1229
net 1229
ource 1224
agement 1223
da 1220
nov@@ 1219
location 1217
har@@ 1216
relation 1214
ays 1211
discus@@ 1209
IM@@ 1208
Cro@@ 1205
ones 1205
64 1203
SA@@ 1203
95 1200
jeun@@ 1199
No 1197
SO@@ 1192
ément@@ 1188
&lt; 1187
net@@ 1185
contact 1181
tection 1180
Initi@@ 1174
û 1174
dg@@ 1173
ick 1173
opinion 1173
EP@@ 1170
8.@@ 1165
sk@@ 1163
tl@@ 1163
Se@@ 1160
enci@@ 1159
Administr@@ 1156
bili@@ 1153
US 1151
Num@@ 1150
Cont@@ 1148
Euro@@ 1147
sw@@ 1144
ana 1142
È@@ 1140
ect 1139
Eng@@ 1125
Indi@@ 1125
So@@ 1123
grad@@ 1123
démo@@ 1122
man 1118
commercial 1116
infrastruc@@ 1116
candi@@ 1108
Ser@@ 1106
cos@@ 1104
obj@@ 1103
icul@@ 1102
issions 1098
Ph@@ 1096
minimum 1094
simil@@ 1093
Cour@@ 1092
tre@@ 1090
Air 1086
ﬁ@@ 1082
id 1080
aly@@ 1079
‑ 1077
Ab@@ 1075
pop@@ 1074
impl@@ 1070
0.@@ 1067
fer 1066
¨ 1064
dat 1063
sieurs 1061
velopp@@ 1061
atis@@ 1060
relev@@ 1059
aw@@ 1058
Inter@@ 1057
ner@@ 1057
sm@@ 1057
seignements 1054
200@@ 1052
origin@@ 1050
ques@@ 1048
IV 1045
ow@@ 1044
Indus@@ 1043
opport@@ 1043
go 1041
tho@@ 1038
th 1036
ze 1036
uation 1035
ia 1033
économi@@ 1033
global 1032
avo@@ 1028
prom@@ 1028
bro@@ 1024
discussion 1024
Canadi@@ 1018
applicable 1018
UNIC@@ 1015
Jo@@ 1010
cultu@@ 1010
pap@@ 1010
terro@@ 1010
tran@@ 1009
Her@@ 1008
lead@@ 1007
rele@@ 1004
Lo@@ 1003
air@@ 1003
ends 1002
program@@ 999
Sy@@ 998
w 995
bal@@ 992
pp@@ 991
péri@@ 991
AL 990
ong 986
collecti@@ 985
auss@@ 983
manu@@ 981
fir@@ 980
Can@@ 979
og@@ 971
S. 969
W 968
agr@@ 967
IL@@ 964
Col@@ 963
ina 961
abliss@@ 960
all 959
iver 959
Be@@ 958
.ca 957
J 955
ital 954
procéd@@ 951
ce@@ 949
effici@@ 949
Total 947
ept 945
tribu@@ 945
qual@@ 942
surveill@@ 942
xim@@ 941
œuv@@ 938
issue 935
jud@@ 935
incip@@ 933
relevant 929
valuation 928
penses 927
tochtones 924
ui 922
Organ@@ 921
til 921
,000 919
Fon@@ 919
clu@@ 917
mil@@ 913
€ 911
by 910
tries 910
Op@@ 904
consist@@ 899
nation@@ 898
ms 890
carri@@ 889
construc@@ 888
Q 886
pli@@ 880
seign@@ 879
grès 869
act 865
ere@@ 865
secon@@ 858
land 857
� 856
Pe@@ 855
\ 855
ural 853
9.@@ 850
ther@@ 847
Is@@ 845
rique 842
fici@@ 836
Inv@@ 835
tice 832
ber 831
agrap@@ 829
Reg@@ 818
tt@@ 813
ussi@@ 813
eff@@ 812
eg@@ 812
esses 807
civil 804
Oc@@ 803
ince 799
Me@@ 798
applications 796
Proc@@ 795
vidence 789
arrang@@ 786
fre@@ 778
Pub@@ 776
olo@@ 767
oun@@ 766
role 765
isions 764
tec@@ 764
Table 761
ta 759
administrative 758
Cap@@ 757
Règ@@ 757
# 755
indus@@ 752
ort 751
Î@@ 747
clo@@ 746
ill 743
doc@@ 742
Acc@@ 741
faç@@ 740
ST 739
ic 734
od 731
................@@ 729
her@@ 729
éné@@ 724
Sec@@ 723
ke 722
discrimin@@ 721
ership 721
vice 720
otel 717
provincial 717
Stat@@ 713
ty@@ 712
gan@@ 711
abs@@ 709
ivent 707
Sup@@ 706
proj@@ 705
lab@@ 700
He@@ 699
char@@ 697
Ass@@ 695
ack@@ 693
j 693
om 690
ly 689
DP 685
million 685
Information 683
effective 682
facilit@@ 681
lob@@ 680
stu@@ 680
ose 679
sécur@@ 679
Contr@@ 676
Chil@@ 673
condi@@ 673
Bri@@ 672
coup 669
embre 666
isc@@ 666
je@@ 666
subst@@ 666
gre@@ 662
ting 662
ges@@ 659
ene@@ 656
regard 655
tron@@ 650
dies 646
ests 646
™ 646
poin@@ 645
â 645
corpor@@ 644
office 644
co 643
dence 640
Gre@@ 638
Rel@@ 636
fe 636
ress 634
Em@@ 632
auc@@ 629
em 629
tocht@@ 629
ange 628
polici@@ 626
Canadian 625
hab@@ 624
á@@ 623
Fo@@ 622
performance 622
University 621
Z 618
Min@@ 615
oy@@ 615
Ho@@ 613
ity 612
ok 610
ans@@ 607
Program@@ 606
echn@@ 604
í@@ 601
alogue 597
Sub@@ 590
gueur 589
als 588
aver@@ 588
pat@@ 587
cle@@ 583
gram@@ 583
second 583
Go@@ 580
Health 580
quot@@ 579
suppl@@ 578
opin@@ 577
seul@@ 576
provi@@ 575
ssi@@ 575
Pol@@ 573
consi@@ 569
human@@ 568
do 567
anis@@ 566
issu@@ 565
Pre@@ 562
oeu@@ 561
ó@@ 561
National 559
écur@@ 555
nat@@ 554
grap@@ 552
ament 550
La@@ 548
of@@ 547
Sci@@ 546
ty 546
dge 544
jourd&apos; 543
cum@@ 542
stitu@@ 541
cial 539
ause 538
hal@@ 537
tat@@ 534
Techn@@ 532
ü@@ 531
dy 529
val 527
ake 523
occa@@ 522
cit@@ 521
with 520
side 518
· 518
ry 516
estin@@ 511
ive 511
----@@ 508
velop@@ 508
On@@ 507
acro@@ 503
ducation 503
hol@@ 501
substanti@@ 501
ö@@ 501
distin@@ 500
ited 500
ars 499
conduc@@ 496
cas@@ 495
Action 494
Wh@@ 493
As@@ 492
bel@@ 491
ot 489
® 489
future 488
cen@@ 486
sis 483
stand@@ 483
enni@@ 480
Research 475
ek 472
exten@@ 471
avai@@ 470
ey 470
eting 469
sib@@ 469
Sp@@ 467
lish 466
ws 464
ha@@ 463
rements 463
curr@@ 461
any 460
file 457
fur@@ 454
four 452
sel@@ 452
tenti@@ 452
abo@@ 451
ste@@ 451
Americ@@ 449
mental 446
.c@@ 444
ith 444
from 442
partic@@ 442
éner@@ 442
we 440
alestin@@ 437
pur@@ 436
New@@ 430
Str@@ 430
conom@@ 430
ters 430
support 429
ast 421
TH@@ 420
ear@@ 419
ft 417
perform@@ 415
domesti@@ 414
méc@@ 414
ei@@ 412
occ@@ 412
± 410
Ã@@ 409
Ne@@ 408
den 403
four@@ 403
king 403
ss 403
ta@@ 400
We@@ 399
ax 398
ack 395
auth@@ 395
ectu@@ 395
Tri@@ 393
Development 392
probl@@ 392
so 390
ated 389
mark@@ 389
oms 389
ety 387
ä@@ 387
grou@@ 385
‰ 379
del 373
pend@@ 373
Act 372
Off@@ 372
ôle 372
ects 370
ak 367
Jan@@ 366
requi@@ 364
essus 363
ory 361
tion@@ 358
doll@@ 352
uli@@ 352
issues 350
ess 349
ish@@ 349
tu 349
Fe@@ 348
aug@@ 348
utive 346
ine@@ 344
atin@@ 343
dre@@ 343
that 341
view 339
Г 339
Ger@@ 338
United 338
ings 338
Employ@@ 336
major 336
manufac@@ 335
ology 333
§ 332
Ê@@ 331
illet 327
ouse 326
techn@@ 323
objecti@@ 322
outh 321
World 320
line 319
enh@@ 315
ater 314
ding 314
tel@@ 314
internation@@ 313
original 313
way 313
ñ@@ 312
Environ@@ 309
cc@@ 308
ich 307
politi@@ 306
ass 305
iné@@ 305
Wor@@ 304
bia 304
elec@@ 304
Nov@@ 303
ada 302
work 302
aboration 301
tern 301
course 299
own 298
Report 296
if 296
ous@@ 295
tics 294
Public 293
Group 292
op 292
fol@@ 290
Que@@ 289
wn 289
Council 288
ª@@ 288
Law 287
report 284
can 281
º 280
ics 279
hel@@ 278
ign 276
mom@@ 276
well 276
airs 275
poli@@ 274
regar@@ 272
lar@@ 271
ke@@ 269
Regi@@ 268
ere 268
s. 268
vel@@ 263
Ô@@ 263
Human 262
vier 262
Aug@@ 261
bec 261
case 261
tor 260
eso@@ 258
~ 258
.m. 255
ouvoir 255
ols 254
étr@@ 254
conomi@@ 253
the@@ 252
ust 250
protec@@ 248
thou@@ 248
Management 246
commer@@ 245
µ@@ 245
....@@ 244
Rights 244
red 244
uro@@ 244
gh 243
ish 241
up@@ 241
tical 239
ods 236
eri@@ 235
..@@ 234
dents 234
was 234
Associ@@ 232
ame@@ 232
memb@@ 232
European 231
valu@@ 231
wi@@ 230
Gouvern@@ 229
ach 229
tic 229
contro@@ 228
ˆ 227
ling 226
Alber@@ 225
ems 224
invest@@ 224
right 224
Dec@@ 221
try 221
Department 218
deu@@ 218
particul@@ 218
c.ca 217
........@@ 216
éval@@ 216
environn@@ 215
und 215
strat@@ 214
EU 213
rom 211
Â 210
--@@ 209
med 209
ticles 209
vern@@ 209
rest 208
usiness 208
astruc@@ 206
ational 206
Grou@@ 203
promo@@ 203
fe@@ 202
ë 202
General 201
enda 200
ese 200
alth 199
ning 199
étu@@ 199
Coun@@ 198
ward 198
ril 196
nouvel@@ 194
ulations 194
up 194
this 193
veaux 193
ï 193
gs 192
low@@ 192
coun@@ 191
old 191
jan@@ 190
key 190
Afric@@ 189
ther 189
her 188
not 188
day 187
thern 187
pub@@ 186
{ 186
× 186
state 185
OF 184
rate 184
} 184
′ 184
124@@ 182
ted 182
tural 182
.g@@ 181
bec@@ 181
First 180
fun@@ 180
wor@@ 180
wh@@ 178
² 178
medi@@ 176
ope 176
In 175
igh@@ 174
view@@ 174
ender 173
Ç@@ 173
very 172
á 172
Community 171
ist 171
more 171
under 171
μ@@ 171
ree 170
envir@@ 169
field 169
ating 168
idi@@ 168
eld 167
leg@@ 167
foc@@ 165
ways 165
Policy 164
Program 164
ship 164
ject 163
States 162
ality 160
you 160
ound 159
Board 158
Ind@@ 158
ace@@ 158
awa 158
rès 158
views 157
ally 154
eria 154
low 153
ow 153
Ä@@ 153
ã@@ 153
Hum@@ 152
ight 152
guid@@ 151
have 151
ency 150
law 149
Ø@@ 149
α 149
Social 148
will 148
Committee 147
standards 147
tw@@ 147
Sum@@ 146
à@@ 145
agenda 144
ering 144
has 144
omen 144
tional 143
ć 142
Economic 141
addition 141
shall 141
ten 140
ury 140
Conference 139
add@@ 138
gni@@ 138
my 137
ù 137
peri@@ 136
ﬂ@@ 136
ness 135
An 134
oper@@ 134
coordin@@ 133
ponib@@ 133
igh 132
tain 132
water 132
è 132
Agency 131
anies 130
than 130
which 129
ying 128
available 127
oci@@ 127
org 127
ority 127
prov@@ 127
islation 126
ator 125
atory 125
ills 125
č@@ 125
acy 124
THE 123
dren 123
elines 123
ext 123
speci@@ 122
ily 121
May 120
form 120
invol@@ 120
ld 120
ological 120
dom 119
eci@@ 119
management 119
Mr 118
ability 118
set 118
ww@@ 118
ú@@ 118
β 118
ener@@ 116
urr@@ 112
State 111
health 111
some 111
ablis@@ 110
achi@@ 110
their 110
Â@@ 110
respon@@ 109
Aboriginal 108
Court 108
monit@@ 108
each 107
your 107
√ 107
This 106
ders 106
mit 106
sion@@ 106
š@@ 106
Government 105
bet@@ 103
mary 101
raft 101
α@@ 101
deb@@ 100
other 100
finan@@ 99
ll 99
new 99
Security 98
lear@@ 98
life 98
Commission@@ 97
aining 97
¢ 97
deral 96
tors 96
.m@@ 95
icip@@ 95
istry 95
ven 95
ask 94
hav@@ 93
itte@@ 93
jour@@ 93
ouvern@@ 93
work@@ 93
exis@@ 92
ving 92
development 90
dra@@ 90
subm@@ 89
ø@@ 89
French 88
ew 88
gener@@ 88
oth 88
about 87
basi@@ 87
ful 87
Minist@@ 86
Octob@@ 86
néc@@ 86
All 84
It 84
his 84
objectives 84
techni@@ 84
Г@@ 84
ear 83
present@@ 83
Africa 82
detail@@ 82
ism 82
polic@@ 82
asing 81
care 81
come 81
crati@@ 81
egi@@ 81
ght 81
nership 81
system 81
ó 81
r. 80
Å 80
As 79
aid 79
back 79
common 79
into 79
oring 79
provisions 79
ded 78
ount 78
set@@ 78
sure 78
arge 77
been 77
ners 77
ept@@ 76
study 76
under@@ 76
í 76
also 75
had 75
tit@@ 75
eric@@ 74
scho@@ 74
Fund 73
Sept@@ 73
ensure 73
provision 73
wards 73
Ö@@ 73
о@@ 73
■ 73
over 72
rights 72
shi@@ 72
usin@@ 72
sing 71
works 71
Working 70
fied 70
ization 70
see 70
Qué@@ 69
who 69
ely 68
equi@@ 68
refer@@ 68
avail@@ 67
dated 67
design@@ 67
just 67
Speci@@ 66
ators 66
business 66
To 65
between 65
equ@@ 65
were 65
year 65
Ž@@ 65
Δ@@ 65
We 64
education 64
light 64
staff 64
would 64
Œ@@ 64
≤ 64
Organization 63
cases 63
ected 63
nal 63
reports 63
alog@@ 62
area 62
research 62
women 62
Govern@@ 61
ful@@ 61
item 61
list 61
unities 61
Affairs 60
April 60
pow@@ 60
tob@@ 60
trade 60
Á@@ 60
For 59
President 59
how 59
less 59
based 58
wel@@ 58
Ø 58
› 58
March 57
appl@@ 57
data 57
fav@@ 57
review 57
standing 57
ε@@ 57
а@@ 57
н@@ 57
June 56
ered 56
language 56
materi@@ 56
only 56
over@@ 56
¹ 56
conflic@@ 55
good 55
through 55
¸ 55
country 54
ference 54
free 54
lic 54
now 54
operation 54
saf@@ 54
sed 54
ι@@ 54
― 54
egy 53
first 53
many 53
policy 53
put 53
zation 53
évrier 53
Š@@ 53
♦ 53
ﬀ@@ 53
Treat@@ 52
dru@@ 52
ecutive 52
spe@@ 52
ths 52
human 51
quality 51
reat@@ 51
November 50
ased 50
may 50
project 50
reign 50
stainable 50
½ 50
ž@@ 50
Ё@@ 50
→ 50
July 49
among 49
appe@@ 49
employment 49
ening 49
nec@@ 49
¶ 49
ο@@ 49
τ@@ 49
cust@@ 48
eral 48
regi@@ 48
toch@@ 48
∗ 48
≥ 48
agre@@ 47
ird 47
kno@@ 47
langu@@ 47
world 47
ρ@@ 47
и@@ 47
Special 46
access 46
arian 46
atic 46
current 46
plann@@ 46
they 46
Ö 46
λ@@ 46
р@@ 46
† 46
● 46
after 45
countries 45
ears 45
following 45
general 45
group 45
people 45
professi@@ 45
small 45
spé@@ 45
systems 45
å@@ 45
÷ 45
е@@ 45
Republic 44
ilities 44
like 44
treat@@ 44
Ï@@ 44
Õ 44
с@@ 44
т@@ 44
Director 43
Regulations 43
adv@@ 43
analysis 43
chil@@ 43
determin@@ 43
two 43
where 43
£ 43
ß@@ 43
й@@ 43
September 42
during 42
such 42
what 42
º@@ 42
&apos;@@ 41
control 41
including 41
make 41
market 41
person 41
region 41
response 41
status 41
value 41
wle@@ 41
Á 41
Û@@ 41
ı@@ 41
ν@@ 41
January 40
October 40
community 40
high 40
integr@@ 40
risk 40
should 40
æ 40
π@@ 40
Develop@@ 39
Europe@@ 39
capac@@ 39
even 39
resources 39
term 39
there 39
used 39
versity 39
best 38
differ@@ 38
economic 38
jà 38
self 38
servic@@ 38
tak@@ 38
ved 38
vidu@@ 38
years 38
ł@@ 38
^ 37
eve 37
half 37
metho@@ 37
reas@@ 37
related 37
w.@@ 37
∙ 37
Assemb@@ 36
Fir@@ 36
Minister 36
anding 36
dependent 36
family 36
func@@ 36
govern@@ 36
ized 36
lik@@ 36
must 36
projects 36
strategi@@ 36
these 36
working 36
assessment 35
being 35
ently 35
present 35
ships 35
them@@ 35
¿ 35
December 34
No. 34
above 34
competi@@ 34
defin@@ 34
food 34
led 34
σ@@ 34
buil@@ 33
children 33
making 33
ould 33
them 33
vely 33
when 33
æ@@ 33
Member 32
Ontari@@ 32
level 32
made 32
practi@@ 32
read@@ 32
same 32
stain@@ 32
treatment 32
uring 32
arly 31
ended 31
fact 31
inte@@ 31
porting 31
procedures 31
righ@@ 31
society 31
tings 31
training 31
He 30
ainst 30
beau@@ 30
could 30
depend@@ 30
develop@@ 30
here 30
member 30
most 30
number 30
paragraph 30
pment 30
program 30
provide 30
reco@@ 30
special 30
wide 30
¯ 30
Ü@@ 30
ä 30
а 30
Assembly 29
activities 29
sector 29
using 29
ā@@ 29
Č@@ 29
Ł@@ 29
š 29
к@@ 29
□ 29
aff 28
amework 28
building 28
comple@@ 28
decision 28
enef@@ 28
ked 28
legal 28
legislation 28
ned 28
process 28
represent@@ 28
tech@@ 28
those 28
ween 28
within 28
γ 28
‐ 28
► 28
February 27
child 27
cultural 27
environment 27
experience 27
forms 27
members 27
provided 27
reques@@ 27
security 27
taking 27
tax 27
tered 27
uclear 27
³ 27
ô 27
Agreement 26
Other 26
aged 26
ared 26
comes 26
fully 26
high@@ 26
necess@@ 26
need 26
private 26
proce@@ 26
programs 26
range 26
results 26
specific 26
technology 26
ÿ@@ 26
ş@@ 26
‡ 26
At 25
They 25
against 25
allow@@ 25
consider@@ 25
earch 25
ending 25
gram 25
groups 25
products 25
provides 25
ucle@@ 25
ê 25
γ@@ 25
δ@@ 25
л@@ 25
There 24
different 24
foreign 24
gy 24
ights 24
meetings 24
take 24
taken 24
targ@@ 24
then 24
three 24
whe@@ 24
Í@@ 24
Õ@@ 24
ß 24
ř@@ 24
ς 24
∂ 24
Canadians 23
If 23
accordance 23
activity 23
ately 23
cil 23
framework 23
regional 23
regul@@ 23
sept@@ 23
strategy 23
zed 23
ί@@ 23
в@@ 23
у@@ 23
Parli@@ 22
Secretariat 22
approach 22
because 22
before 22
call@@ 22
cost 22
does 22
evidence 22
fy 22
help 22
monitoring 22
needs 22
safety 22
œ 22
ŕ 22
θ@@ 22
Fren@@ 21
areas 21
crib@@ 21
effect 21
environmental 21
further 21
government 21
last 21
organiz@@ 21
proced@@ 21
required 21
sibility 21
¡ 21
È 21
ö 21
д@@ 21
″ 21
Secretary 20
both 20
citiz@@ 20
energy 20
established 20
financial 20
found 20
meeting 20
period 20
regarding 20
unity 20
vities 20
¼ 20
Ó@@ 20
ė 20
ū@@ 20
β@@ 20
κ@@ 20
й 20
п@@ 20
─ 20
ﬃ@@ 20
Ott@@ 19
account 19
develop 19
developing 19
full 19
goti@@ 19
great@@ 19
increase 19
itted 19
operations 19
orities 19
proposed 19
resul@@ 19
since 19
various 19
¦ 19
À@@ 19
ı 19
σ 19
С@@ 19
beg@@ 18
cooperation 18
days 18
encies 18
htt@@ 18
measures 18
proper@@ 18
subject 18
without 18
¤ 18
¾ 18
ú 18
ă@@ 18
ń@@ 18
ˆ@@ 18
δ 18
м@@ 18
⌫ 18
Parliament 17
ained 17
costs 17
experi@@ 17
funding 17
include 17
income 17
knowledge 17
levels 17
nex 17
next 17
partment 17
received 17
retur@@ 17
Ä 17
Ë@@ 17
ò 17
ę@@ 17
ğ@@ 17
ī@@ 17
έ@@ 17
η@@ 17
Є@@ 17
г@@ 17
е 17
⌦ 17
❒ 17
adopted 16
annual 16
basis 16
benef@@ 16
concerning 16
did 16
establish@@ 16
federal 16
gether 16
going 16
growth 16
interest 16
lors@@ 16
much 16
necessary 16
policies 16
product 16
recommendations 16
request 16
while 16
ý 16
Ÿ 16
➤ 16
With 15
achiev@@ 15
address@@ 15
cover@@ 15
deli@@ 15
employe@@ 15
enting 15
goods 15
incre@@ 15
industry 15
mechanis@@ 15
noted 15
peace 15
property 15
providing 15
though 15
whether 15
µ 15
Ñ@@ 15
Ó 15
ò@@ 15
θ 15
λ 15
π 15
Secret@@ 14
better 14
challeng@@ 14
equipment 14
eted 14
example 14
five 14
governmental 14
held 14
individual 14
niti@@ 14
party 14
persons 14
potential 14
requirements 14
result 14
tly 14
Å@@ 14
Ô 14
å 14
ü 14
Ε@@ 14
ι 14
ν 14
υ@@ 14
φ 14
Ђ 14
з@@ 14
∆ 14
accoun@@ 13
agreement 13
duce 13
environ@@ 13
improv@@ 13
improve 13
particular 13
political 13
previ@@ 13
pursu@@ 13
third 13
ă 13
č 13
́ 13
Π@@ 13
ε 13
ь@@ 13
Servic@@ 12
additional 12
apply 12
considered 12
draft 12
give 12
included 12
nee@@ 12
octob@@ 12
ported 12
rules 12
said 12
streng@@ 12
tiz@@ 12
upon 12
¬ 12
ñ 12
ù@@ 12
ś@@ 12
ʼ@@ 12
б@@ 12
и 12
○ 12
amount 11
beso@@ 11
communities 11
decisions 11
developed 11
domestic 11
implementation 11
ittee 11
means 11
poses 11
practices 11
problems 11
proposal 11
reporting 11
significant 11
still 11
terms 11
¥ 11
ç 11
ā 11
ē@@ 11
η 11
χ@@ 11
ό@@ 11
С 11
в 11
о 11
ы@@ 11
‹ 11
ﬁ 11
These 10
another 10
appropriate 10
become 10
beli@@ 10
clear 10
depart@@ 10
duced 10
having 10
meas@@ 10
meet 10
negoti@@ 10
ously 10
submitted 10
therefore 10
travai@@ 10
ż@@ 10
ž 10
Δ 10
ή@@ 10
ρ 10
ω@@ 10
ύ@@ 10
address 9
chall@@ 9
context 9
least 9
purpose 9
relating 9
several 9
there@@ 9
Ú@@ 9
ì@@ 9
ý@@ 9
ǫ 9
ʹ@@ 9
ά 9
ο 9
φ@@ 9
Р@@ 9
assess@@ 8
cannot 8
consideration 8
deleg@@ 8
ember 8
given 8
level@@ 8
progress 8
responsible 8
together 8
Ë 8
Ì 8
Î 8
Ù 8
Ü 8
î 8
ð 8
ø 8
Ć 8
ş 8
Ţ@@ 8
Ž 8
Ο 8
μ 8
υ 8
я 8
‟ 8
⇒ 8
authorities 7
capacity 7
concerned 7
employees 7
existing 7
grow@@ 7
however 7
increased 7
involved 7
ministr@@ 7
months 7
organization 7
prove 7
recogni@@ 7
recommend@@ 7
resolution 7
sever@@ 7
sustainable 7
technical 7
throu@@ 7
ª 7
Ç 7
Ð@@ 7
ã 7
ð@@ 7
þ 7
ÿ 7
Œ 7
Θ@@ 7
Σ 7
Σ@@ 7
к 7
ї@@ 7
↓ 7
already 6
knowle@@ 6
Þ@@ 6
õ@@ 6
ą@@ 6
ě@@ 6
ľ 6
ń 6
ň@@ 6
Ş@@ 6
ţ@@ 6
ƒ@@ 6
Α@@ 6
Θ 6
Κ@@ 6
Φ 6
ά@@ 6
ж@@ 6
ф@@ 6
ل@@ 6
ٱ 6
█ 6
▼ 6
◆ 6
❏ 6
❑ 6
Agre@@ 5
benefits 5
ived 5
organizations 5
peop@@ 5
remain@@ 5
Ê 5
Ì@@ 5
Ï 5
Ð 5
Û 5
Ý@@ 5
ì 5
ć@@ 5
İ@@ 5
Ő@@ 5
ő@@ 5
ų 5
ƒ 5
Β 5
Γ@@ 5
Λ@@ 5
ή 5
ό 5
Р 5
ц@@ 5
ч@@ 5
щ@@ 5
ю@@ 5
ў@@ 5
ґ@@ 5
ו@@ 5
ب@@ 5
ر@@ 5
ع@@ 5
≠ 5
│ 5
➔ 5
会@@ 5
（ 5
） 5
However 4
Polic@@ 4
agencies 4
commit@@ 4
establis@@ 4
identified 4
particularly 4
promote 4
urity 4
with@@ 4
Æ@@ 4
Ñ 4
Ý 4
õ 4
þ@@ 4
đ@@ 4
Ģ@@ 4
ţ 4
Ο@@ 4
Ψ 4
ύ 4
Њ@@ 4
В 4
Д@@ 4
Н@@ 4
О@@ 4
П@@ 4
ה 4
י@@ 4
ا@@ 4
ة 4
∑ 4
≡ 4
◄ 4
◗ 4
➘ 4
Janu@@ 3
etings 3
fore 3
otal 3
publ@@ 3
responsibility 3
ticle 3
uly 3
Í 3
Ò 3
Ò@@ 3
Ù@@ 3
Ú 3
Ć@@ 3
ċ 3
Đ@@ 3
Ė 3
Ğ@@ 3
ġ@@ 3
ħ@@ 3
ʺ 3
ʺ@@ 3
ˇ 3
˚ 3
̂ 3
; 3
Ρ@@ 3
Χ 3
Ω 3
ί 3
τ 3
Ђ@@ 3
Ѓ@@ 3
І 3
І@@ 3
В@@ 3
Т@@ 3
м 3
х 3
ы 3
ь 3
я@@ 3
ي 3
ڤ 3
ၛ@@ 3
ၝ 3
⁄ 3
∞ 3
≈ 3
⋅ 3
▲ 3
➾ 3
。 3
议@@ 3
ﬀ 3
Apri@@ 2
effic@@ 2
follow@@ 2
mech@@ 2
ready 2
velop 2
Þ 2
Ą@@ 2
Ĉ@@ 2
ċ@@ 2
ĕ@@ 2
ė@@ 2
ę 2
Ě@@ 2
ĝ@@ 2
ī 2
ļ@@ 2
ł 2
Ń@@ 2
ņ@@ 2
ň 2
ō 2
ō@@ 2
Š 2
ť@@ 2
ů 2
˜ 2
Ι@@ 2
Λ 2
Μ@@ 2
Ν@@ 2
Π 2
κ 2
ξ@@ 2
χ 2
ω 2
ώ@@ 2
ϕ 2
Љ@@ 2
Ћ@@ 2
М@@ 2
Ф@@ 2
Ц@@ 2
с 2
у 2
ш@@ 2
ю 2
א@@ 2
ב@@ 2
ג@@ 2
ד@@ 2
ה@@ 2
ט@@ 2
כ@@ 2
ל@@ 2
ם 2
ק@@ 2
ר@@ 2
غ@@ 2
ي@@ 2
Ⴞ@@ 2
№ 2
∼ 2
〉 2
⎯ 2
◊ 2
✓ 2
✔ 2
➚ 2
・ 2
中@@ 2
事@@ 2
会 2
告 2
员@@ 2
和 2
委@@ 2
年 2
年@@ 2
府@@ 2
报@@ 2
政@@ 2
文 2
日@@ 2
理@@ 2
组@@ 2
织@@ 2
見@@ 2
達 2
非@@ 2
&apos;s 1
Æ 1
Ă@@ 1
ą 1
Ċ@@ 1
Č 1
Đ 1
Ė@@ 1
ě 1
ģ@@ 1
ħ 1
į 1
į@@ 1
İ 1
Ĳ@@ 1
ĳ@@ 1
ķ@@ 1
Ľ@@ 1
ľ@@ 1
Ł 1
ő 1
Ř 1
Ř@@ 1
Ś@@ 1
ś 1
ť 1
Ŧ 1
ŭ 1
Ů 1
ű@@ 1
ŷ 1
Ÿ@@ 1
ź 1
ź@@ 1
Ż 1
Ż@@ 1
ż 1
ƙ@@ 1
ǫ@@ 1
ș@@ 1
ț 1
ȣ@@ 1
ɛ@@ 1
ɶ 1
ˇ@@ 1
˛ 1
̀ 1
Β@@ 1
Γ 1
Η@@ 1
Ι 1
Τ 1
Τ@@ 1
Φ@@ 1
Χ@@ 1
Ψ@@ 1
ζ@@ 1
ψ 1
ϊ 1
ώ 1
ϑ 1
ϒ@@ 1
ϕ@@ 1
Ї@@ 1
Ќ 1
Ќ@@ 1
Џ@@ 1
А@@ 1
Б@@ 1
Е 1
Е@@ 1
И 1
К 1
К@@ 1
Н 1
О 1
г 1
д 1
з 1
н 1
р 1
т 1
х@@ 1
э@@ 1
ѕ@@ 1
і@@ 1
ז@@ 1
ך 1
ל 1
מ@@ 1
ף 1
פ@@ 1
ת 1
ת@@ 1
ة@@ 1
٭ 1
พ@@ 1
ศ 1
ဪ 1
Ṣ@@ 1
ộ@@ 1
ỳ@@ 1
※ 1
← 1
↑ 1
↔ 1
↝ 1
∩ 1
▸ 1
☺ 1
♲ 1
✜ 1
❖ 1
➙ 1
➟ 1
➥ 1
➪ 1
〈 1
上 1
下@@ 1
了@@ 1
件 1
余@@ 1
关@@ 1
况@@ 1
列@@ 1
到@@ 1
卓@@ 1
原@@ 1
哈@@ 1
啦 1
喜@@ 1
在 1
大@@ 1
审@@ 1
常@@ 1
录 1
情 1
收@@ 1
文@@ 1
春@@ 1
晏@@ 1
月 1
本@@ 1
次@@ 1
泥@@ 1
献 1
王@@ 1
琉 1
甜@@ 1
皞@@ 1
目 1
相@@ 1
程@@ 1
第 1
简 1
简@@ 1
续@@ 1
茶 1
要@@ 1
见@@ 1
語 1
讨@@ 1
记@@ 1
论@@ 1
贡@@ 1
钧@@ 1
雄@@ 1
项@@ 1
馬 1
글 1
년 1
한@@ 1
， 1
： 1
； 1
ｓ@@ 1
ｰ@@ 1
madeupword0000 0
madeupword0001 0
madeupword0002 0
madeupword0003 0
madeupword0004 0
