, 666577
the 496888
de 464679
. 439530
of 313160
@@@@ 259265
la 253599
and 237871
et 229343
des 204588
to 200633
a 188766
l&apos; 182810
les 179775
le 172396
à 157721
in 151725
d&apos; 124000
@-@ 123810
) 116336
du 116074
en 115764
( 103601
que 89778
on 88695
er 88179
/ 85287
for 75474
ed 73658
that 67642
is 67538
ing 66533
pour 66126
é 64856
dans 63688
re@@ 63391
es 63194
un 62753
ation 61071
au 58646
&quot; 57593
une 56998
t@@ 55463
est 54248
in@@ 54043
S@@ 53090
The 52698
e 52574
sur 52550
aux 51428
s@@ 51045
s 51018
par 48460
as 46779
e@@ 46540
b@@ 46514
; 46133
al 45907
qui 45015
ent 44990
t 44450
by 44182
an 44051
d@@ 44008
C@@ 43913
with 43357
be 43280
: 42330
ant 40711
p@@ 40127
i@@ 39119
g@@ 38459
r@@ 38045
l@@ 37741
or 37539
v@@ 37366
A@@ 37358
P@@ 37130
c@@ 37032
m@@ 36896
f@@ 36722
dé@@ 36681
M@@ 35972
y 35716
és 35414
it 34816
a@@ 34546
h@@ 34483
ée 33560
en@@ 33351
E@@ 33173
ations 33052
are 32967
at 32528
B@@ 32299
o@@ 32254
u@@ 32131
its 31946
é@@ 31929
li@@ 31928
con@@ 31589
D@@ 31391
T@@ 31385
er@@ 31026
i 30634
ré@@ 30600
ce 30074
st@@ 29667
ti@@ 29618
is@@ 29450
il 28998
it@@ 28972
L@@ 28646
ar@@ 28486
ées 28463
se 28368
al@@ 28330
Nations 28327
an@@ 28244
te 27982
w@@ 27624
F@@ 27573
ement 27305
d 27280
ou 27219
ont 27088
di@@ 27068
y@@ 26946
Le 26936
ers 26803
A 26590
R@@ 26450
qu&apos; 26393
ts 26024
ch@@ 25827
o 25819
n@@ 25525
ne 25058
ag@@ 24922
ac@@ 24720
O@@ 24667
on@@ 24511
am@@ 24358
or@@ 24328
k@@ 24061
I@@ 23966
from 22732
tion 22637
ance 22597
de@@ 22457
ence 22341
pas 22276
un@@ 22186
I 21873
sont 21862
at@@ 21860
plus 21848
this 21842
which 21705
.@@ 21690
as@@ 21525
si@@ 21487
G@@ 21278
was 21185
été 21163
age 21033
es@@ 21017
c 20932
aire 20924
ad@@ 20827
ate 20812
N@@ 20771
have 20692
- 20652
par@@ 20605
not 20462
avec 20442
ting 20069
dis@@ 19902
all 19833
H@@ 19745
inter@@ 19711
tr@@ 19633
ab@@ 19614
Commission 19575
&apos;s 19512
able 19395
tions 19390
1 19385
ter 19318
me 19237
2 19103
m 19099
United 19067
el@@ 18837
ic@@ 18836
qu@@ 18503
pl@@ 18287
ité 18243
pays 18003
im@@ 17961
se@@ 17951
3 17930
être 17923
elle 17880
ements 17869
La 17868
will 17843
has 17781
ses 17708
ons 17691
ated 17685
ra@@ 17602
ent@@ 17585
Les 17495
s&apos; 17450
au@@ 17434
ment 17431
ap@@ 17213
international 17208
th@@ 17114
ex@@ 17035
their 16858
ou@@ 16669
el 16661
4@@ 16613
ale 16470
pro@@ 16395
ait 16320
ted 16319
aires 16041
em@@ 16008
3@@ 15937
re 15729
co@@ 15604
us 15519
tes 15440
ci@@ 15425
om@@ 15300
l 15188
ér@@ 15141
ro@@ 15090
ol@@ 15041
n 15014
op@@ 15006
ces 14987
4 14915
5 14884
ly 14723
ants 14702
session 14701
V@@ 14642
com@@ 14620
ri@@ 14614
In 14606
2@@ 14583
è@@ 14450
nous 14438
il@@ 14269
also 14235
Committee 14103
le@@ 14082
développement 14072
6 14003
ite 13966
ents 13957
leur 13887
n&apos; 13867
ques 13714
pré@@ 13652
pr@@ 13641
ur@@ 13634
been 13590
per@@ 13564
our 13480
u 13440
W@@ 13343
one 13335
son 13333
su@@ 13327
us@@ 13323
États 13322
vi@@ 13277
droits 13276
7@@ 13201
S 13186
mo@@ 13166
States 13037
non 13010
Il 12973
ie 12972
U@@ 12935
et@@ 12893
Convention 12811
Ch@@ 12807
General 12801
end@@ 12779
j@@ 12749
9 12607
ère 12577
ter@@ 12486
vis@@ 12483
Conseil 12473
Unies 12425
autres 12396
comp@@ 12366
we 12361
K@@ 12320
ine 12303
7 12270
pre@@ 12266
C 12253
ec@@ 12227
ul@@ 12189
z@@ 12178
ver@@ 12176
other 12138
ales 12122
information 12080
L&apos; 12057
should 12056
6@@ 12034
res@@ 11993
sa 11868
ally 11867
cette 11853
min@@ 11816
Council 11764
th 11716
9@@ 11715
Comité 11704
comm@@ 11666
sh@@ 11611
E 11512
ity 11428
h 11380
ary 11255
In@@ 11198
would 11122
Con@@ 11107
5@@ 11055
pos@@ 11030
0@@ 10974
vo@@ 10974
ar 10958
sion 10915
8 10901
article 10822
lo@@ 10788
had 10735
oc@@ 10727
fi@@ 10720
J@@ 10660
&apos; 10633
rapport 10597
ve 10597
ati@@ 10579
av@@ 10578
national 10574
bi@@ 10566
b 10520
p 10452
ai@@ 10420
fait 10376
8@@ 10372
programme 10328
acc@@ 10312
services 10299
sou@@ 10282
tri@@ 10251
entre 10132
ot@@ 10132
po@@ 10097
k 10085
ain 10074
countries 10065
cl@@ 10064
ue 10062
action 10042
Re@@ 10019
were 9962
leurs 9905
report 9860
sécurité 9832
rec@@ 9811
ences 9802
enti@@ 9767
rer 9723
ure 9703
gi@@ 9690
ise 9689
ass@@ 9649
gr@@ 9638
trans@@ 9601
sp@@ 9599
rights 9533
comme 9451
D 9424
elles 9408
development 9362
vous 9260
dem@@ 9250
for@@ 9246
En 9205
ét@@ 9204
work 9186
such 9185
également 9152
él@@ 9142
f 9108
contre 9094
more 9061
te@@ 9038
tous 9006
ties 8977
ainsi 8964
ous 8943
ir@@ 8940
It 8862
use 8852
ess@@ 8792
hi@@ 8785
els 8763
mon@@ 8760
ty 8731
travail 8725
out 8692
but 8687
you 8686
ak@@ 8663
faire 8637
droit 8625
ante 8604
any 8583
gu@@ 8550
sub@@ 8537
ités 8505
can 8492
10 8483
under 8476
all@@ 8458
he@@ 8398
ill@@ 8382
ad 8374
pu@@ 8339
ans 8306
UN@@ 8292
ens 8288
ils 8282
part 8272
ères 8247
tant 8188
ative 8163
situation 8154
R 8147
ances 8077
résolution 8070
2005 8049
resolution 8042
protection 8018
général 8003
Union 7993
contr@@ 7987
mar@@ 7983
g 7973
tu@@ 7963
question 7956
aient 7939
pres@@ 7895
ph@@ 7887
ari@@ 7847
red 7842
én@@ 7841
tre 7839
als 7827
efforts 7825
1@@ 7818
tout 7814
ob@@ 7812
z 7812
and@@ 7789
ais 7777
r 7731
ks 7725
2004 7722
cre@@ 7657
ven@@ 7657
ge 7642
programmes 7635
P 7616
id@@ 7615
cr@@ 7603
cons@@ 7602
ves 7583
mesures 7578
onn@@ 7558
x@@ 7554
including 7553
mais 7552
off@@ 7532
compl@@ 7524
homme 7520
ing@@ 7504
ating 7480
2006 7414
pe@@ 7413
ables 7390
% 7374
si 7360
res 7353
European 7352
me@@ 7306
support 7286
enfants 7251
fac@@ 7244
ages 7243
2003 7238
x 7237
2000 7206
time 7205
ed@@ 7204
human 7188
social 7187
so@@ 7186
,@@ 7175
rel@@ 7170
parties 7146
lic@@ 7135
femmes 7130
même 7120
no@@ 7113
men@@ 7077
State 7064
sec@@ 7040
2001 7022
ur 6981
direc@@ 6977
membres 6940
tra@@ 6933
2002 6931
peut 6915
Pro@@ 6913
État 6904
ments 6903
place 6894
att@@ 6883
made 6834
bo@@ 6827
ni@@ 6815
ver 6801
M. 6788
um@@ 6788
into 6782
new 6770
por@@ 6762
Al@@ 6759
Assembly 6742
activités 6736
they 6733
ir 6728
générale 6727
ach@@ 6708
sign@@ 6707
application 6687
ème 6672
projet 6665
15 6622
Assemblée 6577
ection 6574
ren@@ 6570
questions 6552
we@@ 6542
no 6529
internationale 6514
public 6508
str@@ 6491
dont 6489
women 6482
appro@@ 6478
aussi 6427
2007 6425
O 6421
constitu@@ 6417
ne@@ 6416
between 6411
per 6408
point 6405
mise 6400
? 6389
This 6379
well 6379
ten@@ 6374
la@@ 6363
ser@@ 6354
ê@@ 6352
12 6348
du@@ 6340
té 6324
Secretary 6322
tés 6319
fication 6309
do@@ 6303
Par@@ 6277
Président 6273
those 6261
We 6246
International 6239
must 6232
to@@ 6204
order 6200
T 6199
val@@ 6189
important 6174
assistance 6170
int@@ 6169
ente 6160
bu@@ 6152
these 6133
Secrétaire 6127
anc@@ 6121
may 6104
ev@@ 6090
2008 6076
aur@@ 6076
against 6075
possible 6062
children 6032
port@@ 6023
vement 6018
cas 6012
go@@ 6010
so 6009
gra@@ 5994
doit 5992
cadre 5990
um 5990
personnes 5981
ay 5966
ia 5966
end 5965
exp@@ 5965
deux 5953
ice 5951
30 5949
he 5933
Nous 5922
who 5922
up 5913
shall 5908
part@@ 5890
law 5888
partie 5886
notamment 5870
ist@@ 5863
teurs 5857
ann@@ 5855
there 5846
inv@@ 5835
Y@@ 5826
man@@ 5796
be@@ 5795
ell@@ 5795
serv@@ 5775
ard 5773
sans 5757
system 5755
fo@@ 5741
ess 5727
sid@@ 5727
institutions 5724
rap@@ 5709
che 5693
ency 5693
cours 5682
bien 5672
ud@@ 5672
only 5667
je 5666
implementation 5663
Government 5662
Th@@ 5661
ain@@ 5658
ture 5655
sous 5649
ues 5623
toutes 5622
concernant 5617
lement 5615
meeting 5615
20 5602
his 5582
jour 5561
country 5558
through 5554
main@@ 5542
sur@@ 5535
President 5533
tionn@@ 5500
coll@@ 5484
ori@@ 5482
Europe 5474
activities 5472
&#91; 5468
Organisation 5468
ters 5458
Programme 5457
under@@ 5451
ected 5438
document 5431
système 5423
our@@ 5421
lu@@ 5405
form@@ 5396
En@@ 5391
fon@@ 5358
compte 5340
ru@@ 5339
very 5337
ble 5327
11 5318
tor@@ 5317
paix 5308
out@@ 5306
Groupe 5298
pour@@ 5287
afin 5269
respect 5262
utilis@@ 5260
ds 5255
ates 5254
199@@ 5253
soit 5234
conditions 5233
sup@@ 5230
plan 5227
am 5224
iss@@ 5217
ats 5208
Dans 5206
loc@@ 5196
take 5189
people 5182
.1 5175
des@@ 5170
Co@@ 5161
alis@@ 5155
measures 5144
politique 5136
ies 5133
rement 5132
économique 5127
éri@@ 5123
ures 5121
mis 5116
matière 5115
ateurs 5113
adop@@ 5089
À 5088
ig@@ 5080
vue 5075
ic 5073
tive 5068
eux 5064
ase 5059
ci 5057
antes 5053
19@@ 5045
ay@@ 5040
cré@@ 5039
particip@@ 5031
if 5022
ther 5017
than 5007
rem@@ 5005
position 5003
An@@ 4997
était 4991
coopération 4980
Mr. 4978
sc@@ 4967
cent 4961
éc@@ 4956
après 4942
about 4938
mi@@ 4929
your 4923
Com@@ 4921
eurs 4917
ms 4915
fin@@ 4908
offici@@ 4901
first 4898
dit 4895
&#93; 4893
continu@@ 4891
cou@@ 4891
wh@@ 4865
cho@@ 4863
need 4859
enne 4858
oun@@ 4858
inform@@ 4852
ô@@ 4852
economic 4849
Je 4848
Ex@@ 4846
tional 4839
ound 4825
stat@@ 4818
cri@@ 4816
nombre 4816
prendre 4803
lis@@ 4801
security 4798
fer@@ 4785
Security 4781
cor@@ 4779
00 4768
qui@@ 4765
right 4762
politiques 4761
formation 4752
note 4742
ely 4739
mettre 4733
ors 4733
iter 4722
organisations 4719
ant@@ 4709
anti@@ 4700
Conference 4695
ings 4695
entes 4692
ites 4686
â@@ 4684
ast 4673
number 4654
ressources 4654
20@@ 4651
ve@@ 4643
car@@ 4639
év@@ 4638
most 4637
voir 4636
sions 4629
fic@@ 4618
É@@ 4614
contribu@@ 4612
ect 4609
lib@@ 4603
draft 4602
two 4602
européenne 4596
paragraphe 4594
paragraph 4593
them 4571
moins 4568
14 4565
st 4565
F 4556
Parties 4550
Qu@@ 4541
.2@@ 4539
ability 4534
ep@@ 4532
some 4526
violence 4513
ez 4510
2009 4506
do 4496
vers 4494
cooperation 4491
ving 4491
conn@@ 4490
jo@@ 4480
On 4467
budget 4464
niveau 4463
come 4453
priv@@ 4453
form 4449
ets 4447
Su@@ 4441
13 4439
discrimination 4437
provide 4437
view 4435
ho@@ 4431
level 4428
cul@@ 4423
identi@@ 4421
particulier 4421
trou@@ 4419
taken 4411
date 4405
entr@@ 4405
uni@@ 4399
personnel 4395
way 4395
over 4387
rou@@ 4387
mission 4386
Group 4377
pass@@ 4375
mes 4372
18 4366
onal 4361
sé@@ 4357
où 4349
years 4349
importance 4343
pri@@ 4342
ord@@ 4339
présent@@ 4337
ire 4335
within 4331
aff@@ 4320
cu@@ 4320
organizations 4319
cont@@ 4316
cet 4315
population 4312
ég@@ 4308
ff@@ 4300
service 4299
comb@@ 4296
ace 4288
many 4286
doivent 4275
ç@@ 4266
being 4261
loi 4254
hum@@ 4242
teur 4241
now 4240
indic@@ 4238
ensure 4236
parti@@ 4231
eur 4222
Office 4221
regional 4221
ris@@ 4221
ate@@ 4217
aut@@ 4213
Republic 4204
Development 4201
process 4199
arm@@ 4192
could 4191
ical 4186
where 4185
avait 4156
participation 4153
autre 4148
fl@@ 4145
Ad@@ 4143
sy@@ 4131
œuvre 4131
fa@@ 4130
ently 4125
Mo@@ 4124
Rights 4112
change 4111
Ar@@ 4109
M 4104
vention 4098
gh@@ 4094
République 4090
ins 4090
î@@ 4087
site 4086
propos@@ 4085
day 4082
Gouvernement 4077
Member 4075
particular 4069
era 4064
ish@@ 4055
ss@@ 4051
ali@@ 4045
ordre 4044
reg@@ 4041
inst@@ 4038
10@@ 4035
issues 4035
king 4035
ther@@ 4021
base 4008
alité 4007
imp@@ 4000
ple@@ 3991
aine 3988
ens@@ 3988
bl@@ 3987
.2 3980
jou@@ 3979
Pour 3977
members 3969
actions 3964
gestion 3960
ais@@ 3959
year 3957
der 3955
esp@@ 3953
déc@@ 3938
make 3936
port 3932
très 3927
ch 3925
informations 3925
centr@@ 3924
examen 3924
suiv@@ 3923
ines 3922
peti@@ 3921
used 3918
toute 3915
1999 3913
lieu 3913
tres 3910
notre 3906
0 3905
santé 3905
legal 3903
proc@@ 3900
ecti@@ 3895
continue 3894
considé@@ 3889
dec@@ 3888
B 3886
when 3882
resources 3878
actu@@ 3877
sel@@ 3872
N 3869
met 3865
Gu@@ 3863
financial 3863
further 3859
tain@@ 3856
suite 3854
pose 3853
justice 3839
relevant 3838
X@@ 3836
like 3834
... 3830
don@@ 3826
ai 3824
avoir 3822
Mon@@ 3821
equ@@ 3819
16 3810
tenu 3804
données 3802
associ@@ 3792
ret@@ 3787
uti@@ 3785
L 3783
17 3764
Conférence 3759
Se@@ 3758
decision 3748
sor@@ 3746
sera 3743
asi@@ 3739
CE@@ 3732
ective 3727
fied 3726
policy 3726
princip@@ 3726
organis@@ 3725
dollars 3721
lui 3720
ext@@ 3705
St@@ 3701
aide 3691
amend@@ 3691
conven@@ 3691
ique 3678
prise 3677
political 3673
encore 3656
dou@@ 3655
ail@@ 3653
ght 3653
peuvent 3653
adopted 3647
processus 3646
répon@@ 3646
during 3644
ality 3643
ited 3639
lin@@ 3638
emb@@ 3636
health 3636
clai@@ 3635
pen@@ 3635
As 3634
demande 3623
$ 3621
ma@@ 3619
ved 3618
vers@@ 3613
clo@@ 3611
décision 3611
Ac@@ 3607
attention 3604
ement@@ 3604
produc@@ 3604
De@@ 3602
ateur 3599
regard 3599
spéci@@ 3595
50 3594
az@@ 3590
provided 3590
app@@ 3583
auth@@ 3583
déf@@ 3580
oper@@ 3578
avant 3576
forme 3562
plac@@ 3561
ow@@ 3558
dat@@ 3556
based 3555
alement 3547
ès 3541
12@@ 3535
fe@@ 3534
aw@@ 3530
travaux 3527
temps 3523
ory 3512
dispositions 3510
br@@ 3509
votre 3509
wor@@ 3505
import@@ 3503
cer@@ 3501
documents 3500
égard 3498
vie 3494
soci@@ 3487
party 3486
Bureau 3475
eu 3472
fin 3472
Ré@@ 3457
ra 3457
! 3452
w 3448
ps 3446
effective 3443
titre 3442
Per@@ 3440
areas 3435
Tra@@ 3433
sive 3431
same 3430
following 3423
compris 3418
coordination 3418
ked 3409
Human 3408
ban@@ 3397
abor@@ 3396
Z@@ 3394
ges 3394
défin@@ 3391
sti@@ 3389
long 3386
ib@@ 3385
occup@@ 3385
held 3383
hol@@ 3375
mor@@ 3371
25 3370
iter@@ 3370
institu@@ 3369
tro@@ 3365
élec@@ 3364
Rec@@ 3360
entre@@ 3353
médi@@ 3342
ying 3341
enc@@ 3332
engag@@ 3327
cir@@ 3321
orig@@ 3319
set 3317
ign@@ 3315
world 3311
inf@@ 3310
Pre@@ 3308
venir 3307
60 3303
conformément 3303
both 3302
not@@ 3301
devrait 3296
pi@@ 3295
mis@@ 3292
domaine 3291
19 3289
ail 3287
G 3284
iv@@ 3284
force 3282
gar@@ 3282
see 3276
duc@@ 3274
ports 3272
education 3268
prim@@ 3268
tur@@ 3264
Pr@@ 3263
succ@@ 3263
low 3262
chang@@ 3257
affaires 3250
public@@ 3248
1.@@ 3247
aci@@ 3246
parten@@ 3240
tation 3232
fav@@ 3230
fois 3230
adoption 3224
II 3222
tement 3222
issue 3219
Fin@@ 3213
sum@@ 3211
ol 3210
experts 3207
ful 3197
case 3194
pa@@ 3194
ner 3192
persons 3190
developing 3188
esti@@ 3182
fr@@ 3182
ux 3182
col@@ 3178
ational 3177
ande 3176
present 3175
ang@@ 3174
cro@@ 3174
tic@@ 3172
related 3169
Direc@@ 3168
mati@@ 3167
accordance 3161
land 3159
prom@@ 3158
vely 3156
transport 3155
intég@@ 3154
my 3153
sed 3148
nos 3142
wn 3141
éch@@ 3139
Un@@ 3136
ding 3136
pris 3136
De 3132
sex@@ 3131
production 3128
medi@@ 3126
tors 3126
,000 3122
Canada 3120
pén@@ 3117
environnement 3114
community 3110
missions 3109
manière 3105
financi@@ 3104
necessary 3104
armes 3101
vision 3098
access 3097
lim@@ 3097
urs 3093
eng@@ 3091
nal 3086
judici@@ 3085
Mr 3081
peace 3077
ément 3077
wel@@ 3075
fonctionn@@ 3073
At 3072
modi@@ 3062
assurer 3060
rôle 3060
after 3059
applic@@ 3057
198@@ 3056
monde 3052
13@@ 3050
December 3050
examin@@ 3049
without 3049
ack@@ 3047
period 3045
over@@ 3039
cap@@ 3035
tical 3035
Special 3029
promotion 3029
tenir 3029
management 3027
ship 3027
speci@@ 3020
décembre 3019
cam@@ 3017
permet@@ 3017
objectifs 3016
21 3014
ual 3014
31 3007
cour@@ 3006
vent 3006
prises 3003
avons 3001
24 3000
urg@@ 3000
charg@@ 2991
concern@@ 2991
ental 2991
adv@@ 2987
local 2987
sol@@ 2986
est@@ 2983
ls 2982
ains 2981
ame 2981
before 2978
tor 2976
lors 2971
pur@@ 2971
accès 2969
préc@@ 2969
certain 2964
curr@@ 2961
For@@ 2957
what 2956
mat@@ 2955
special 2955
atives 2952
ole 2951
Am@@ 2948
police 2945
Un 2944
appui 2941
tric@@ 2937
among 2932
issant 2928
New 2922
C.@@ 2920
eral 2920
role 2920
ef 2919
dur@@ 2918
groupe 2909
commun@@ 2907
derni@@ 2907
donc 2906
administration 2905
available 2904
spécial 2904
concerne 2900
territ@@ 2900
* 2899
art 2897
arly 2896
ffici@@ 2895
&apos;@@ 2894
ects 2893
internationales 2892
act 2891
intro@@ 2890
fier 2880
mesure 2880
Afrique 2879
dra@@ 2877
ong 2875
recommend@@ 2872
agenda 2871
working 2866
pris@@ 2862
soient 2858
effecti@@ 2854
face 2853
os 2851
mal@@ 2850
rit@@ 2850
Ce 2849
Article 2848
World 2848
mu@@ 2845
observ@@ 2845
ONU 2843
éducation 2839
région 2838
communication 2836
ority 2836
Pe@@ 2832
established 2828
abilité 2827
depuis 2825
nationale 2825
ili@@ 2824
visant 2824
Le@@ 2821
tou@@ 2821
isation 2819
data 2818
réalis@@ 2818
Mission 2817
ft 2817
ore 2817
table 2817
uses 2817
For 2815
fourn@@ 2814
autor@@ 2807
nat@@ 2805
mit 2803
Ag@@ 2801
obligations 2797
He@@ 2793
respons@@ 2789
ellement 2782
Wh@@ 2781
ensemble 2781
ge@@ 2780
cli@@ 2777
pai@@ 2777
each 2775
pendant 2772
Au@@ 2767
compét@@ 2766
global 2766
review 2765
séance 2765
med 2764
erg@@ 2759
vote 2759
mob@@ 2758
cial 2754
15@@ 2752
Si@@ 2750
TI@@ 2749
ws 2749
dation 2743
arg@@ 2742
illes 2742
produ@@ 2742
expres@@ 2741
basis 2738
elec@@ 2737
regul@@ 2736
ning 2733
tail@@ 2733
Bo@@ 2732
dic@@ 2731
vic@@ 2730
22 2728
exist@@ 2726
total 2726
area 2725
staff 2724
fund@@ 2722
selon 2720
contrôle 2715
line 2715
Ser@@ 2714
child 2713
outre 2713
af@@ 2712
formul@@ 2709
H 2706
société 2706
cal@@ 2703
quement 2702
rée 2701
réunion 2699
ply 2698
oms 2697
training 2694
certains 2692
essenti@@ 2692
rapports 2691
difficul@@ 2687
because 2686
produits 2686
ef@@ 2685
ss 2685
three 2685
accord 2684
gn@@ 2683
opport@@ 2682
self 2680
23 2678
secteur 2678
fu@@ 2676
rais@@ 2676
own 2675
publi@@ 2673
bles 2672
fre@@ 2672
ran@@ 2672
travail@@ 2672
onc@@ 2670
présent 2668
tradi@@ 2668
entation 2667
ologi@@ 2667
renforcer 2666
contributions 2664
période 2664
Res@@ 2662
instruments 2662
struc@@ 2662
Cette 2661
enn@@ 2661
let@@ 2661
tent 2661
relatives 2659
type 2659
air 2658
leg@@ 2656
provisions 2653
Au 2651
Unis 2651
appropriate 2649
ouver@@ 2647
consultations 2646
rati@@ 2646
ani@@ 2645
peu@@ 2642
c&apos; 2641
mer 2640
ays 2639
ceux 2637
fs 2636
ici@@ 2636
résultats 2636
since 2636
trois 2635
sem@@ 2634
représent@@ 2630
problèmes 2628
ress@@ 2624
und@@ 2624
general 2618
ded 2615
capacity 2610
said 2610
full 2609
repor@@ 2609
high@@ 2607
encourag@@ 2606
Mar@@ 2604
NU@@ 2598
acts 2596
exemple 2595
groupes 2593
og@@ 2593
Russi@@ 2592
duction 2592
discus@@ 2591
dr@@ 2590
alisation 2589
eg@@ 2587
endant 2587
abil@@ 2585
religi@@ 2585
étrang@@ 2584
atif 2582
chaque 2580
future 2580
Asi@@ 2579
Social 2578
dev@@ 2578
Vi@@ 2577
Une 2574
Si 2572
ital 2571
conna@@ 2569
dialogue 2568
mondiale 2567
Ro@@ 2566
63 2565
ON@@ 2563
No@@ 2558
high 2558
impact 2557
limit@@ 2556
Economic 2554
spe@@ 2552
work@@ 2551
projets 2548
Dis@@ 2546
mod@@ 2546
Working 2544
lutte 2544
pe 2544
communi@@ 2541
large 2541
plusieurs 2538
initiatives 2537
accord@@ 2536
building 2536
item 2536
ten 2536
ended 2532
laquelle 2532
second 2532
tique 2532
progress 2525
Organization 2524
statisti@@ 2523
tion@@ 2520
Africa 2519
souha@@ 2518
ide 2514
tim@@ 2512
durable 2511
mater@@ 2511
analy@@ 2508
année 2508
nouveau 2508
agne 2507
resp@@ 2507
National 2503
To 2503
coun@@ 2503
limin@@ 2502
communauté 2501
ial 2501
acti@@ 2500
Cor@@ 2498
iz@@ 2497
cau@@ 2496
cases 2495
étaient 2494
55 2493
her 2493
recommandations 2492
enh@@ 2491
reports 2491
ards 2487
facil@@ 2485
Commun@@ 2484
L.@@ 2475
sal@@ 2474
C&apos; 2473
évaluation 2471
technical 2470
Des 2466
fic 2466
voy@@ 2466
déclar@@ 2465
eff@@ 2462
ut 2460
vol@@ 2460
ration 2459
utilisation 2458
détermin@@ 2457
Me@@ 2456
adi@@ 2456
génér@@ 2454
emp@@ 2453
region 2452
aspects 2451
Elle 2445
arri@@ 2445
saf@@ 2443
ories 2440
dies 2439
ols 2438
nom 2437
requ@@ 2437
specific 2437
Mme 2435
première 2435
groups 2433
pp@@ 2431
achiev@@ 2430
isl@@ 2428
organismes 2427
recommendations 2427
conséqu@@ 2425
million 2424
Mal@@ 2423
person 2422
ples 2421
points 2421
ong@@ 2418
ference 2417
années 2416
qualité 2414
40 2410
hom@@ 2410
18@@ 2408
26 2408
cep@@ 2408
acy 2406
der@@ 2403
log@@ 2402
ître 2402
June 2400
bil@@ 2396
mun@@ 2396
needs 2396
ches 2394
Gen@@ 2392
obj@@ 2392
1998 2391
financ@@ 2391
ety 2390
maj@@ 2388
section 2387
Rapporteur 2385
assi@@ 2384
fully 2383
If 2382
administr@@ 2382
MI@@ 2377
27 2375
extr@@ 2375
pow@@ 2373
There 2372
group 2371
lead@@ 2371
technique 2370
façon 2368
exercice 2367
Centre 2364
ax@@ 2363
Code 2362
organisation 2360
itation 2358
aines 2355
juin 2355
ze 2354
impro@@ 2353
économiques 2352
ening 2347
governmental 2345
met@@ 2345
respon@@ 2345
Nor@@ 2344
means 2344
zed 2344
différ@@ 2343
ule 2339
trade 2337
commit@@ 2335
forces 2335
sen@@ 2335
porte 2334
ple 2329
iti@@ 2328
moyens 2326
état 2324
Parliament 2323
atte@@ 2322
ins@@ 2322
of@@ 2322
rés 2318
prof@@ 2316
Court 2314
conduc@@ 2314
foc@@ 2313
confi@@ 2312
enfant 2312
particularly 2312
pers@@ 2311
uring 2311
faut 2310
therefore 2310
Ces 2308
Parlement 2306
seront 2305
dy 2304
commerce 2303
exc@@ 2299
ilities 2298
lat@@ 2295
gen@@ 2294
initi@@ 2294
migr@@ 2294
tin@@ 2294
effet 2292
ack 2290
opérations 2290
tenant 2288
concerned 2287
exerc@@ 2287
nam@@ 2287
_ 2285
requi@@ 2285
tly 2285
less 2284
reas@@ 2284
améliorer 2283
how 2282
millions 2280
ouv@@ 2280
minis@@ 2278
tron@@ 2278
account 2276
fy 2275
Char@@ 2274
stratégi@@ 2273
while 2272
porter 2271
ank 2270
fonds 2270
impl@@ 2268
acqu@@ 2266
dam@@ 2266
augment@@ 2264
include 2264
destin@@ 2263
hist@@ 2263
prepar@@ 2263
cin@@ 2261
issance 2258
VI@@ 2257
consideration 2256
28 2255
quar@@ 2255
recogni@@ 2255
savoir 2255
civil 2253
jur@@ 2253
v 2253
budg@@ 2250
conflict 2249
olu@@ 2248
financement 2247
nature 2247
mondial 2243
African 2240
ord 2240
heures 2239
annexe 2237
appe@@ 2236
ête 2236
oph@@ 2235
uation 2235
CO@@ 2232
ner@@ 2231
nes 2230
sujet 2230
Isra@@ 2229
industri@@ 2229
trav@@ 2229
représentants 2227
ist 2224
are@@ 2223
ition 2220
However 2219
pourr@@ 2219
Monsieur 2216
popul@@ 2215
déjà 2214
solution 2214
om 2212
relations 2211
side 2211
scho@@ 2209
current 2207
ref@@ 2207
CN@@ 2206
issent 2206
conse@@ 2205
ordin@@ 2205
concl@@ 2204
prior@@ 2203
compli@@ 2202
consult@@ 2202
préoccup@@ 2199
nécessaires 2196
Sy@@ 2195
considered 2194
ennes 2194
progrès 2194
accep@@ 2193
individu@@ 2190
atory 2189
ayant 2189
ce@@ 2189
does 2188
cela 2187
dée 2187
som@@ 2187
sector 2185
defin@@ 2183
vari@@ 2182
58 2180
given 2179
régl@@ 2179
centre 2178
dre 2175
framework 2175
Is@@ 2174
car 2174
istr@@ 2173
pay@@ 2173
bro@@ 2170
ands 2169
14@@ 2167
besoins 2166
whether 2166
ions 2165
tre@@ 2165
Iraq 2162
grande 2162
kno@@ 2162
ler 2162
ré 2162
crimin@@ 2160
premier 2154
func@@ 2152
acte 2151
proposed 2150
entreprises 2149
July 2148
even 2147
refl@@ 2142
nationales 2140
policies 2138
ennent 2137
avaient 2133
fact 2133
ju@@ 2129
inclu@@ 2128
different 2126
félic@@ 2126
esses 2124
serait 2124
diver@@ 2122
famili@@ 2121
nécessaire 2121
har@@ 2120
various 2120
équi@@ 2119
deuxième 2118
key 2118
égalité 2118
ours 2116
meetings 2113
domaines 2112
tention 2112
contribution 2111
dro@@ 2110
.4 2109
nouvelles 2109
increase 2108
jud@@ 2108
ome 2108
main 2107
determin@@ 2106
ature 2102
andes 2101
ment@@ 2100
juillet 2098
protec@@ 2098
appu@@ 2097
good 2097
long@@ 2097
fé@@ 2096
mul@@ 2096
France 2095
term 2094
ste@@ 2093
iser 2092
isse 2089
upon 2089
êts 2089
install@@ 2088
plans 2088
requirements 2088
indi@@ 2087
création 2084
omm@@ 2081
Reg@@ 2079
encoura@@ 2078
ind@@ 2078
61 2077
adap@@ 2077
autorités 2077
région@@ 2077
authorities 2076
construction 2075
estim@@ 2075
TA@@ 2074
Po@@ 2070
asse 2070
ile 2070
mandat 2069
submitted 2069
try 2069
59 2068
articles 2068
ope 2068
ately 2067
tefois 2067
ation@@ 2064
diff@@ 2064
society 2064
vient 2063
17@@ 2062
devraient 2062
pren@@ 2062
sociale 2062
Act 2061
just@@ 2061
pou@@ 2060
29 2059
nu@@ 2059
enqu@@ 2057
V 2056
hui 2056
guid@@ 2055
internationaux 2055
1,@@ 2052
suffis@@ 2051
just 2050
sk@@ 2050
up@@ 2049
September 2048
agricul@@ 2048
istan 2045
march@@ 2043
recommand@@ 2043
member 2041
Q@@ 2039
fique 2039
personne 2039
cal 2038
cent@@ 2038
tives 2038
ose 2037
débat 2036
violations 2036
still 2035
Tur@@ 2033
joint 2033
low@@ 2033
nom@@ 2033
dang@@ 2032
emploi 2031
menti@@ 2030
éd@@ 2029
Board 2026
Law 2025
tées 2024
septembre 2023
mois 2022
pre 2022
active 2021
terme 2021
Membres 2020
texte 2020
bal@@ 2019
milit@@ 2019
négoci@@ 2018
procédure 2018
May 2016
Par 2016
od 2016
prév@@ 2016
57 2015
possib@@ 2015
Tou@@ 2013
posi@@ 2013
control 2011
Pri@@ 2010
seulement 2010
Ne@@ 2009
required 2009
bel@@ 2008
multi@@ 2008
rig@@ 2006
potenti@@ 2005
ars 2004
raison 2003
sein 2003
excep@@ 2001
organiz@@ 2001
arr@@ 2000
serve 2000
November 1998
quality 1998
terroris@@ 1998
market 1997
project 1997
promouvoir 1997
sug@@ 1997
her@@ 1996
Constitution 1995
Ter@@ 1995
pol@@ 1994
Bu@@ 1992
air@@ 1992
suivi 1992
ow 1991
présente 1989
recherche 1989
Lib@@ 1987
employ@@ 1987
num@@ 1985
Minis@@ 1983
itable 1981
plu@@ 1980
tel 1980
dom@@ 1979
help 1979
crime 1974
meil@@ 1974
nuclear 1974
ploy@@ 1974
EU 1972
nor@@ 1971
pauvreté 1971
affir@@ 1970
assur@@ 1970
Jo@@ 1968
délégation 1968
exéc@@ 1968
ests 1967
delegation 1966
cle 1965
formes 1965
problème 1965
benef@@ 1964
ways 1964
ège 1964
Mill@@ 1963
No. 1963
above 1963
val 1962
Action 1961
fications 1961
capacités 1960
pourrait 1958
Sp@@ 1956
normes 1954
ach 1953
const@@ 1953
examiner 1953
novembre 1953
tée 1953
AC@@ 1952
agreement 1952
aï@@ 1952
hau@@ 1952
relative 1951
vul@@ 1951
alim@@ 1948
ree 1948
ulation 1948
marché 1947
ordonn@@ 1944
ods 1941
toujours 1941
facilit@@ 1940
integr@@ 1940
suivre 1940
Dem@@ 1939
mp@@ 1939
strategi@@ 1939
terrorisme 1939
197@@ 1936
October 1936
cle@@ 1936
promote 1935
adopté 1933
quer 1933
Institu@@ 1931
ici 1930
gouvernement 1929
reign 1929
venant 1929
concerning 1928
fais@@ 1928
charge 1927
représentant 1927
developed 1926
56 1925
di 1923
ases 1922
experi@@ 1921
ility 1921
inc@@ 1920
pression 1920
initiative 1919
Plan 1917
ators 1917
Ou@@ 1916
example 1916
humanitarian 1916
address 1915
appropri@@ 1914
ises 1914
life 1913
proposition 1913
set@@ 1913
octobre 1912
bur@@ 1910
del@@ 1910
ends 1909
déb@@ 1908
objet 1908
étant 1908
So@@ 1907
gues 1906
nouveaux 1905
tenue 1905
.3 1904
addition 1904
liber@@ 1901
oris@@ 1901
2010 1900
Som@@ 1900
U 1899
man 1899
dire 1898
fix@@ 1898
stud@@ 1898
Im@@ 1897
respec@@ 1896
gener@@ 1895
Cri@@ 1894
oires 1894
eau 1890
européen 1890
vou@@ 1890
renforcement 1889
prévention 1887
March 1886
due 1886
rir 1886
ession 1885
maintien 1884
conf@@ 1883
subject 1883
bre@@ 1881
rules 1880
inten@@ 1878
ok 1878
Str@@ 1877
ograp@@ 1877
pouv@@ 1877
décisions 1876
j&apos; 1876
shi@@ 1876
ligne 1875
incid@@ 1873
levels 1873
tic 1873
free 1872
poverty 1872
principes 1872
standing 1872
responsabilité 1870
suppor@@ 1870
govern@@ 1869
six 1869
déclaration 1867
gender 1867
• 1867
light 1865
techniques 1865
dated 1863
tiques 1863
montant 1862
systems 1861
though 1861
hand@@ 1860
Service 1858
envis@@ 1858
hu@@ 1857
Tribunal 1856
major 1856
secrétariat 1856
ève 1856
sustainable 1855
third 1854
transpar@@ 1854
remain@@ 1852
ES@@ 1851
métho@@ 1851
field 1849
aider 1848
taux 1848
ennium 1847
Fonds 1844
taking 1844
iques 1842
contin@@ 1841
faveur 1841
irs 1841
care 1839
les@@ 1837
mars 1837
DP 1836
larg@@ 1836
ave 1835
ix 1835
collaboration 1834
ords 1834
memb@@ 1833
obligation 1833
pursu@@ 1833
them@@ 1833
chi@@ 1831
negoti@@ 1831
context 1830
exig@@ 1829
mai 1829
appel@@ 1828
grand 1828
ber@@ 1825
igh@@ 1825
comple@@ 1824
gl@@ 1824
mi 1824
accept@@ 1823
legislation 1823
1997 1822
participants 1821
chap@@ 1820
ni 1820
organes 1819
pertin@@ 1818
tient 1818
ération 1818
cher 1817
family 1817
private 1817
conclu@@ 1816
eur@@ 1816
hé@@ 1816
put 1816
terms 1816
ES 1815
règlement 1814
carri@@ 1812
objectif 1812
Division 1811
amélior@@ 1811
multilat@@ 1811
nouvelle 1811
reconna@@ 1811
systèmes 1811
WP@@ 1810
auprès 1810
développ@@ 1809
liqu@@ 1809
Inter@@ 1808
Administr@@ 1807
Fund 1807
approach 1807
ass 1807
ke@@ 1807
tis@@ 1805
representative 1804
standards 1804
affec@@ 1803
towards 1803
fem@@ 1802
led 1802
char@@ 1801
result 1801
version 1801
ek 1800
statement 1800
Affairs 1799
ariat 1799
six@@ 1799
He 1797
government 1796
concep@@ 1795
actes 1791
correspon@@ 1791
ric@@ 1791
Women 1790
cy@@ 1790
bodies 1788
here 1788
soulign@@ 1787
conférence 1786
tiv@@ 1786
aving 1784
méd@@ 1784
Bel@@ 1783
tif 1783
ade 1781
changes 1780
net@@ 1780
certaines 1779
consoli@@ 1776
gé@@ 1776
moment 1776
resolutions 1775
Commissioner 1774
insp@@ 1773
last 1773
noted 1773
tour@@ 1773
zone 1772
esse 1770
civile 1769
consac@@ 1769
operation 1769
Ap@@ 1768
April 1768
already 1768
permanent 1768
uc@@ 1768
caract@@ 1767
adress@@ 1766
renseignements 1766
torture 1766
explo@@ 1765
proposal 1765
small 1765
ht@@ 1764
tels 1764
All 1763
arrang@@ 1763
afric@@ 1762
sus 1762
volon@@ 1762
vertu 1761
mand@@ 1760
3.@@ 1758
contained 1758
établissement 1758
gouvernements 1757
emplo@@ 1756
ième 1756
jusqu&apos; 1756
viol@@ 1756
Forum 1755
jus@@ 1755
victimes 1755
celui 1754
univers@@ 1754
Sup@@ 1753
gouvernementales 1753
liste 1753
Protocol 1752
centres 1752
rent 1752
views 1752
environment 1751
û@@ 1751
pli@@ 1749
pratiques 1749
appli@@ 1748
culture 1748
representatives 1748
issu@@ 1747
prépar@@ 1747
va 1746
vot@@ 1746
making 1743
physi@@ 1742
IC@@ 1741
int 1741
nécessité 1740
olution 1740
avril 1739
ilité 1737
Doc@@ 1736
appliqu@@ 1736
nombreux 1736
offic@@ 1736
pouvoir 1736
intéress@@ 1735
pul@@ 1735
ily 1734
Déclaration 1732
activ@@ 1732
consider 1732
euses 1732
sul@@ 1732
éléments 1732
celle 1731
Fo@@ 1730
tification 1730
tural 1729
Pl@@ 1728
discussion 1728
disponib@@ 1728
fondament@@ 1728
moyen 1728
Add@@ 1727
tee 1727
water 1727
issions 1726
quels 1726
mer@@ 1725
results 1725
beg@@ 1723
El@@ 1721
effectu@@ 1721
invol@@ 1720
quelles 1719
omati@@ 1718
fif@@ 1717
fiques 1716
Cour 1715
exclu@@ 1715
2.@@ 1714
South 1714
agreed 1714
technologies 1714
envir@@ 1713
problems 1713
No 1712
intérieur 1711
strength@@ 1711
télé@@ 1711
harmon@@ 1710
especially 1709
HC@@ 1707
ering 1706
present@@ 1706
regi@@ 1705
alization 1704
publique 1703
rece@@ 1703
civi@@ 1702
great@@ 1702
réunions 1702
Internet 1701
aujourd&apos; 1700
nationaux 1700
réc@@ 1699
ination 1697
requested 1697
rest 1696
tern@@ 1695
Gr@@ 1694
tribu@@ 1694
habit@@ 1693
Col@@ 1692
Di@@ 1691
soli@@ 1691
York 1690
forms 1689
unity 1689
Sud 1688
demand@@ 1687
fins 1687
ption 1687
sommes 1687
principe 1686
sible 1686
UNICEF 1685
annu@@ 1685
exploitation 1685
sidence 1685
projects 1684
jeunes 1683
terrorism 1683
enter@@ 1682
give 1682
figur@@ 1681
tw@@ 1680
continued 1679
request 1678
Department 1677
donner 1677
deli@@ 1676
minu@@ 1676
ural 1676
additional 1672
responsibility 1672
status 1672
hy@@ 1671
common 1670
course 1670
ness 1669
près 1668
bon 1667
procédures 1667
yer 1667
atifs 1666
ules 1666
victi@@ 1666
zones 1666
Go@@ 1665
concern 1665
reç@@ 1665
annex 1664
cat@@ 1664
did 1664
expl@@ 1664
paragraph@@ 1663
-- 1662
Fed@@ 1662
candi@@ 1660
military 1660
ously 1660
ince 1659
sources 1659
investig@@ 1658
cause 1657
dépenses 1657
intention 1657
législation 1657
occasion 1657
famille 1656
ths 1656
tine 1656
bri@@ 1654
matéri@@ 1654
ear@@ 1653
These 1651
soutien 1650
Mad@@ 1649
High 1648
list 1646
ocratic 1646
text 1646
fournir 1644
maxim@@ 1644
alités 1642
ices 1642
proper@@ 1642
agencies 1641
susp@@ 1641
dispos@@ 1640
16@@ 1639
observations 1638
EC@@ 1637
impos@@ 1637
ild 1636
oll@@ 1636
eval@@ 1635
corpor@@ 1634
em 1634
then 1633
eration 1632
tem@@ 1632
donné 1631
Protocole 1630
endre 1630
sexu@@ 1629
IN@@ 1628
ille 1628
independ@@ 1628
présenté 1626
behalf 1625
four 1625
rapp@@ 1624
Report 1623
Secretariat 1623
effici@@ 1623
lab@@ 1623
sessions 1623
Dé@@ 1622
business 1622
expéri@@ 1622
rest@@ 1622
éco@@ 1621
commission 1620
ion 1620
January 1619
commerci@@ 1619
refer@@ 1619
arab@@ 1618
sident 1618
substanti@@ 1618
tenus 1618
using 1617
employment 1616
ke 1616
ti 1616
territoire 1615
1995 1614
Commiss@@ 1614
Sou@@ 1614
ethni@@ 1614
ii 1614
instrument 1614
mon 1611
portant 1611
Ob@@ 1610
equi@@ 1610
intérêt 1610
particulièrement 1610
celles 1609
ask 1607
aun@@ 1606
tab@@ 1605
much 1604
With 1603
ailleurs 1603
crimes 1603
mil@@ 1603
prés@@ 1602
organization 1601
They 1600
fil@@ 1600
donn@@ 1599
simp@@ 1598
Man@@ 1597
protég@@ 1597
thers 1596
Acc@@ 1595
relating 1595
lier 1594
retur@@ 1594
1996 1592
sanc@@ 1591
Be@@ 1590
confir@@ 1590
establishment 1590
Ira@@ 1589
alia 1589
final 1589
janvier 1589
étude 1589
compos@@ 1588
nation@@ 1588
scienti@@ 1588
différents 1585
juridique 1585
provides 1585
besoin 1584
fau@@ 1584
That 1583
ôt 1583
ambi@@ 1580
Declaration 1579
ator 1579
glob@@ 1579
mari@@ 1579
metho@@ 1577
rées 1577
sch@@ 1577
included 1576
solutions 1575
1er 1574
enting 1574
langu@@ 1574
occ@@ 1574
élev@@ 1574
bonne 1573
urb@@ 1573
comes 1572
iste 1571
prot@@ 1571
Pal@@ 1570
amb@@ 1570
rac@@ 1569
Ab@@ 1568
anci@@ 1568
ouse 1568
exprim@@ 1567
trad@@ 1566
condu@@ 1565
stratégie 1565
avis 1564
however 1564
mandate 1564
best 1563
ationn@@ 1562
armament 1560
Ministère 1559
principles 1559
Fi@@ 1558
rule 1558
Stat@@ 1557
inscri@@ 1557
proch@@ 1556
tice 1556
op 1555
restric@@ 1555
sis 1555
tern 1555
distin@@ 1554
addressed 1553
prend 1553
cid@@ 1552
amment 1551
prix 1551
EN@@ 1550
Ministry 1550
lég@@ 1550
norm@@ 1550
véhic@@ 1550
élaboration 1550
décidé 1549
existing 1548
plann@@ 1548
alors 1547
résolutions 1547
stand@@ 1547
communications 1546
devant 1546
ense 1544
indre 1544
62 1543
permettre 1543
recru@@ 1543
previ@@ 1542
particuli@@ 1541
expos@@ 1540
ye@@ 1540
mieux 1539
energy 1536
enreg@@ 1536
environmental 1536
structures 1536
tain 1536
affirm@@ 1535
administrative 1533
ange 1533
indépend@@ 1533
descri@@ 1532
èrement 1532
Congo 1531
créer 1531
transition 1530
ure@@ 1529
vehic@@ 1529
exécution 1527
humanitaire 1527
cust@@ 1526
opinion 1526
aucune 1525
D&apos; 1524
Ko@@ 1524
mé@@ 1524
procedure 1524
ète 1524
clear 1523
ma 1523
réfugiés 1523
secretariat 1523
alized 1522
design@@ 1522
improve 1522
proce@@ 1522
procedures 1522
situations 1522
assu@@ 1519
DE 1518
ered 1518
lanc@@ 1518
ward 1518
opér@@ 1516
règles 1516
sl@@ 1516
Governments 1515
liberté 1514
problem 1513
45 1512
haut 1512
Palestinian 1511
fonction 1511
genous 1510
anim@@ 1509
every 1509
PNU@@ 1508
recent 1507
illi@@ 1506
peu 1506
Li@@ 1505
allow@@ 1505
rése@@ 1505
provision 1504
alth 1503
ga@@ 1503
moder@@ 1503
beaucoup 1501
tot@@ 1501
Bi@@ 1500
accoun@@ 1500
chargé 1499
enth 1499
Sal@@ 1498
Sub@@ 1498
ort 1498
chamb@@ 1497
Afghanistan 1496
Indi@@ 1496
éra@@ 1496
several 1495
Hotel 1494
professionn@@ 1493
sensib@@ 1493
weapons 1492
ques@@ 1491
ems 1490
investiss@@ 1490
www.un.org 1490
ry 1489
J&apos; 1488
Web 1488
UNI@@ 1487
actuellement 1487
ased 1487
reven@@ 1487
ager 1486
called 1486
indiqu@@ 1486
stoc@@ 1486
tries 1486
palestini@@ 1485
sing 1485
voudrais 1485
fonc@@ 1484
adequ@@ 1483
sais@@ 1483
least 1482
ous@@ 1482
conclusions 1481
ementation 1481
hommes 1481
direct 1480
going 1480
men 1480
Règ@@ 1479
conflits 1479
perman@@ 1479
ress 1478
cannot 1477
decided 1477
forc@@ 1477
invest@@ 1477
monitoring 1477
times 1477
clim@@ 1476
cultural 1476
devons 1476
désarmement 1475
Car@@ 1474
régions 1474
cru@@ 1473
érie@@ 1473
criminal 1472
100 1471
regarding 1471
Ms. 1470
expressed 1470
rage 1470
recomm@@ 1468
AR@@ 1467
atoire 1467
présentant 1467
conflit 1466
exten@@ 1466
supplé@@ 1466
équ@@ 1465
prov@@ 1464
cover@@ 1463
decisions 1463
structure 1463
da 1462
mentaires 1462
isme 1461
spéciale 1461
fer 1460
guaran@@ 1459
page 1458
spécialis@@ 1458
deb@@ 1456
nucléaires 1455
preu@@ 1455
conform@@ 1454
direction 1454
ana 1453
avantage 1453
operations 1453
sû@@ 1453
agre@@ 1452
contact 1452
ese 1452
liv@@ 1452
érieur 1451
AN@@ 1450
entitled 1450
erre 1450
Executive 1449
inter 1449
secon@@ 1449
Rapport 1448
rev@@ 1448
traitement 1448
4.@@ 1447
Département 1447
lorsque 1446
violation 1446
ECE 1445
arbit@@ 1444
quoi 1442
received 1442
today 1442
35 1441
domestic 1441
essi@@ 1441
together 1440
évalu@@ 1440
Pré@@ 1438
lob@@ 1438
bour@@ 1437
ive 1437
ène 1437
issement 1436
odi@@ 1436
ish 1434
niveaux 1434
space 1434
den 1433
ological 1433
super@@ 1433
avanc@@ 1432
citoyens 1432
til 1432
CC@@ 1431
ling 1431
sw@@ 1431
thing 1431
ution 1431
ism 1430
puis 1429
régional 1429
tifs 1429
titu@@ 1429
emph@@ 1428
ned 1428
treatment 1428
engagement 1427
follow 1427
wish 1427
orer 1426
sure 1426
surveill@@ 1425
Cro@@ 1424
III 1424
Note 1420
demandé 1420
Poli@@ 1419
absence 1419
Ass@@ 1418
efficacité 1417
Op@@ 1415
ners 1415
pratique 1413
telles 1413
énergie 1413
étro@@ 1413
visory 1412
cip@@ 1411
option 1410
IS@@ 1409
X 1409
placement 1409
better 1407
correc@@ 1407
q@@ 1407
ruption 1407
parents 1406
increased 1405
mécanismes 1403
providing 1403
strategy 1403
wide 1403
ah@@ 1402
délég@@ 1402
pon 1402
propositions 1402
another 1401
Coun@@ 1400
Trans@@ 1400
agit 1400
culturel@@ 1400
next 1400
pend@@ 1400
enseignement 1399
sci@@ 1399
Bur@@ 1398
great 1397
persp@@ 1397
id 1396
peri@@ 1396
AIDS 1395
pan@@ 1395
infr@@ 1394
manif@@ 1394
duced 1393
accue@@ 1392
hotel 1392
ron@@ 1392
tex@@ 1392
tures 1392
Sum@@ 1390
dernier 1390
effets 1389
économie 1389
éli@@ 1389
quel 1387
veill@@ 1387
acekeeping 1386
quali@@ 1386
aucun 1385
satis@@ 1385
autochtones 1384
ind 1384
mises 1384
subst@@ 1384
principle 1383
funds 1382
ilisation 1381
placed 1381
ventions 1381
zation 1381
efficace 1380
quelques 1380
matter 1379
K 1378
manu@@ 1377
obtenir 1377
raci@@ 1377
room 1377
comprehensive 1376
state 1376
Univers@@ 1375
del 1375
ew 1375
ton 1375
fai@@ 1372
inal 1371
Secrétariat 1370
debate 1370
para 1370
research 1370
oir 1369
zer@@ 1369
jug@@ 1368
régionales 1368
vez 1368
nership 1367
significant 1367
approuv@@ 1366
armed 1366
might 1366
Chairman 1365
Jus@@ 1364
migration 1364
vigueur 1364
accords 1363
eful 1363
five 1363
products 1363
iture 1362
food 1361
Ger@@ 1360
citizens 1360
increas@@ 1360
prog@@ 1360
court 1359
grâce 1358
Amérique 1357
Roy@@ 1357
strengthen 1357
become 1356
ber 1356
gs 1356
risk 1356
telle 1356
union 1356
implement 1355
relatifs 1355
consultatif 1354
depend@@ 1354
fronti@@ 1354
once 1354
ges@@ 1353
targ@@ 1353
far 1352
troisième 1351
vie@@ 1351
établi@@ 1351
February 1350
condition 1350
diction 1350
lang@@ 1350
postes 1350
p.m. 1349
termin@@ 1349
trait@@ 1349
oe@@ 1348
situ@@ 1348
établir 1348
Kosovo 1347
appar@@ 1347
ared 1347
former 1347
get 1347
ina 1346
individual 1344
inqui@@ 1344
nie 1344
efficac@@ 1343
expert 1342
istance 1342
réalisation 1342
remerci@@ 1341
souvent 1341
reli@@ 1340
ill 1339
intitul@@ 1339
Pan@@ 1338
rendre 1337
capacité 1336
démocrati@@ 1336
practices 1335
fig@@ 1334
Representative 1333
cop@@ 1333
enforc@@ 1333
cs 1332
lem@@ 1332
quatre 1332
costs 1331
vos 1331
follow@@ 1330
hôtel 1330
isis 1330
ized 1330
lande 1330
Party 1329
disposition 1329
lam@@ 1329
oned 1329
propri@@ 1329
ensus 1328
février 1327
Minister 1326
alloc@@ 1326
amount 1326
believe 1326
rate 1326
rele@@ 1325
eting 1324
font 1324
proposals 1324
Envir@@ 1323
OM@@ 1322
ign 1322
reat 1322
Agre@@ 1321
response 1321
interest 1320
echn@@ 1319
jours 1319
financières 1318
étudi@@ 1318
ide@@ 1317
indiqué 1317
integration 1317
lig@@ 1317
provisoire 1316
fié 1315
indus@@ 1315
provis@@ 1315
aring 1314
destruc@@ 1314
econom@@ 1314
garantir 1314
refuge@@ 1314
yp@@ 1314
inement 1313
sociaux 1313
technology 1313
54 1312
orities 1312
personn@@ 1312
minimum 1311
possibilité 1310
rég@@ 1310
terr@@ 1310
érie 1310
growth 1309
performance 1309
70 1308
Haut 1308
Section 1308
grap@@ 1305
Ce@@ 1304
appliquer 1304
source 1304
involved 1303
responsible 1303
législ@@ 1302
ya 1302
Ho@@ 1301
aid 1300
etary 1300
ordinaire 1300
August 1299
reser@@ 1299
émati@@ 1299
On@@ 1298
practice 1298
élimination 1298
arch@@ 1297
capit@@ 1297
develop 1297
reste 1297
réduire 1297
assessment 1296
contain@@ 1296
lack 1296
syst@@ 1296
80 1295
PR@@ 1295
Treaty 1295
asse@@ 1295
positive 1295
rural 1295
ël 1295
UE 1294
HIV 1293
attach@@ 1293
bénéfici@@ 1293
intégration 1293
obstac@@ 1293
porteur 1293
salle 1293
consul@@ 1292
open 1292
2,@@ 1291
Comme 1291
&amp; 1290
achieve 1289
catég@@ 1289
conci@@ 1289
précéd@@ 1287
biens 1285
51 1284
commitment 1284
compar@@ 1284
basi@@ 1283
qué 1283
Pub@@ 1282
distribution 1282
hor@@ 1282
dispens@@ 1281
innov@@ 1281
mement 1281
satisfaction 1281
wledge 1281
Israel 1280
démocratique 1280
fra@@ 1280
radi@@ 1280
transfer@@ 1280
vidence 1280
août 1279
ue@@ 1278
dri@@ 1277
manent 1277
Associ@@ 1276
régi@@ 1276
serious 1276
croissance 1275
érieure 1274
juridi@@ 1273
organ@@ 1273
took 1273
traite 1273
edom 1272
existe 1272
ize 1272
infrastructure 1271
ot 1271
ult@@ 1271
90 1270
fam@@ 1270
mechanisms 1270
Em@@ 1269
Mex@@ 1269
effort 1269
mag@@ 1269
arms 1268
establish 1267
extra@@ 1267
lic 1267
recours 1267
analyse 1266
lequel 1266
activité 1265
bia 1265
challenges 1265
neu@@ 1265
pap@@ 1265
relatif 1265
cinq 1264
eted 1264
reques@@ 1264
unities 1264
bed 1263
journ@@ 1263
objectives 1262
committed 1261
tiers 1260
hon@@ 1259
étu@@ 1259
SI@@ 1258
lois 1258
unique 1258
Mais 1256
appel 1256
rend@@ 1255
regular 1254
America 1253
ONU@@ 1253
ak 1253
coordin@@ 1253
anglais 1252
fficking 1252
rench 1252
égi@@ 1252
ette 1251
quel@@ 1251
valeur 1251
contexte 1250
certain@@ 1248
def@@ 1248
docum@@ 1247
véri@@ 1247
lit@@ 1246
oung 1246
Cam@@ 1245
essential 1245
GR@@ 1244
ote 1244
cher@@ 1243
lands 1243
êtes 1243
det@@ 1241
thin@@ 1241
viv@@ 1241
types 1239
elines 1238
5.@@ 1237
Her@@ 1237
000 1236
duce 1236
TRAN@@ 1232
net 1232
Por@@ 1231
priority 1231
rant 1231
poin@@ 1230
33 1229
enf@@ 1229
needed 1229
réduction 1228
aven@@ 1226
ders 1226
ville 1226
gro@@ 1225
garanti@@ 1223
cost 1222
pment 1222
ight 1220
distribu@@ 1216
sites 1216
Arab 1215
commer@@ 1215
nombre@@ 1215
pon@@ 1215
old 1213
suit 1213
Tim@@ 1212
ath 1212
fran@@ 1212
Can@@ 1210
nav@@ 1209
37 1205
ffice 1204
Vous 1203
uvre 1203
équip@@ 1202
Ital@@ 1201
cel@@ 1200
construc@@ 1200
établiss@@ 1199
consider@@ 1198
reau 1198
dom 1197
48 1195
− 1195
ave@@ 1193
ient 1193
Af@@ 1191
China 1191
anit@@ 1190
bun@@ 1189
find 1189
www.@@ 1187
deleg@@ 1184
32 1182
lev@@ 1182
vir@@ 1182
procéd@@ 1181
oblig@@ 1179
Add.1 1177
exam@@ 1175
promo@@ 1175
sep@@ 1173
can@@ 1170
Uni@@ 1164
aint 1163
férence 1163
ï@@ 1162
lif@@ 1161
suff@@ 1161
Prot@@ 1157
rés@@ 1156
Cuba 1155
treat@@ 1155
W 1153
Point 1150
ard@@ 1149
Dec@@ 1148
agement 1145
mê@@ 1141
plo@@ 1140
bie 1139
ource 1136
ka 1135
ouvel@@ 1134
AI@@ 1133
ey 1133
asp@@ 1132
mondi@@ 1129
ffic@@ 1127
program@@ 1125
gan@@ 1122
résul@@ 1121
eth@@ 1118
ER@@ 1117
positions 1110
� 1108
pes 1106
ust 1106
there@@ 1104
go 1100
hel@@ 1100
ador 1099
erc@@ 1099
ology 1099
ven 1098
ul 1096
64 1092
Americ@@ 1089
olog@@ 1087
uments 1085
00@@ 1083
-@@ 1082
ful@@ 1080
fourni@@ 1078
Slo@@ 1077
milli@@ 1077
étab@@ 1077
gy 1076
ildren 1074
ean 1072
cha@@ 1071
Ann@@ 1069
technologi@@ 1063
Austr@@ 1062
pério@@ 1061
Or@@ 1059
mental 1054
gouvernement@@ 1051
lors@@ 1045
ania 1044
peop@@ 1042
xim@@ 1037
œ@@ 1036
ON 1033
europé@@ 1033
clu@@ 1031
represent@@ 1030
êt 1024
lut@@ 1021
TR@@ 1020
qua@@ 1019
Organ@@ 1012
four@@ 1010
oi@@ 1007
consid@@ 1006
bunal 1004
onnement 1002
professi@@ 1002
exemp@@ 1001
fir@@ 1001
intér@@ 999
ization 999
ere 995
ech@@ 987
reco@@ 984
appr@@ 983
mécanis@@ 982
anis@@ 977
pens@@ 977
fron@@ 975
auté 973
bec@@ 972
ors@@ 971
auv@@ 969
ectu@@ 969
enni@@ 963
premi@@ 963
reat@@ 963
° 963
Fr@@ 960
differ@@ 958
tal@@ 957
agrap@@ 953
call@@ 953
resul@@ 952
Memb@@ 951
throu@@ 948
beli@@ 946
exis@@ 946
develop@@ 945
urr@@ 943
emble 941
incip@@ 932
Wor@@ 931
enda 928
jet 928
concer@@ 925
élé@@ 925
establish@@ 924
Ara@@ 919
élimin@@ 915
onne 911
pub@@ 911
transi@@ 908
abs@@ 904
Annex 900
ducation 897
dg@@ 895
ût 892
incl@@ 884
ace@@ 882
ones 880
assess@@ 879
signific@@ 878
tak@@ 877
Mr@@ 875
plé@@ 874
mechanis@@ 871
sit@@ 871
enseign@@ 865
nuclé@@ 865
oire 863
discrimin@@ 861
@ 860
agric@@ 859
IV 858
prob@@ 858
lign@@ 854
We@@ 853
tec@@ 852
act@@ 850
nég@@ 849
ux@@ 847
gén@@ 844
mark@@ 838
devr@@ 837
sib@@ 835
rier 834
ub@@ 834
èg@@ 834
dém@@ 832
tat 826
á@@ 823
with@@ 822
poli@@ 818
read@@ 818
monit@@ 815
the@@ 815
je@@ 811
pal@@ 809
truc@@ 809
Govern@@ 808
stitution 808
sm@@ 806
+ 803
opération 802
exe 801
oi 799
meas@@ 796
avant@@ 793
perform@@ 792
ument 789
Y 788
bénéfic@@ 788
ender 788
= 782
stain@@ 782
í@@ 777
hô@@ 769
tat@@ 769
fun@@ 766
exper@@ 764
ade@@ 762
ision 761
minim@@ 761
moy@@ 759
gouvern@@ 751
bru@@ 748
humanit@@ 746
deci@@ 744
mitted 742
érence 740
Aus@@ 735
Min@@ 730
rédu@@ 730
ty@@ 730
pauv@@ 729
doc@@ 719
&gt; 710
tran@@ 709
fore 706
ough 705
ben@@ 703
conomi@@ 701
&#@@ 697
mit@@ 696
quot@@ 696
vid@@ 695
arb@@ 694
renforc@@ 694
recher@@ 693
stitu@@ 693
rom 682
reté 679
signi@@ 676
condi@@ 674
lée 672
fur@@ 671
sustain@@ 667
.org 666
airs 666
.m. 665
quelle 665
ich 664
ha@@ 663
uv@@ 663
ó@@ 663
dépend@@ 659
addi@@ 656
gie 656
cen@@ 655
jeun@@ 655
aly@@ 653
ild@@ 653
nécess@@ 652
effor@@ 651
atisti@@ 649
conflic@@ 649
dés@@ 648
ject 648
aut 644
Chair@@ 640
train@@ 638
mes@@ 635
nov@@ 633
........@@ 631
wat@@ 629
grow@@ 621
chall@@ 620
half 617
licy 614
Palestini@@ 612
cad@@ 612
eds 609
infra@@ 608
Oc@@ 607
nou@@ 607
jour@@ 605
oring 605
ause 601
oura@@ 601
proj@@ 601
occu@@ 594
grou@@ 589
relev@@ 587
amoun@@ 586
cus@@ 586
thir@@ 586
regar@@ 584
un.org 584
j 581
200@@ 580
address@@ 578
arian 575
seil 575
érique 575
add@@ 566
receiv@@ 564
Tri@@ 562
earch 562
internation@@ 559
règ@@ 558
angl@@ 556
Develop@@ 555
anu@@ 554
tats 553
èmes 553
cies 550
Rap@@ 548
ü@@ 548
ö@@ 544
cit@@ 539
sibility 539
wi@@ 538
&@@ 537
t; 537
wle@@ 526
prati@@ 525
tho@@ 519
dge 517
tien 512
lar@@ 511
hen@@ 509
eld 507
lit 506
La@@ 504
sieurs 503
ources 502
capac@@ 499
hal@@ 499
techn@@ 496
temp@@ 494
alogue 493
atis@@ 489
ussi@@ 483
économi@@ 480
abit@@ 471
û 471
opin@@ 468
provi@@ 467
mework 465
eci@@ 461
grès 460
trol 455
s. 454
suc@@ 453
oth 451
tit@@ 451
® 450
Fon@@ 447
uxième 445
investi@@ 443
Hum@@ 441
auto@@ 440
sever@@ 440
necess@@ 439
laration 438
rét@@ 436
avail@@ 434
ui 434
ith 432
asion 431
communic@@ 429
vé@@ 429
beau@@ 428
© 426
J 424
Commit@@ 422
abo@@ 419
citiz@@ 416
Sec@@ 415
eded 415
uclear 410
érale 410
auc@@ 408
fuge@@ 405
uly 402
finan@@ 399
apons 398
Q 397
ready 397
tings 396
ission 395
usin@@ 395
turel@@ 392
mani@@ 390
Aff@@ 387
partment 387
gh 386
Tran@@ 385
Europ@@ 384
olo@@ 383
usiness 383
essions 382
partement 382
ener@@ 378
ious 377
titul@@ 376
tegr@@ 372
atégi@@ 371
tow@@ 370
incre@@ 369
guar@@ 368
€ 366
citoy@@ 362
coup 358
ength@@ 358
DS 353
vice 352
Fe@@ 350
ada 347
ä@@ 347
san@@ 346
hic@@ 345
isions 341
Speci@@ 337
keeping 336
encies 334
Г 334
ll 331
veau 328
rique 327
As@@ 325
aff 325
ament 323
velopp@@ 323
étr@@ 323
sion@@ 321
fondam@@ 319
vel@@ 314
embre 313
isième 313
Afgh@@ 311
oci@@ 310
doll@@ 309
jourd&apos; 309
péri@@ 309
âce 309
Z 306
auss@@ 306
# 302
ñ@@ 301
cos@@ 299
oy@@ 298
istère 297
politi@@ 297
Represent@@ 296
rements 295
ecutive 293
voudr@@ 289
sidé@@ 288
conom@@ 287
mom@@ 284
aboration 283
seul@@ 283
lits 280
..@@ 279
aug@@ 277
environ@@ 277
q 277
tenti@@ 277
Protoc@@ 275
ticles 274
vities 271
² 269
atin@@ 266
ablis@@ 265
secrét@@ 265
unions 265
éner@@ 265
sécur@@ 262
ivent 261
erci@@ 259
probl@@ 257
build@@ 250
fol@@ 247
utive 245
Cour@@ 244
Cub@@ 241
abliss@@ 240
béné@@ 240
particul@@ 238
righ@@ 238
ć 235
Righ@@ 231
prehensive 231
istry 228
satisfac@@ 224
olutions 221
verty 221
tu 220
whe@@ 218
und 216
ã@@ 213
Program@@ 212
contex@@ 210
ould 209
gueur 207
proced@@ 202
ainst 201
indivi@@ 199
renseign@@ 197
.m@@ 196
ysi@@ 194
± 193
challeng@@ 191
Grou@@ 190
practi@@ 190
á 190
faç@@ 186
servic@@ 186
Parli@@ 185
Ã 180
instr@@ 176
Î@@ 176
gram@@ 174
Treat@@ 173
™ 173
ocrati@@ 172
È@@ 172
clar@@ 170
réfugi@@ 170
domesti@@ 169
É 169
ld 168
eric@@ 164
jan@@ 158
ú@@ 156
vo 153
Gouvern@@ 151
eso@@ 150
objecti@@ 150
secret@@ 148
tiz@@ 147
écanis@@ 147
CEF 146
ôle 144
mig@@ 142
essus 141
ween 140
ext 139
bet@@ 136
echanis@@ 136
Nov@@ 132
tled 129
particu@@ 127
∗ 127
ren 126
tob@@ 126
º 125
ept@@ 124
nec@@ 124
č@@ 123
inté@@ 120
nomb@@ 120
š@@ 119
armement 116
écur@@ 116
Afric@@ 115
idi@@ 115
velop@@ 115
ouvoir 114
о@@ 114
eve 113
í 113
Commission@@ 110
ï 110
autocht@@ 109
décid@@ 109
prehen@@ 108
ao@@ 106
gni@@ 106
obst@@ 101
\ 100
goti@@ 100
{ 99
ó 99
dépen@@ 98
· 98
....@@ 94
vier 94
} 92
org 91
Commis@@ 90
urity 86
è 86
Aug@@ 83
cil 83
ø@@ 82
alog@@ 81
Г@@ 81
Afr@@ 80
ë 80
éné@@ 79
α@@ 78
а@@ 78
illet 77
§ 77
otel 76
Š@@ 76
н@@ 76
μ@@ 75
и@@ 73
islation 72
ministr@@ 72
keep@@ 70
achi@@ 68
améli@@ 67
nouvel@@ 67
е@@ 67
fugi@@ 66
igh 66
ù 66
clé@@ 64
α 62
≤ 62
velop 61
т@@ 60
cht@@ 59
£ 59
Déclar@@ 58
Ê@@ 57
ë@@ 57
р@@ 57
europ@@ 56
с@@ 56
seign@@ 55
Á@@ 53
ril 52
ι@@ 52
в@@ 52
lem 51
ž@@ 51
ww@@ 50
Ç@@ 50
τ@@ 50
Ё@@ 49
√ 49
vern@@ 48
éval@@ 47
techni@@ 46
à@@ 46
â 46
ε@@ 46
Secret@@ 44
diffic@@ 43
veaux 42
ß@@ 42
л@@ 41
level@@ 39
å@@ 39
й@@ 39
Koso@@ 38
≥ 38
ı@@ 37
‑ 37
urop@@ 36
к@@ 36
ember 35
Č@@ 35
С@@ 35
Ã@@ 34
π@@ 34
ponib@@ 33
Â@@ 33
w.@@ 32
¨ 32
¿ 32
š 32
ν@@ 32
σ@@ 32
п@@ 32
omen 31
ā@@ 31
θ@@ 31
а 31
ο@@ 30
С 29
Ö@@ 28
‰ 28
Δ@@ 27
λ@@ 27
ρ@@ 27
м@@ 27
½ 26
κ@@ 26
néc@@ 25
Ü@@ 25
ß 25
ô 25
́ 25
з@@ 25
strate@@ 24
µ@@ 24
е 24
~ 23
č 23
ř@@ 23
д@@ 23
æ@@ 22
ò 22
ş@@ 22
δ@@ 22
й 22
у@@ 22
Assemb@@ 21
Secrét@@ 21
ğ@@ 21
ł@@ 21
ă@@ 20
ι 20
Ђ 20
Â 19
æ 19
ú 19
ь@@ 19
Sept@@ 18
¶ 18
Ô@@ 18
ä 18
ı 18
ί@@ 18
γ@@ 18
Octob@@ 17
sieur 17
ª@@ 17
ö 17
Œ@@ 17
г@@ 17
jà 16
Ä@@ 16
Ž@@ 16
Ο 16
ά 16
έ@@ 16
Є@@ 16
б@@ 16
в 16
ы@@ 16
aveur 15
¢ 15
º@@ 15
ń@@ 15
ś@@ 15
³ 14
Á 14
Í@@ 14
λ 14
υ@@ 14
и 14
ŕ 13
Ε@@ 13
о 13
□ 13
spé@@ 12
¬ 12
đ@@ 12
ή@@ 12
ε 12
ς 12
к 12
lear 11
İ@@ 11
я 11
Afghan@@ 10
Janu@@ 10
tech@@ 10
¹ 10
Å@@ 10
Ó@@ 10
ő@@ 10
β@@ 10
ф@@ 10
ו@@ 10
† 10
→ 10
● 10
Apr@@ 9
Yor@@ 9
^ 9
Ñ@@ 9
å 9
ò@@ 9
ć@@ 9
ė 9
Ł@@ 9
ń 9
Ş@@ 9
ž 9
ο 9
Р@@ 9
ч@@ 9
′ 9
mee@@ 8
sept@@ 8
¦ 8
µ 8
ă 8
ę@@ 8
ż@@ 8
̀ 8
η@@ 8
χ@@ 8
ό@@ 8
ύ@@ 8
Њ@@ 8
Р 8
ה 8
י@@ 8
‡ 8
♦ 8
especi@@ 7
ouvern@@ 7
Ä 7
Ø@@ 7
Û@@ 7
ç 7
ě@@ 7
ň@@ 7
Ő@@ 7
ş 7
β 7
м 7
ц@@ 7
ы 7
― 7
・ 7
effic@@ 6
¡ 6
Ô 6
× 6
Ø 6
ê 6
õ@@ 6
Đ@@ 6
ė@@ 6
ľ 6
Δ 6
ί 6
γ 6
ν 6
ω@@ 6
Ђ@@ 6
Ѓ@@ 6
Д@@ 6
О@@ 6
х 6
щ@@ 6
ю@@ 6
ڤ 6
‐ 6
∆ 6
Å 5
Ï@@ 5
Ö 5
Ú@@ 5
évrier 5
ì 5
ð@@ 5
ā 5
ō@@ 5
ū@@ 5
ə@@ 5
Α@@ 5
Γ@@ 5
Љ@@ 5
В@@ 5
М@@ 5
ж@@ 5
ш@@ 5
ь 5
я@@ 5
ї@@ 5
ў@@ 5
ا@@ 5
的@@ 5
ticle 4
À@@ 4
Ó 4
ñ 4
ą@@ 4
ų 4
ά@@ 4
ή 4
η 4
ξ@@ 4
ό 4
ύ 4
Ћ@@ 4
В 4
Н@@ 4
Т@@ 4
ґ@@ 4
א@@ 4
ב@@ 4
ג@@ 4
ד@@ 4
ה@@ 4
ט@@ 4
כ@@ 4
ל@@ 4
ם 4
ק@@ 4
ר@@ 4
› 4
► 4
中@@ 4
大@@ 4
ﬁ@@ 4
， 4
Febru@@ 3
nex 3
ì@@ 3
õ 3
ý 3
ý@@ 3
ī 3
ī@@ 3
ĺ@@ 3
Ľ@@ 3
ľ@@ 3
ŕ@@ 3
Ž 3
θ 3
П@@ 3
с 3
у 3
ၛ@@ 3
ၝ 3
Ⴞ@@ 3
№ 3
⋅ 3
○ 3
。 3
以@@ 3
文 3
estini@@ 2
octob@@ 2
toge@@ 2
¸ 2
¼ 2
¾ 2
Ù 2
ã 2
ø 2
Ć 2
Ĉ@@ 2
Č 2
ď@@ 2
ē@@ 2
İ 2
ķ@@ 2
ļ@@ 2
ł 2
ņ@@ 2
Ř 2
ś 2
Ţ@@ 2
ţ 2
ţ@@ 2
Ů 2
ů 2
ź 2
ș@@ 2
ț 2
˚ 2
̂ 2
Ι@@ 2
Π@@ 2
Ρ@@ 2
δ 2
μ 2
σ 2
υ 2
ϊ 2
ϊ@@ 2
ώ 2
ϕ@@ 2
Ќ 2
Ќ@@ 2
Џ@@ 2
А@@ 2
Е 2
Е@@ 2
О 2
Ц@@ 2
г 2
з 2
н 2
т 2
х@@ 2
э@@ 2
і@@ 2
ז@@ 2
ך 2
ל 2
מ@@ 2
ף 2
פ@@ 2
ת 2
ת@@ 2
ب 2
د@@ 2
ق@@ 2
ل@@ 2
و@@ 2
٭ 2
ٱ 2
″ 2
※ 2
← 2
↝ 2
∙ 2
─ 2
▲ 2
▸ 2
◦ 2
♲ 2
作@@ 2
到@@ 2
卓@@ 2
原@@ 2
发@@ 2
啦 2
地@@ 2
得@@ 2
日@@ 2
春@@ 2
更@@ 2
本@@ 2
比@@ 2
水@@ 2
泥@@ 2
洲@@ 2
灌@@ 2
王@@ 2
琉 2
甜@@ 2
简 2
而@@ 2
語 2
这@@ 2
钧@@ 2
雄@@ 2
非@@ 2
馬 2
beso@@ 1
paragrap@@ 1
¤ 1
¯ 1
Æ@@ 1
Ç 1
È 1
Ë@@ 1
Ì@@ 1
Í 1
Î 1
Ð@@ 1
Þ@@ 1
ð 1
÷ 1
ù@@ 1
ą 1
ċ 1
ĕ@@ 1
ě 1
ĝ@@ 1
Ń@@ 1
ő 1
œ 1
Š 1
Ŧ 1
ŭ 1
ű@@ 1
ź@@ 1
ż 1
ȃ@@ 1
ȣ@@ 1
ə 1
̵ 1
Α 1
Ι 1
Κ@@ 1
Τ@@ 1
π 1
φ@@ 1
Ї@@ 1
Б@@ 1
И 1
К 1
К@@ 1
Н 1
Ф@@ 1
Х@@ 1
Ю@@ 1
д 1
л 1
р 1
ч 1
ъ 1
ю 1
ѕ@@ 1
، 1
ة@@ 1
ت 1
ح@@ 1
خ@@ 1
ع@@ 1
ف@@ 1
م@@ 1
ن 1
ن@@ 1
ه 1
ي 1
ي@@ 1
چ@@ 1
ی 1
ဪ 1
ၡ@@ 1
ၢ@@ 1
ၱ@@ 1
Ⴐ 1
Ⴑ 1
ậ@@ 1
ộ@@ 1
ỳ@@ 1
⁄ 1
₤ 1
ℓ 1
■ 1
▪ 1
◄ 1
◊ 1
、 1
一@@ 1
世@@ 1
东@@ 1
严@@ 1
临@@ 1
为@@ 1
了@@ 1
于@@ 1
亚@@ 1
产@@ 1
人@@ 1
但@@ 1
余@@ 1
例@@ 1
保@@ 1
农@@ 1
分@@ 1
加@@ 1
区@@ 1
南@@ 1
口@@ 1
只@@ 1
可@@ 1
和@@ 1
哈@@ 1
土@@ 1
增@@ 1
壹 1
壹@@ 1
多@@ 1
够@@ 1
季@@ 1
定@@ 1
将@@ 1
尽@@ 1
川@@ 1
年@@ 1
建@@ 1
开@@ 1
战@@ 1
护@@ 1
拉@@ 1
挑@@ 1
撒@@ 1
收@@ 1
效@@ 1
新@@ 1
是@@ 1
晏@@ 1
晶 1
智@@ 1
有@@ 1
未@@ 1
此 1
每@@ 1
民@@ 1
水 1
洲 1
溉 1
溉@@ 1
源 1
物 1
物@@ 1
献 1
献@@ 1
生@@ 1
界 1
皞@@ 1
着@@ 1
短@@ 1
石@@ 1
确@@ 1
稳@@ 1
管@@ 1
系@@ 1
紧@@ 1
统@@ 1
维@@ 1
缺@@ 1
耕@@ 1
茶 1
茶@@ 1
获@@ 1
蕴@@ 1
藏@@ 1
要@@ 1
言 1
让@@ 1
貢@@ 1
贡@@ 1
资@@ 1
足@@ 1
较@@ 1
迫@@ 1
适@@ 1
造@@ 1
部@@ 1
都@@ 1
重@@ 1
量 1
量@@ 1
长@@ 1
问@@ 1
需@@ 1
面@@ 1
题 1
高@@ 1
ﬁ 1
﴾ 1
﴿ 1
） 1
［ 1
］ 1
ｓ@@ 1
ｰ@@ 1
