the 496906
, 329466
of 312497
and 236194
. 223074
to 199731
in 146781
a 116262
for 75356
on 74876
ed 72919
@-@ 69637
that 67874
ing 65607
( 58582
) 57673
is 55243
The 52700
by 44066
/ 43698
with 43365
re@@ 43040
as 42909
be 42327
an 37753
e@@ 36663
or 36172
al 35055
s 33541
es 33365
are 32051
ation 30594
S@@ 30441
in@@ 28301
t@@ 28246
at 27923
its 27807
&quot; 26789
t 26028
it 26024
s@@ 25927
w@@ 25461
C@@ 24863
b@@ 24381
f@@ 24107
y 23823
; 23657
er 23264
d@@ 22924
g@@ 22818
from 22751
h@@ 22553
st@@ 22242
this 21888
which 21689
was 21189
i@@ 20963
: 20788
have 20727
not 20507
E@@ 20195
en@@ 20170
ting 19869
A@@ 19856
M@@ 19798
c@@ 19779
&apos;s 19620
all 19597
r@@ 19524
ate 19512
p@@ 19199
United 19007
P@@ 18837
B@@ 18596
D@@ 18455
o@@ 18455
T@@ 18117
li@@ 18059
er@@ 18051
ar@@ 17939
will 17934
F@@ 17875
ts 17836
has 17808
ated 17676
ers 17639
I 17487
al@@ 17286
de@@ 17114
d 16988
their 16916
e 16717
O@@ 16587
k@@ 16538
y@@ 16394
ted 16314
ent 16295
un@@ 16172
m@@ 16084
L@@ 15839
l@@ 15741
Nations 15531
o 15488
A 15347
u@@ 15104
ations 14947
In 14699
m 14657
on@@ 14620
ly 14577
R@@ 14348
also 14335
as@@ 14228
a@@ 14225
Committee 14094
c 14005
el@@ 13963
I@@ 13678
been 13615
ac@@ 13579
ad@@ 13314
G@@ 13305
an@@ 13135
States 13067
H@@ 12981
th@@ 12849
General 12801
v@@ 12676
.@@ 12612
dis@@ 12366
able 12338
other 12185
we 12159
should 12128
ance 12065
pre@@ 11979
it@@ 11889
se@@ 11848
ally 11844
tion 11791
Council 11789
n@@ 11784
one 11766
international 11745
our 11727
th 11469
es@@ 11401
or@@ 11328
le 11277
N@@ 11252
ity 11180
is@@ 11179
am@@ 11153
would 11153
- 11146
ary 11050
sh@@ 10965
con@@ 10904
at@@ 10811
had 10739
1 10724
em@@ 10682
si@@ 10551
ment 10540
ag@@ 10505
n 10410
ence 10350
ic@@ 10246
age 10224
W@@ 10214
countries 10153
di@@ 10094
were 9999
report 9832
ti@@ 9788
i 9785
rights 9634
ab@@ 9588
2 9491
development 9434
ter 9365
ex@@ 9312
tions 9291
such 9227
pl@@ 9209
work 9167
op@@ 9152
3 9149
more 9074
It 8910
ol@@ 8861
ar 8823
Commission 8818
ch@@ 8770
you 8644
tr@@ 8580
any 8560
ur@@ 8549
ty 8530
under 8519
inter@@ 8508
can 8446
le@@ 8434
ap@@ 8347
U@@ 8333
information 8311
im@@ 8261
4@@ 8220
us 8209
ties 8177
k 8133
en 8118
resolution 8084
om@@ 7985
ra@@ 7965
te 7954
3@@ 7940
In@@ 7826
red 7805
lo@@ 7779
als 7680
Ch@@ 7622
h 7621
et 7617
including 7593
ad 7541
S 7538
z@@ 7516
5 7498
ating 7491
ul@@ 7489
ro@@ 7454
2@@ 7389
K@@ 7381
UN@@ 7378
ec@@ 7362
national 7360
4 7346
European 7325
human 7277
session 7276
de 7210
support 7191
Re@@ 7188
6 7178
ks 7171
p 7151
pro@@ 7144
out 7124
per@@ 7088
State 7048
ant 6963
ver@@ 6849
made 6842
ak@@ 6806
co@@ 6797
into 6795
new 6770
ri@@ 6769
l 6767
Assembly 6755
et@@ 6746
gi@@ 6740
they 6728
comp@@ 6717
but 6715
su@@ 6708
ed@@ 6699
ter@@ 6682
C 6651
res@@ 6648
ous 6613
cre@@ 6579
V@@ 6578
7@@ 6560
women 6553
use 6540
com@@ 6527
mo@@ 6514
te@@ 6501
ve 6458
between 6435
Convention 6412
This 6397
b 6386
Secretary 6325
well 6324
9 6320
ments 6320
We 6318
ative 6289
ent@@ 6289
those 6280
ents 6278
must 6274
Con@@ 6267
time 6188
me@@ 6177
7 6162
these 6156
ci@@ 6146
ements 6142
may 6113
il@@ 6104
bi@@ 6100
against 6095
children 6079
6@@ 6053
sub@@ 6037
par@@ 6022
ement 6021
est 6003
9@@ 5941
sp@@ 5928
who 5914
order 5901
0@@ 5891
shall 5880
there 5867
law 5854
up 5847
ain 5808
so 5806
per 5793
system 5772
rec@@ 5750
implementation 5720
he@@ 5707
qu@@ 5697
Government 5691
pos@@ 5691
only 5676
ess 5675
end@@ 5655
meeting 5641
ency 5632
J@@ 5621
International 5611
us@@ 5601
oc@@ 5593
country 5592
through 5587
his 5581
President 5564
5@@ 5562
hi@@ 5541
activities 5511
ia 5495
ati@@ 5477
we@@ 5471
ected 5470
8 5468
min@@ 5441
under@@ 5435
ay 5405
&apos; 5381
av@@ 5367
ters 5362
for@@ 5351
ing@@ 5312
el 5291
j@@ 5285
ai@@ 5283
very 5278
vi@@ 5272
8@@ 5243
take 5214
se 5207
measures 5205
people 5199
vis@@ 5192
gr@@ 5162
les 5138
me 5138
no 5095
ir@@ 5049
than 4980
ther 4979
Mr. 4976
ne@@ 4963
about 4952
po@@ 4929
dem@@ 4925
g 4924
end 4913
your 4903
economic 4889
pe@@ 4887
first 4886
need 4886
if 4878
ot@@ 4872
bo@@ 4870
be@@ 4848
tional 4843
security 4839
wh@@ 4836
ev@@ 4832
ou@@ 4831
ic 4828
ass@@ 4822
Security 4814
Th@@ 4802
E 4798
ound 4768
tri@@ 4757
str@@ 4740
ely 4732
right 4728
programme 4719
ms 4705
D 4697
ds 4681
Conference 4679
number 4674
fac@@ 4672
ection 4669
ates 4649
most 4648
pr@@ 4648
go@@ 4645
draft 4641
two 4621
paragraph 4619
R 4613
ari@@ 4597
oun@@ 4591
ings 4588
x 4585
them 4579
Pro@@ 4574
ess@@ 4564
sion 4556
ability 4546
social 4544
enti@@ 4543
cooperation 4532
some 4524
fi@@ 4516
ast 4515
ving 4500
provide 4487
pres@@ 4480
come 4454
level 4451
id@@ 4448
taken 4433
form 4427
sec@@ 4427
public 4402
non 4389
um 4388
trans@@ 4386
view 4373
over 4371
ise 4367
out@@ 4367
years 4362
fo@@ 4354
within 4347
Group 4346
ob@@ 4343
organizations 4337
am 4326
way 4325
anc@@ 4323
article 4316
ine 4310
Y@@ 4309
many 4302
cent 4295
O 4288
being 4274
regional 4258
now 4248
efforts 4239
ud@@ 4235
do 4234
onal 4231
to@@ 4230
ensure 4227
process 4219
10 4203
P 4203
could 4202
Republic 4190
where 4179
services 4174
ect 4160
ase 4159
he 4148
ently 4137
ill@@ 4124
mon@@ 4108
off@@ 4108
Member 4101
no@@ 4101
Development 4090
particular 4081
2005 4079
ves 4068
1@@ 4059
and@@ 4048
day 4015
important 4006
Rights 3979
action 3970
members 3967
year 3965
comm@@ 3960
make 3952
ish@@ 3945
resources 3936
part 3933
used 3932
issues 3921
legal 3915
do@@ 3905
ge 3903
financial 3891
further 3890
um@@ 3889
2004 3888
ure 3886
when 3885
dec@@ 3858
king 3832
ard 3831
ical 3830
like 3824
des 3820
exp@@ 3820
equ@@ 3812
Co@@ 3807
la@@ 3799
Union 3786
au@@ 3786
decision 3779
ach@@ 3773
ther@@ 3770
policy 3766
Al@@ 3754
sel@@ 3752
ver 3750
2006 3747
ven@@ 3741
fied 3737
assistance 3731
rel@@ 3728
adopted 3707
health 3701
ons 3696
political 3696
compl@@ 3685
ences 3683
st 3681
ses 3661
during 3658
tu@@ 3643
2000 3638
re 3637
tive 3636
2003 3635
ite 3633
As 3632
ght 3629
ans 3626
ved 3622
ality 3617
provided 3616
ited 3615
ho@@ 3602
mar@@ 3599
based 3582
ies 3569
ph@@ 3565
ann@@ 3563
oper@@ 3557
val@@ 3553
2001 3536
lic@@ 3502
all@@ 3500
ice 3499
party 3493
situation 3486
ue 3471
2002 3470
areas 3469
ory 3468
following 3457
wor@@ 3457
f 3456
ch 3449
gh@@ 3437
same 3433
appro@@ 3426
ell@@ 3426
acc@@ 3407
auth@@ 3405
ked 3403
held 3394
ep@@ 3390
part@@ 3382
protection 3380
possible 3378
ru@@ 3358
ay@@ 3351
Office 3350
por@@ 3348
place 3347
relevant 3345
regard 3340
An@@ 3334
programmes 3333
both 3327
$ 3321
cl@@ 3319
education 3317
Human 3313
set 3305
ying 3304
respect 3302
world 3295
gu@@ 3287
ages 3285
see 3278
ow@@ 3270
du@@ 3262
T 3258
fin@@ 3251
? 3248
clo@@ 3245
2007 3238
low 3230
Ex@@ 3224
w 3223
Ad@@ 3220
ord@@ 3216
developing 3213
Se@@ 3204
related 3200
persons 3199
pu@@ 3192
des@@ 3191
ors 3186
present 3186
hol@@ 3175
12 3174
accordance 3166
so@@ 3164
vely 3162
sed 3161
case 3159
ful 3151
fe@@ 3140
community 3137
ational 3130
lis@@ 3127
ants 3124
tors 3124
access 3118
necessary 3115
my 3112
reg@@ 3104
Par@@ 3088
ding 3087
peace 3087
man@@ 3086
medi@@ 3077
At 3075
without 3070
Mr 3066
period 3065
wel@@ 3065
cons@@ 3064
aw@@ 3057
wn 3055
after 3050
2008 3048
December 3046
int@@ 3045
over@@ 3039
management 3032
Special 3027
tor@@ 3026
15 3017
parties 3012
adv@@ 2991
speci@@ 2991
effective 2990
ual 2987
tain@@ 2983
before 2981
special 2981
30 2977
continue 2967
tical 2965
what 2960
contr@@ 2952
agenda 2946
F 2943
land 2942
among 2941
main@@ 2941
ship 2939
ant@@ 2934
la 2927
role 2927
ten@@ 2919
available 2917
En@@ 2912
ective 2906
lin@@ 2903
St@@ 2899
bu@@ 2898
arly 2895
tor 2895
jo@@ 2893
eral 2890
change 2886
cr@@ 2886
recommend@@ 2886
Com@@ 2880
indic@@ 2880
port 2879
working 2872
ack@@ 2871
gra@@ 2864
&apos;@@ 2853
ni@@ 2850
data 2846
pur@@ 2839
Per@@ 2836
established 2836
For 2831
ority 2823
20 2814
inv@@ 2811
ances 2779
Programme 2777
mit 2772
review 2766
Wh@@ 2757
att@@ 2754
each 2753
child 2748
basis 2747
produc@@ 2740
regul@@ 2738
fund@@ 2736
area 2732
ate@@ 2730
training 2723
ol 2718
ects 2712
act 2711
elec@@ 2709
199@@ 2706
ply 2706
World 2700
staff 2700
Europe 2699
Su@@ 2694
ning 2694
identi@@ 2690
three 2682
because 2672
appropriate 2671
self 2668
provisions 2651
capacity 2650
own 2646
Rec@@ 2645
since 2639
aff@@ 2637
med 2637
sign@@ 2636
general 2631
nal 2628
said 2626
full 2621
dra@@ 2620
ss 2617
11 2615
leg@@ 2615
high@@ 2611
institutions 2608
&#91; 2605
der 2605
x@@ 2603
ens@@ 2601
line 2599
asi@@ 2596
Mo@@ 2592
ail@@ 2589
issue 2589
ded 2588
ft 2587
ain@@ 2582
ce 2578
.1 2573
Ar@@ 2573
mat@@ 2569
high 2567
19@@ 2564
Working 2562
building 2562
work@@ 2557
form@@ 2553
progress 2551
duc@@ 2549
ended 2549
Social 2547
spe@@ 2545
sc@@ 2541
sup@@ 2541
Economic 2538
item 2536
sur@@ 2523
Africa 2516
To 2514
vention 2514
tic@@ 2510
sum@@ 2507
,@@ 2504
reports 2504
sive 2501
Organization 2494
technical 2494
He@@ 2491
cases 2491
coun@@ 2486
fer@@ 2479
ten 2477
specific 2471
groups 2470
Pe@@ 2469
repor@@ 2464
br@@ 2460
document 2453
recommendations 2453
region 2453
Parties 2451
ext@@ 2450
achiev@@ 2442
fication 2442
saf@@ 2441
ial 2435
tion@@ 2433
Fin@@ 2427
person 2426
ture 2424
ble 2417
ong 2417
ser@@ 2411
ws 2409
needs 2407
ference 2406
00 2401
June 2392
acy 2392
There 2390
fully 2389
ig@@ 2387
If 2386
20@@ 2380
National 2380
On 2375
ali@@ 2374
pow@@ 2372
Mon@@ 2371
ols 2369
future 2368
group 2366
Res@@ 2363
ening 2358
means 2356
governmental 2353
respon@@ 2352
zed 2352
oms 2350
local 2347
trade 2337
budget 2336
entr@@ 2336
iter@@ 2336
particularly 2334
position 2334
impro@@ 2333
sid@@ 2332
Parliament 2330
ety 2329
her 2323
therefore 2323
date 2322
&#93; 2314
ps 2314
eg@@ 2310
uring 2308
violence 2305
car@@ 2304
concerned 2303
Gu@@ 2301
commit@@ 2300
include 2299
enh@@ 2298
account 2296
ilities 2295
direc@@ 2293
tly 2288
N 2287
conditions 2287
global 2284
second 2284
fy 2282
ale 2281
.2@@ 2278
less 2278
reas@@ 2276
how 2275
inform@@ 2273
lu@@ 2273
consideration 2272
force 2272
while 2271
comb@@ 2270
conflict 2268
foc@@ 2266
recogni@@ 2264
2009 2261
prepar@@ 2260
stat@@ 2260
Court 2258
rit@@ 2256
However 2252
opport@@ 2249
of@@ 2242
our@@ 2227
acts 2225
ank 2223
appe@@ 2223
loc@@ 2217
scho@@ 2215
African 2214
million 2214
fre@@ 2207
mission 2204
does 2203
dy 2201
ets 2199
Pre@@ 2198
current 2197
sector 2197
Dis@@ 2196
considered 2196
cont@@ 2195
given 2193
fic@@ 2192
framework 2192
lead@@ 2192
defin@@ 2191
14 2189
rem@@ 2188
atory 2186
air 2185
lim@@ 2185
ist 2183
Me@@ 2180
eff@@ 2179
proposed 2172
requi@@ 2172
whether 2169
policies 2167
ack 2162
kno@@ 2162
importance 2159
ges 2149
10@@ 2146
contribu@@ 2144
July 2143
coll@@ 2143
ures 2141
func@@ 2140
note 2138
discus@@ 2137
various 2136
offici@@ 2134
even 2133
fact 2130
different 2129
requirements 2129
ban@@ 2128
amend@@ 2127
increase 2126
ist@@ 2126
meetings 2121
L 2112
determin@@ 2109
question 2109
mis@@ 2108
clai@@ 2106
Le@@ 2103
key 2100
term 2096
ame 2094
authorities 2093
upon 2093
conduc@@ 2092
proc@@ 2090
pri@@ 2082
M 2080
good 2078
impl@@ 2077
submitted 2075
society 2074
service 2071
cri@@ 2067
duction 2064
particip@@ 2064
Ag@@ 2063
ately 2062
ail 2056
Board 2053
ori@@ 2053
September 2050
sions 2049
lat@@ 2048
Article 2046
ental 2046
member 2044
still 2043
om 2039
just 2033
ope 2033
side 2029
required 2028
try 2028
eng@@ 2026
Ro@@ 2025
cap@@ 2024
For@@ 2023
mater@@ 2019
cial 2016
control 2016
art 2011
low@@ 2011
ital 2010
New 2006
market 2003
protec@@ 2003
project 2002
quality 2000
.2 1999
organiz@@ 1999
May 1998
point 1997
B 1996
site 1994
help 1992
18 1990
0 1988
ays 1986
long 1985
Act 1984
ace 1984
November 1981
ze 1980
tes 1978
above 1976
delegation 1975
ore 1975
1999 1974
nuclear 1974
benef@@ 1973
Un@@ 1969
No. 1967
plan 1966
agreement 1964
az@@ 1962
promote 1962
1.@@ 1961
Pr@@ 1960
ow 1959
integr@@ 1953
vement 1953
intro@@ 1951
EU 1950
strategi@@ 1950
succ@@ 1949
limin@@ 1948
Tra@@ 1943
address 1942
bro@@ 1941
developed 1940
ve@@ 1937
concerning 1936
ner 1934
vo@@ 1934
ways 1933
October 1931
ators 1929
experi@@ 1928
humanitarian 1928
guid@@ 1926
Reg@@ 1925
life 1919
example 1918
ur 1918
reign 1915
ility 1912
curr@@ 1907
continu@@ 1906
gender 1902
addition 1901
ree 1900
subject 1899
actions 1897
13 1896
set@@ 1893
cal 1892
participation 1891
ste@@ 1888
stud@@ 1888
iv@@ 1887
poverty 1886
rules 1886
tra@@ 1886
ach 1884
tur@@ 1883
discrimination 1882
levels 1881
March 1877
pai@@ 1877
sen@@ 1877
els 1875
ffici@@ 1875
systems 1875
gener@@ 1874
Law 1873
govern@@ 1873
% 1871
sustainable 1870
free 1868
ennium 1867
suppor@@ 1867
od 1865
light 1863
care 1861
dated 1861
ests 1861
remain@@ 1860
shi@@ 1859
16 1855
ines 1853
though 1853
third 1851
12@@ 1850
standing 1850
negoti@@ 1847
Z@@ 1842
her@@ 1842
context 1841
legislation 1841
taking 1841
ose 1839
field 1838
attention 1837
ner@@ 1837
Cri@@ 1835
major 1833
pursu@@ 1832
them@@ 1830
17 1827
family 1825
terms 1825
tic 1825
alis@@ 1822
ods 1821
approach 1819
private 1818
government 1817
... 1816
bel@@ 1815
table 1815
serv@@ 1814
towards 1813
cho@@ 1812
cu@@ 1810
representative 1810
comple@@ 1809
statement 1809
He 1808
civil 1806
put 1806
result 1803
led 1801
bodies 1799
Fund 1796
noted 1796
ories 1796
dic@@ 1795
tim@@ 1795
population 1793
,000 1792
Affairs 1792
Commissioner 1791
here 1791
val 1789
Is@@ 1788
resolutions 1788
Ser@@ 1786
50 1783
igh@@ 1783
already 1781
cul@@ 1777
aving 1775
pris@@ 1774
proposal 1774
pa@@ 1772
last 1769
constitu@@ 1767
operation 1764
contained 1762
representatives 1762
standards 1761
April 1757
pen@@ 1754
Protocol 1753
Women 1753
af@@ 1753
small 1751
All 1750
environment 1750
making 1749
results 1746
isl@@ 1745
ef 1743
consider 1740
agreed 1733
problems 1733
ili@@ 1729
water 1729
II 1726
fl@@ 1725
strength@@ 1725
tee 1725
air@@ 1720
especially 1720
rou@@ 1720
Action 1718
beg@@ 1718
fif@@ 1717
ass 1716
continued 1713
great@@ 1713
requested 1712
! 1711
esses 1711
Bo@@ 1709
ma@@ 1709
col@@ 1708
obj@@ 1708
present@@ 1706
tural 1706
ords 1703
regi@@ 1700
alization 1699
ars 1698
terrorism 1698
additional 1697
ily 1696
South 1695
Nor@@ 1693
forms 1693
territ@@ 1692
dies 1691
projects 1690
unity 1690
ce@@ 1685
responsibility 1684
cir@@ 1683
ong@@ 1683
pose 1683
concern 1682
request 1682
Sp@@ 1681
give 1680
iz@@ 1680
X@@ 1679
impact 1679
ering 1676
status 1675
applic@@ 1674
Ac@@ 1673
Direc@@ 1670
invol@@ 1670
annex 1669
expres@@ 1669
offic@@ 1669
Bu@@ 1668
These 1668
military 1668
deli@@ 1667
erg@@ 1667
mi@@ 1667
common 1663
ously 1662
uation 1662
Secretariat 1661
did 1661
victi@@ 1657
imp@@ 1656
ef@@ 1655
Ne@@ 1654
agencies 1654
Department 1649
der@@ 1649
ths 1648
ports 1647
arm@@ 1645
ocratic 1645
25 1644
ards 1643
views 1643
text 1642
il 1640
refl@@ 1636
und@@ 1636
19 1635
employment 1633
rest 1633
list 1632
proper@@ 1632
conn@@ 1629
pers@@ 1629
High 1628
sy@@ 1628
then 1628
up@@ 1628
peti@@ 1627
ural 1627
prom@@ 1626
behalf 1625
ness 1625
Im@@ 1624
pp@@ 1624
They 1623
bal@@ 1623
jud@@ 1623
using 1623
Canada 1621
sti@@ 1620
ek 1619
independ@@ 1619
That 1618
tw@@ 1618
og@@ 1617
institu@@ 1616
ok 1614
January 1612
refer@@ 1612
eval@@ 1611
much 1611
organization 1610
eration 1609
ke@@ 1609
Fo@@ 1608
With 1608
De@@ 1607
ild 1606
ement@@ 1605
analy@@ 1604
business 1604
u 1601
certain 1600
Ter@@ 1599
ask 1599
Fed@@ 1598
ear@@ 1598
facilit@@ 1598
relating 1598
provides 1597
DP 1596
retur@@ 1596
60 1595
conven@@ 1595
inclu@@ 1594
establishment 1591
orig@@ 1590
total 1590
fic 1589
carri@@ 1588
difficul@@ 1587
equi@@ 1586
included 1586
Declaration 1585
metho@@ 1583
don@@ 1582
thers 1582
alia 1581
comes 1579
enting 1579
ib@@ 1579
198@@ 1578
ff@@ 1576
however 1575
environmental 1573
mandate 1573
cle@@ 1572
langu@@ 1571
ang@@ 1567
rule 1567
Am@@ 1566
13@@ 1564
addressed 1564
principles 1563
best 1558
sk@@ 1557
due 1556
armament 1554
existing 1553
nam@@ 1553
tre@@ 1553
Report 1548
plann@@ 1546
effecti@@ 1545
previ@@ 1545
improve 1543
energy 1541
Ministry 1540
clear 1540
Russi@@ 1539
men@@ 1539
associ@@ 1538
Governments 1537
procedure 1537
Inter@@ 1533
vehic@@ 1533
Commun@@ 1532
investig@@ 1531
alized 1530
har@@ 1530
main 1530
problem 1529
ator 1528
rap@@ 1528
secretariat 1527
Po@@ 1526
procedures 1526
application 1524
cust@@ 1520
course 1519
recent 1515
enc@@ 1514
Palestinian 1513
ne 1513
Qu@@ 1512
active 1512
tain 1511
ered 1510
every 1509
vote 1509
monitoring 1508
ple@@ 1507
proce@@ 1506
accoun@@ 1505
resp@@ 1505
provision 1502
ation@@ 1501
cannot 1500
enth 1500
allow@@ 1499
genous 1499
several 1498
aun@@ 1496
Executive 1493
adequ@@ 1493
going 1493
weapons 1491
design@@ 1488
justice 1488
called 1487
least 1486
cer@@ 1485
regarding 1485
ward 1484
31 1483
expressed 1481
Sy@@ 1479
cultural 1479
decided 1478
large 1477
occup@@ 1477
sing 1477
tern 1477
24 1475
ased 1475
documents 1475
21 1473
Go@@ 1473
vent 1473
G 1472
Vi@@ 1471
Ms. 1470
bre@@ 1470
gen@@ 1470
cover@@ 1469
criminal 1469
decisions 1469
C.@@ 1468
operations 1467
ome 1466
ran@@ 1465
ems 1464
ign@@ 1461
guaran@@ 1460
adoption 1459
* 1458
received 1458
qui@@ 1457
ren@@ 1456
section 1456
vic@@ 1455
entitled 1454
man 1454
today 1454
Fi@@ 1453
centr@@ 1453
cor@@ 1453
transport 1453
together 1452
expl@@ 1450
sis 1450
lab@@ 1449
tro@@ 1449
ases 1447
domestic 1446
corpor@@ 1438
ave 1436
agre@@ 1435
emph@@ 1433
ke 1432
ological 1432
wish 1432
issu@@ 1431
invest@@ 1430
anti@@ 1429
treatment 1429
follow 1428
ouse 1428
accord@@ 1423
Mission 1420
sure 1420
cau@@ 1419
ned 1419
ism 1418
15@@ 1417
providing 1417
increased 1415
vision 1414
deb@@ 1413
effici@@ 1413
strategy 1413
op 1412
visory 1412
substanti@@ 1411
sug@@ 1411
better 1410
enter@@ 1410
ish 1409
police 1408
ners 1407
ou 1403
another 1402
wide 1402
AIDS 1400
Asi@@ 1400
duced 1400
next 1400
rement 1400
pay@@ 1398
production 1398
inf@@ 1397
debate 1396
hom@@ 1396
mu@@ 1396
not@@ 1396
thing 1396
acekeeping 1394
placed 1393
gn@@ 1391
ulation 1390
formation 1389
inter 1389
alth 1387
ours 1387
ends 1386
principle 1385
space 1385
comprehensive 1384
mp@@ 1384
great 1383
ordin@@ 1383
funds 1382
nership 1381
matter 1380
Acc@@ 1378
armed 1378
might 1377
products 1377
coordination 1376
significant 1376
ling 1374
ous@@ 1374
peri@@ 1373
zation 1373
TA@@ 1371
five 1370
increas@@ 1370
ris@@ 1370
citizens 1369
obligations 1369
research 1369
risk 1369
Chairman 1368
Sum@@ 1368
strengthen 1368
initi@@ 1366
food 1365
Coun@@ 1364
implement 1364
eful 1363
22 1362
become 1361
ress 1361
Rapporteur 1360
tradi@@ 1360
Sub@@ 1359
ind@@ 1359
itation 1359
Str@@ 1358
char@@ 1358
sem@@ 1357
targ@@ 1355
practices 1354
discussion 1353
men 1351
ind 1350
aci@@ 1349
cam@@ 1348
February 1347
far 1347
ared 1346
costs 1345
depend@@ 1344
quar@@ 1344
ry 1344
ese 1343
individual 1342
p.m. 1342
believe 1340
follow@@ 1340
sch@@ 1340
occ@@ 1338
Dem@@ 1337
consultations 1337
proposals 1337
net@@ 1336
stand@@ 1336
struc@@ 1336
ew 1335
23 1334
para 1334
rati@@ 1334
Party 1333
oned 1333
vol@@ 1332
Minister 1331
Representative 1331
urg@@ 1331
civi@@ 1330
response 1330
inst@@ 1329
technology 1327
amount 1326
nat@@ 1326
integration 1324
interest 1324
ized 1324
growth 1323
No@@ 1322
arrang@@ 1322
ref@@ 1322
eting 1320
orities 1320
Administr@@ 1319
involved 1319
responsible 1319
state 1319
Agre@@ 1318
reat 1313
app@@ 1312
refuge@@ 1311
tin@@ 1309
Sup@@ 1308
bl@@ 1308
develop 1308
econom@@ 1308
HIV 1307
emb@@ 1307
jur@@ 1307
Jo@@ 1306
Si@@ 1306
etary 1306
EC@@ 1305
assessment 1305
cour@@ 1305
practice 1303
sol@@ 1300
achieve 1298
aring 1298
esti@@ 1298
den 1297
dialogue 1297
August 1296
ange 1296
lack 1291
commitment 1290
mechanisms 1290
serious 1290
Gen@@ 1289
tice 1289
wledge 1288
contain@@ 1286
Treaty 1285
bur@@ 1285
tries 1284
challenges 1283
open 1283
room 1283
Israel 1282
aid 1281
bil@@ 1281
tern@@ 1280
dation 1279
establish 1279
ide@@ 1279
prim@@ 1279
reser@@ 1279
IC@@ 1278
arms 1278
dat@@ 1275
est@@ 1275
let@@ 1275
took 1275
os 1274
committed 1273
63 1272
Indi@@ 1270
del@@ 1269
religi@@ 1269
eted 1268
regular 1268
four 1266
rate 1266
reques@@ 1266
Man@@ 1265
fav@@ 1265
Ger@@ 1264
res 1264
bri@@ 1262
indi@@ 1262
basi@@ 1261
def@@ 1259
Iraq 1258
uni@@ 1258
unities 1258
essential 1257
fficking 1257
55 1256
edom 1254
six@@ 1254
tail@@ 1253
gs 1251
Tur@@ 1249
ands 1249
ices 1248
potenti@@ 1248
ls 1247
Annex 1246
needed 1246
manent 1245
rais@@ 1245
ince 1244
priority 1244
pend@@ 1243
exten@@ 1242
duce 1241
bed 1240
objectives 1240
America 1237
coordin@@ 1237
L.@@ 1236
isis 1235
get 1233
hotel 1232
judici@@ 1232
initiatives 1230
elines 1229
odi@@ 1229
cost 1228
em 1228
appli@@ 1226
communication 1226
exerc@@ 1226
oung 1224
pment 1224
ill 1223
fer 1219
bia 1217
lands 1217
ders 1216
oll@@ 1216
MI@@ 1215
18@@ 1213
liber@@ 1213
sw@@ 1213
fr@@ 1211
ole 1211
Arab 1209
ive 1208
40 1206
lic 1205
Code 1204
26 1202
descri@@ 1201
v 1199
are@@ 1198
consider@@ 1198
1998 1197
administrative 1197
financ@@ 1197
27 1196
contributions 1195
compli@@ 1193
del 1193
personnel 1193
find 1192
ight 1191
deleg@@ 1189
Mar@@ 1188
instruments 1188
encoura@@ 1187
cent@@ 1186
dom 1185
vers@@ 1181
Bel@@ 1179
China 1179
TI@@ 1178
mul@@ 1177
ize 1175
ath 1174
vers 1174
CO@@ 1171
Centre 1171
Ass@@ 1169
ession 1167
_ 1165
minis@@ 1165
old 1165
larg@@ 1162
changes 1161
dr@@ 1161
adop@@ 1159
ge@@ 1157
ign 1155
communi@@ 1154
ues 1154
dit 1152
Trans@@ 1149
Char@@ 1147
Poli@@ 1147
ile 1143
lam@@ 1143
indus@@ 1142
.4 1139
aspects 1139
Pan@@ 1135
Stat@@ 1135
accep@@ 1135
tation 1134
Cor@@ 1133
V 1133
un 1132
mor@@ 1131
Ap@@ 1130
treat@@ 1130
Op@@ 1129
sex@@ 1123
Envir@@ 1120
promotion 1120
Ho@@ 1119
28 1118
ak 1118
nature 1116
14@@ 1115
ens 1115
hist@@ 1115
Service 1114
echn@@ 1114
rece@@ 1113
rench 1112
cs 1111
direct 1111
som@@ 1111
forces 1110
ques@@ 1108
performance 1107
promo@@ 1107
there@@ 1107
ECE 1102
times 1102
actu@@ 1101
questions 1098
inc@@ 1096
excep@@ 1092
ber 1091
til 1091
58 1089
CN@@ 1089
vari@@ 1089
dev@@ 1088
dri@@ 1088
Li@@ 1087
No 1087
ffice 1087
individu@@ 1087
pass@@ 1084
consult@@ 1083
Pub@@ 1081
Em@@ 1080
enforc@@ 1080
famili@@ 1080
id 1080
statisti@@ 1080
ature 1078
France 1076
cro@@ 1076
ges@@ 1076
ES@@ 1074
conclu@@ 1073
Dec@@ 1072
agricul@@ 1071
ology 1071
joint 1069
ss@@ 1067
crime 1066
ven 1066
contribution 1063
ret@@ 1060
concern@@ 1057
concl@@ 1057
ful@@ 1056
adi@@ 1054
experts 1053
encourag@@ 1051
mil@@ 1050
zer@@ 1050
ici@@ 1049
Pri@@ 1048
ust 1048
17@@ 1045
activ@@ 1042
inal 1041
2.@@ 1040
ey 1040
peop@@ 1040
provis@@ 1040
sible 1040
Mal@@ 1039
eth@@ 1038
poin@@ 1038
61 1037
istr@@ 1037
plans 1037
lob@@ 1036
Ab@@ 1034
UNI@@ 1034
face 1034
ot 1034
pli@@ 1034
represent@@ 1034
z 1034
conse@@ 1033
Col@@ 1031
ort 1031
reli@@ 1031
pi@@ 1030
59 1029
Hotel 1029
venant 1027
gy 1026
istan 1026
issions 1025
ograp@@ 1024
.3 1023
missions 1023
hel@@ 1021
clim@@ 1020
So@@ 1018
mun@@ 1018
29 1017
CE@@ 1017
Mill@@ 1017
trav@@ 1017
court 1012
ildren 1012
Institu@@ 1010
cal@@ 1008
points 1008
exc@@ 1007
public@@ 1007
57 1006
sou@@ 1006
Americ@@ 1005
aur@@ 1005
menti@@ 1004
Constitution 1003
ania 1002
ploy@@ 1001
tem@@ 1001
ization 1000
violations 1000
ination 998
fil@@ 996
professi@@ 996
Lib@@ 994
mob@@ 993
assi@@ 990
migr@@ 990
AC@@ 989
abor@@ 989
positive 987
197@@ 984
reco@@ 984
ber@@ 983
3.@@ 982
rural 982
Add@@ 980
Au@@ 980
ces 980
Plan 976
Prot@@ 971
Be@@ 969
HC@@ 969
final 967
56 964
Forum 963
nor@@ 962
vie@@ 961
observ@@ 960
go 959
uses 959
U 958
differ@@ 958
2010 957
tention 957
call@@ 955
Jus@@ 953
resul@@ 953
num@@ 952
fa@@ 950
throu@@ 950
nation@@ 948
ord 948
reat@@ 947
ax@@ 946
construction 946
develop@@ 946
restric@@ 946
beli@@ 945
entation 945
emp@@ 944
opinion 944
six 942
Division 941
priv@@ 940
Memb@@ 939
confi@@ 938
ecti@@ 937
r 936
terroris@@ 934
Isra@@ 933
arri@@ 932
pap@@ 931
ir 930
establish@@ 929
tron@@ 928
dam@@ 927
Pl@@ 926
inten@@ 926
alloc@@ 925
dou@@ 925
mental 924
four@@ 921
expert 920
1997 915
bec@@ 915
vidence 913
initiative 912
tric@@ 912
vul@@ 912
WP@@ 909
Ko@@ 908
once 908
ina 907
mand@@ 907
urr@@ 907
Ira@@ 906
ide 906
cou@@ 905
ere 905
type 905
ador 902
transpar@@ 901
rele@@ 900
gl@@ 896
ource 894
Uni@@ 892
forc@@ 892
assess@@ 890
crimin@@ 890
manu@@ 890
ht@@ 889
arg@@ 886
int 886
sl@@ 886
former 885
physi@@ 885
ition 884
cop@@ 883
On@@ 882
fu@@ 880
uti@@ 880
acti@@ 877
IN@@ 874
enda 874
• 874
mechanis@@ 872
tification 871
UNICEF 868
lement 868
Can@@ 867
pub@@ 867
affir@@ 866
articles 865
ementation 865
crimes 864
maj@@ 863
fra@@ 862
tak@@ 862
Mr@@ 861
soci@@ 861
solution 861
-- 859
mer@@ 858
susp@@ 857
York 856
cip@@ 855
paragraph@@ 854
port@@ 854
option 853
Tribunal 852
multilat@@ 852
pul@@ 852
dg@@ 849
formul@@ 849
ress@@ 849
El@@ 846
infrastructure 846
univers@@ 846
cy@@ 844
16@@ 843
long@@ 843
Univers@@ 842
contact 841
olu@@ 840
tis@@ 839
aut@@ 837
ye@@ 835
Minis@@ 833
fir@@ 833
suff@@ 832
correc@@ 831
Wor@@ 830
with@@ 828
mark@@ 827
relations 827
pol@@ 826
ti 826
ade 825
accept@@ 823
sessions 823
effort 821
1995 820
hand@@ 819
Ob@@ 818
centre 818
4.@@ 817
Pal@@ 815
administration 814
employ@@ 813
mod@@ 813
oph@@ 812
K 810
Section 808
assu@@ 808
exis@@ 807
ales 805
read@@ 805
1996 804
hon@@ 804
multi@@ 804
ana 803
migration 803
ion 802
estim@@ 801
meas@@ 799
urb@@ 799
1,@@ 797
harmon@@ 797
examin@@ 796
Di@@ 795
budg@@ 795
cru@@ 795
ean 794
torture 794
ution 791
omati@@ 790
centres 789
ii 788
Govern@@ 787
contin@@ 787
enn@@ 787
cel@@ 786
situations 786
sources 786
stain@@ 786
Afghanistan 785
Congo 785
ra 785
vot@@ 785
Bur@@ 784
monit@@ 784
prof@@ 784
plac@@ 783
Cro@@ 782
concep@@ 781
obligation 781
version 780
agement 777
structure 777
62 774
confir@@ 774
minimum 773
ON@@ 772
ire 772
AR@@ 771
Q@@ 771
possib@@ 771
exclu@@ 769
charg@@ 768
Internet 763
ethni@@ 761
III 760
anis@@ 760
dang@@ 760
ites 759
45 758
nu@@ 758
é 757
subst@@ 756
distribution 754
ats 753
ducation 753
H 752
IS@@ 752
maxim@@ 752
tribu@@ 751
ambi@@ 749
da 749
insp@@ 749
ple 749
serve 749
www.un.org 749
tal@@ 748
100 747
W 747
chang@@ 747
innov@@ 746
Doc@@ 745
charge 745
participants 745
deci@@ 743
itable 743
net 742
mitted 741
CC@@ 740
Mad@@ 737
soli@@ 736
We@@ 730
moder@@ 730
ace@@ 729
instrument 728
lit@@ 728
the@@ 728
program@@ 726
viol@@ 725
rac@@ 724
ables 720
culture 720
AN@@ 715
Associ@@ 715
ton 715
Af@@ 713
ender 713
35 712
EN@@ 712
yp@@ 712
exam@@ 711
rig@@ 711
tiv@@ 711
tine 709
ont 708
docum@@ 707
fore 705
ensus 704
source 704
que 703
fun@@ 701
illi@@ 701
popul@@ 701
consoli@@ 699
anit@@ 697
Kosovo 694
candi@@ 694
ruption 693
Cam@@ 692
permanent 692
PR@@ 688
ough 688
parti@@ 688
super@@ 688
X 687
Bureau 685
solutions 684
ya 683
Tim@@ 682
ga@@ 682
Mex@@ 681
scienti@@ 681
&amp; 680
asse@@ 679
5.@@ 677
gro@@ 677
iti@@ 677
pon@@ 676
sustain@@ 676
Her@@ 675
Note 675
hum@@ 675
prov@@ 675
ins 674
ani@@ 673
technologies 672
emplo@@ 670
abil@@ 669
commer@@ 669
met 668
arbit@@ 667
anim@@ 666
clu@@ 666
conomi@@ 666
arch@@ 663
ben@@ 663
glob@@ 663
54 661
minu@@ 661
page 661
Chair@@ 660
cle 660
ration 658
extr@@ 656
transition 656
ER@@ 655
iture 655
.m. 654
rest@@ 653
collaboration 647
diction 647
just@@ 647
quali@@ 646
jus@@ 645
recru@@ 645
olution 644
conci@@ 643
au 642
prot@@ 642
sanc@@ 642
atives 641
certain@@ 641
norm@@ 641
oi@@ 640
pan@@ 639
parents 639
communications 636
70 635
hy@@ 635
stoc@@ 635
Por@@ 634
fications 633
ject 633
51 627
TR@@ 627
conflic@@ 627
Ital@@ 626
aint 626
incid@@ 626
istance 626
destruc@@ 625
grow@@ 623
explo@@ 621
chall@@ 620
mit@@ 620
sul@@ 620
gar@@ 619
ait 617
ech@@ 616
half 614
ju@@ 613
33 612
distin@@ 612
xim@@ 610
fig@@ 609
adap@@ 608
omm@@ 608
sor@@ 608
Slo@@ 607
GR@@ 606
TRAN@@ 606
positions 606
ah@@ 605
sites 605
48 603
Austr@@ 603
industri@@ 603
37 602
compar@@ 602
radi@@ 601
violation 601
-@@ 600
80 600
types 599
construc@@ 598
secon@@ 598
www.@@ 597
prises 596
dom@@ 595
ions 594
sal@@ 594
dro@@ 593
fem@@ 593
cause 592
Cuba 590
chap@@ 590
impos@@ 590
ffic@@ 589
met@@ 589
Organ@@ 588
amoun@@ 588
exper@@ 587
persp@@ 587
propos@@ 587
ises 586
licy 586
thir@@ 586
Or@@ 585
gan@@ 584
ption 584
ka 583
oring 583
q@@ 583
address@@ 582
vir@@ 582
32 581
Add.1 580
uc@@ 580
00@@ 579
requ@@ 579
ild@@ 578
essi@@ 577
ones 577
exploitation 576
produ@@ 574
memb@@ 572
train@@ 572
simp@@ 570
rom 569
receiv@@ 568
Ara@@ 567
perform@@ 567
ES 566
wat@@ 565
agrap@@ 564
ins@@ 563
airs 562
amb@@ 562
ard@@ 562
modi@@ 562
arian 561
syst@@ 561
Ou@@ 560
fur@@ 559
VI@@ 558
raci@@ 558
cli@@ 557
signific@@ 557
zone 556
conclusions 555
hu@@ 555
90 554
install@@ 553
son 553
é@@ 553
Som@@ 552
consul@@ 549
diver@@ 547
Develop@@ 545
ples 544
transi@@ 543
64 541
di 541
Min@@ 539
sibility 539
pre 538
ais@@ 536
cat@@ 535
tour@@ 534
ment@@ 533
cies 529
bour@@ 527
ich 527
observations 526
atisti@@ 525
direction 525
distribu@@ 525
ON 521
lem@@ 521
eur@@ 519
stitu@@ 519
truc@@ 519
ches 517
structures 516
wle@@ 516
ote 514
ules 514
Fr@@ 513
porteur 513
prise 508
log@@ 507
mal@@ 507
oris@@ 507
rer 506
Aus@@ 505
earch 505
asp@@ 503
engag@@ 503
add@@ 502
attach@@ 502
mer 501
ty@@ 498
SI@@ 495
2,@@ 494
eds 494
capac@@ 492
bon 491
correspon@@ 491
placement 490
tures 490
incip@@ 487
Car@@ 486
Y 485
eld 485
chi@@ 484
discrimin@@ 483
absence 481
conform@@ 480
exist@@ 480
termin@@ 479
lier 478
mari@@ 473
tex@@ 470
trad@@ 469
base 467
mati@@ 466
ventions 466
Web 464
erc@@ 462
lig@@ 462
grap@@ 460
sus 460
IV 459
arr@@ 457
esp@@ 457
Bi@@ 455
wi@@ 455
hor@@ 453
hau@@ 452
iss@@ 451
mag@@ 450
mework 450
dollars 449
sci@@ 449
Oc@@ 447
va 447
eci@@ 446
obstac@@ 446
regar@@ 446
sever@@ 443
apon 442
cep@@ 442
pression 442
@ 440
laration 440
oura@@ 437
avail@@ 436
unique 436
Sal@@ 435
á@@ 435
tit@@ 433
necess@@ 431
s. 431
limit@@ 427
sident 427
trol 427
condition 425
facil@@ 425
titu@@ 422
doc@@ 421
tres 421
communic@@ 418
conf@@ 418
tab@@ 417
affirm@@ 416
eded 415
AI@@ 414
abs@@ 414
citiz@@ 414
nom@@ 413
dur@@ 411
ie 411
lif@@ 411
oth 411
tel 411
cha@@ 410
Commit@@ 409
ause 408
techn@@ 408
uclear 406
í@@ 404
uly 402
lar@@ 401
ains 400
plo@@ 400
ectu@@ 399
ready 398
beau@@ 396
cid@@ 396
internation@@ 396
uments 396
apons 395
+ 394
ense 393
poli@@ 393
fuge@@ 392
tec@@ 392
ule 392
condi@@ 390
stitution 389
tings 389
= 388
ler 388
Hum@@ 385
terr@@ 383
det@@ 379
const@@ 378
yer 376
appropri@@ 375
Tri@@ 374
ma 373
DE 371
car 371
ious 371
usin@@ 371
partment 370
000 369
satis@@ 368
sm@@ 367
acqu@@ 366
fix@@ 366
princip@@ 366
consid@@ 365
ength@@ 365
guar@@ 364
incre@@ 364
pe 363
satisfaction 362
tegr@@ 362
gh 361
sidence 361
du 360
era 359
� 359
ron@@ 358
tow@@ 358
intention 357
tot@@ 357
&#@@ 355
envis@@ 355
aire 354
ument 354
aly@@ 351
Tran@@ 349
ith 349
ric@@ 349
ission 347
commission 343
ô@@ 343
mes 342
tou@@ 342
ó@@ 342
expos@@ 341
La@@ 340
enni@@ 340
ision 340
keeping 340
ources 340
quot@@ 339
ub@@ 339
ener@@ 338
moment 338
Speci@@ 337
.org 335
Sou@@ 333
cen@@ 333
encies 333
fam@@ 333
dispos@@ 330
journ@@ 329
vid@@ 329
transfer@@ 326
onn@@ 325
usiness 324
Gr@@ 323
habit@@ 323
ai 322
ils 321
hal@@ 319
provi@@ 319
........@@ 318
aff 318
rev@@ 317
prob@@ 316
ha@@ 315
tho@@ 313
act@@ 312
ux@@ 312
&gt; 310
prog@@ 310
organis@@ 308
alisation 307
posi@@ 307
exemp@@ 305
ll 304
affec@@ 302
pren@@ 302
reven@@ 302
recomm@@ 300
Represent@@ 299
Sec@@ 299
oblig@@ 298
dge 296
un.org 295
compos@@ 294
ecutive 292
engagement 292
hic@@ 291
proj@@ 291
ue@@ 290
organisations 287
sion@@ 287
Palestini@@ 286
lib@@ 286
à 286
destin@@ 285
tionn@@ 285
occasion 284
une 283
situ@@ 279
tives 277
ü@@ 277
arb@@ 276
bun@@ 276
environ@@ 274
tre 274
La 273
minim@@ 273
ut 273
jour@@ 272
abit@@ 271
manif@@ 270
Afgh@@ 268
suc@@ 268
sit@@ 266
vities 264
capit@@ 263
oci@@ 263
ö@@ 263
Ann@@ 259
plus 259
extra@@ 258
fau@@ 258
tant 257
ONU@@ 255
ologi@@ 253
angl@@ 252
assur@@ 251
je@@ 251
build@@ 250
tat@@ 250
anu@@ 249
appar@@ 249
200@@ 248
fron@@ 247
j 245
union 245
nav@@ 244
° 244
ient 243
techniques 243
€ 240
Righ@@ 238
cus@@ 238
can@@ 237
Q 235
rage 234
ais 233
entre@@ 233
inqui@@ 233
® 233
rier 232
righ@@ 232
alogue 229
ament 228
istry 227
relev@@ 227
&@@ 226
prehensive 226
t; 226
concer@@ 223
satisfac@@ 223
relative 222
ablis@@ 219
ager 219
verty 218
ez 217
mises 217
vel@@ 217
whe@@ 216
Le 215
DS 214
olog@@ 214
isation 213
rend@@ 211
ticles 210
ux 210
ette 209
Cub@@ 208
auc@@ 207
ould 206
mon 205
NU@@ 203
ada 202
teurs 202
aux 201
fol@@ 201
proced@@ 201
zones 200
aboration 199
opin@@ 198
organ@@ 196
sa 195
ç@@ 195
asion 192
infr@@ 192
ainst 191
challeng@@ 191
practi@@ 189
Roy@@ 188
annu@@ 186
J 185
respec@@ 184
pour 183
.m@@ 182
servic@@ 181
condu@@ 179
millions 179
dispens@@ 178
mom@@ 178
abo@@ 177
essions 177
gues 177
Parli@@ 176
unions 176
cin@@ 174
che 173
pes 173
Fe@@ 172
commun@@ 172
demand@@ 172
administr@@ 171
essenti@@ 171
ques 170
As@@ 169
Protoc@@ 169
Cour@@ 168
Treat@@ 168
commerce 168
lev@@ 167
rements 167
diff@@ 166
gestion 166
appr@@ 165
bunal 164
neu@@ 164
organisation 164
pon 163
figur@@ 161
ä@@ 161
doll@@ 159
politi@@ 159
urs 158
Z 153
ente 152
lign@@ 152
sur 151
elle 150
durable 149
propri@@ 149
surveill@@ 149
ñ@@ 149
OM@@ 148
grou@@ 147
pal@@ 147
Europ@@ 146
sexu@@ 146
secret@@ 145
ors@@ 143
atin@@ 142
Program@@ 141
cos@@ 141
rant 141
conom@@ 140
particul@@ 140
inscri@@ 139
tiz@@ 139
Aff@@ 138
erci@@ 138
² 138
echanis@@ 137
nov@@ 137
ysi@@ 137
tran@@ 136
und 136
arab@@ 135
..@@ 134
derni@@ 134
ween 134
M. 133
anci@@ 133
ext 132
ocrati@@ 130
Organisation 129
tled 128
Grou@@ 127
eurs 127
rent 127
trou@@ 127
affaires 124
q 123
ć 122
ille 121
publi@@ 121
olutions 120
tob@@ 118
oy@@ 117
analyse 116
cit@@ 115
suite 114
# 113
bru@@ 113
fai@@ 113
ld 113
contex@@ 111
lut@@ 111
ã@@ 111
prehen@@ 109
relatives 109
aug@@ 108
temp@@ 108
De 107
cher 107
endant 107
ept@@ 107
import@@ 107
± 106
plu@@ 105
oe@@ 104
ul 104
vice 104
infra@@ 103
lit 103
dé@@ 102
Commission@@ 100
premi@@ 100
tent 100
addi@@ 99
dans 99
eve 99
™ 98
instr@@ 97
isions 97
bet@@ 96
perman@@ 96
eric@@ 95
fran@@ 95
mani@@ 95
par 95
si 94
Les 93
goti@@ 93
viv@@ 93
clar@@ 92
è@@ 92
aires 91
qué 91
ix 90
nec@@ 89
ussi@@ 89
ér@@ 89
asse 87
je 87
ville 87
∗ 87
ure@@ 86
ée 86
financi@@ 85
urity 85
fon@@ 84
ú@@ 84
Rap@@ 83
olo@@ 82
pertin@@ 82
és 82
− 82
vo 81
ade@@ 80
atis@@ 80
milit@@ 80
á 80
cil 79
ante 78
cad@@ 78
vie 78
ère 78
Fon@@ 77
Nov@@ 77
pays 77
gram@@ 76
ré@@ 76
aine 75
chamb@@ 75
gni@@ 75
voy@@ 75
â@@ 75
CEF 73
eso@@ 73
objecti@@ 73
ministr@@ 72
ni 72
eu 71
ren 71
Ce@@ 70
avec 70
ité 70
sib@@ 70
iter 69
mes@@ 69
sep@@ 69
accord 68
aven@@ 68
probl@@ 68
finan@@ 67
fronti@@ 67
porter 67
suit 67
erre 66
liv@@ 66
nes 66
san@@ 66
Point 65
keep@@ 64
pens@@ 64
jan@@ 63
velop 63
cher@@ 62
irs 62
É@@ 62
én@@ 62
ao@@ 61
commerci@@ 61
issance 61
alog@@ 60
igh 60
mi 60
Afr@@ 59
elles 59
technique 59
í 59
š@@ 59
tique 58
uv@@ 58
č@@ 58
о@@ 58
eau 57
· 57
bles 56
incl@@ 56
utive 56
fs 55
{ 55
Tou@@ 54
islation 54
pou@@ 54
Commis@@ 52
ci 52
droit 52
tenant 52
....@@ 51
eur 51
} 51
§ 51
ó 51
tenti@@ 50
idi@@ 49
hen@@ 48
les@@ 48
qui 48
tu 48
ê@@ 48
Afric@@ 47
aut 47
Ré@@ 46
bien 45
vous 45
\ 44
fier 44
ilisation 44
onne 44
orer 44
pas 44
ult@@ 44
ø@@ 44
ave@@ 43
partement 43
reau 43
Il 42
Secret@@ 42
coup 42
dire 42
lors 42
sein 42
vez 42
£ 41
ères 41
disposition 40
ateur 39
enne 39
© 39
él@@ 39
ét@@ 39
esse 38
jug@@ 38
ui 38
vou@@ 38
Š@@ 38
и@@ 38
UE 37
faire 37
grand 37
lem 37
level@@ 37
agne 36
α@@ 36
ande 35
fugi@@ 35
mise 35
nous 35
oi 35
otel 35
En 34
emble 34
lieu 34
liqu@@ 34
lui 34
org 34
portant 34
ès 34
éd@@ 34
μ@@ 34
в@@ 34
≤ 34
accords 33
achi@@ 33
eux 33
ouv@@ 33
rapp@@ 33
ées 33
ég@@ 33
е@@ 33
н@@ 33
а@@ 32
с@@ 32
ember 31
fait 31
té 31
velop@@ 31
voir 31
è 31
droits 30
déc@@ 30
nouvelles 30
signi@@ 30
éc@@ 30
α 30
illes 29
oir 29
Conseil 28
Dé@@ 28
isse 28
jour 28
Á@@ 28
î@@ 28
ı@@ 28
ž@@ 28
alim@@ 27
europ@@ 27
font 27
ique 27
oire 27
sans 27
т@@ 27
Aug@@ 26
reconna@@ 26
tout 26
º 26
ι@@ 26
entre 25
fin 25
internationale 25
jet 25
march@@ 25
mé@@ 25
ré 25
salle 25
uvre 25
â 25
τ@@ 25
antes 24
avant 24
gie 24
lanc@@ 24
efficac@@ 23
mais 23
rique 23
strate@@ 23
éri@@ 23
ε@@ 23
Koso@@ 22
andes 22
bonne 22
entes 22
vue 22
ww@@ 22
å@@ 22
ération 22
р@@ 22
ensemble 21
quel@@ 21
tiers 21
tiques 21
ß@@ 21
éch@@ 21
été 21
ā@@ 21
Je 20
Si 20
dre 20
enf@@ 20
ennes 20
nos 20
premier 20
ène 20
être 20
ï@@ 20
л@@ 20
auv@@ 19
aï@@ 19
homme 19
nationale 19
onc@@ 19
tés 19
utilis@@ 19
ème 19
≥ 19
aide 18
avis 18
déf@@ 18
démocrati@@ 18
exe 18
ril 18
С 18
comme 17
jou@@ 17
milli@@ 17
nom 17
oires 17
omen 17
puis 17
sont 17
très 17
utilisation 17
ège 17
év@@ 17
Č@@ 17
š 17
π@@ 17
Groupe 16
atoire 16
augment@@ 16
cette 16
contre 16
dont 16
développement 16
lang@@ 16
quer 16
tels 16
vient 16
w.@@ 16
ête 16
ν@@ 16
σ@@ 16
С@@ 16
к@@ 16
Elle 15
ici 15
informations 15
nou@@ 15
pré@@ 15
tat 15
teur 15
tous 15
venir 15
µ@@ 15
θ@@ 15
ο@@ 15
nie 14
proposition 14
veau 14
vier 14
Ö@@ 14
ël 14
п@@ 14
Dans 13
ateurs 13
avoir 13
cas 13
envir@@ 13
hô@@ 13
iste 13
ités 13
temps 13
tien 13
veill@@ 13
vos 13
~ 13
æ@@ 13
éli@@ 13
ł@@ 13
Δ@@ 13
κ@@ 13
ρ@@ 13
Assemb@@ 12
Nous 12
Pour 12
Pré@@ 12
bie 12
isme 12
nationales 12
notre 12
pour@@ 12
prépar@@ 12
rés 12
sé@@ 12
travaux 12
velopp@@ 12
Ü@@ 12
à@@ 12
ève 12
č 12
ğ@@ 12
γ@@ 12
λ@@ 12
з@@ 12
м@@ 12
Comité 11
Un 11
afric@@ 11
cadre 11
cela 11
exig@@ 11
leur 11
mis 11
ouvel@@ 11
pendant 11
proch@@ 11
raison 11
vern@@ 11
Ç@@ 11
ë 11
ï 11
ı 11
œ@@ 11
ş@@ 11
Ε@@ 11
δ@@ 11
aussi 10
autre 10
autres 10
avons 10
cht@@ 10
donn@@ 10
faç@@ 10
hui 10
illet 10
iser 10
monde 10
même 10
porte 10
qua@@ 10
recherche 10
respons@@ 10
votre 10
½ 10
ß 10
état 10
ò 10
û@@ 10
ă@@ 10
ř@@ 10
ι 10
Afrique 9
Des 9
après 9
atif 9
auto@@ 9
dém@@ 9
lear 9
lois 9
mig@@ 9
méd@@ 9
ouver@@ 9
personne 9
peut 9
prior@@ 9
quel 9
toute 9
¢ 9
Ä@@ 9
Î@@ 9
ä 9
éco@@ 9
étu@@ 9
ôt 9
ö 9
ś@@ 9
ί@@ 9
д@@ 9
е 9
Cour 8
aider 8
auté 8
cet 8
effectu@@ 8
encore 8
gé@@ 8
jours 8
onnement 8
péri@@ 8
quoi 8
rir 8
Ã 8
Ã@@ 8
ë@@ 8
ú 8
đ@@ 8
ń@@ 8
Ž@@ 8
Ο 8
ά 8
έ@@ 8
λ 8
Ђ 8
а 8
й 8
у@@ 8
ы@@ 8
ь@@ 8
‑ 8
― 8
□ 8
Au 7
Janu@@ 7
Mais 7
Sud 7
ariat 7
armes 7
autor@@ 7
chaque 7
cours 7
effor@@ 7
endre 7
européen 7
femmes 7
grande 7
groupe 7
générale 7
paix 7
peu 7
pouvoir 7
première 7
prend 7
prendre 7
propositions 7
pén@@ 7
sous 7
techni@@ 7
º@@ 7
É 7
État 7
Í@@ 7
étr@@ 7
ô 7
υ@@ 7
Cette 6
Fonds 6
Yor@@ 6
alité 6
auss@@ 6
ayant 6
beaucoup 6
coopération 6
dispositions 6
dée 6
environnement 6
especi@@ 6
fique 6
fois 6
forme 6
fé@@ 6
grès 6
hommes 6
humanit@@ 6
hé@@ 6
jeun@@ 6
mee@@ 6
nombre 6
partie 6
personn@@ 6
peu@@ 6
politiques 6
publique 6
rée 6
sécurité 6
toutes 6
trait@@ 6
¬ 6
³ 6
¿ 6
Ó@@ 6
İ@@ 6
Ł@@ 6
ή@@ 6
ε 6
ς 6
б@@ 6
в 6
к 6
я 6
Ce 5
Ministère 5
alement 5
demande 5
depuis 5
deux 5
devant 5
effic@@ 5
embre 5
enfants 5
enreg@@ 5
examiner 5
gén@@ 5
intég@@ 5
leurs 5
ligne 5
mettre 5
nationaux 5
plusieurs 5
projets 5
rapport 5
région@@ 5
selon 5
soit 5
sommes 5
tats 5
tech@@ 5
tement 5
tif 5
tifs 5
titre 5
toujours 5
urop@@ 5
¹ 5
Â 5
Å@@ 5
Ñ@@ 5
élé@@ 5
érale 5
érieur 5
õ@@ 5
ć@@ 5
ė 5
ė@@ 5
ń 5
ő@@ 5
ž 5
ə@@ 5
ο 5
Р@@ 5
г@@ 5
и 5
й@@ 5
о 5
х 5
ч@@ 5
ו@@ 5
ا@@ 5
† 5
→ 5
・ 5
1er 4
Haut 4
Mme 4
Par 4
afin 4
aient 4
aines 4
ainsi 4
alors 4
année 4
avait 4
avant@@ 4
avril 4
certains 4
culturel@@ 4
domaine 4
déjà 4
ellement 4
fonc@@ 4
heures 4
indépend@@ 4
issant 4
juillet 4
juridi@@ 4
lutte 4
lég@@ 4
mai 4
mondiale 4
médi@@ 4
nouveau 4
obst@@ 4
particulier 4
personnes 4
préc@@ 4
régional 4
sais@@ 4
sensib@@ 4
sept@@ 4
telle 4
ticle 4
travail@@ 4
å 4
économique 4
était 4
étrang@@ 4
étudi@@ 4
êts 4
ì 4
ă 4
ę@@ 4
ň@@ 4
Ő@@ 4
Ş@@ 4
ş 4
ż@@ 4
Α@@ 4
Δ 4
β 4
β@@ 4
γ 4
η@@ 4
χ@@ 4
ό@@ 4
ύ@@ 4
Њ@@ 4
В 4
М@@ 4
м 4
ф@@ 4
ы 4
ה 4
י@@ 4
‐ 4
‡ 4
● 4
Afghan@@ 3
Conférence 3
Febru@@ 3
Monsieur 3
République 3
Secrétaire 3
Une 3
Unies 3
Vous 3
^ 3
abilité 3
agit 3
ailleurs 3
annexe 3
assurer 3
atifs 3
ationn@@ 3
concernant 3
dernier 3
donc 3
donner 3
décembre 3
développ@@ 3
enqu@@ 3
entreprises 3
euses 3
fonds 3
général 3
humanitaire 3
internationales 3
iques 3
issement 3
issent 3
jeunes 3
juridique 3
loi 3
mars 3
matéri@@ 3
moins 3
métho@@ 3
notamment 3
occu@@ 3
octobre 3
particuli@@ 3
prati@@ 3
pratiques 3
pris 3
processus 3
professionn@@ 3
projet 3
près 3
rendre 3
responsabilité 3
reté 3
règles 3
région 3
rés@@ 3
santé 3
savoir 3
secteur 3
seil 3
spéci@@ 3
stratégie 3
sujet 3
système 3
technologi@@ 3
tenue 3
trois 3
télé@@ 3
véri@@ 3
¡ 3
¦ 3
À 3
Â@@ 3
È@@ 3
Ø@@ 3
Ú@@ 3
ç 3
èg@@ 3
èmes 3
ète 3
équ@@ 3
étro@@ 3
ê 3
êt 3
êtes 3
ître 3
ð@@ 3
ą@@ 3
Đ@@ 3
ĺ@@ 3
ľ 3
ō@@ 3
ŕ@@ 3
ū@@ 3
ų 3
ί 3
ν 3
ω@@ 3
Ђ@@ 3
Ѓ@@ 3
Љ@@ 3
О@@ 3
Р 3
ц@@ 3
ш@@ 3
я@@ 3
ڤ 3
‰ 3
′ 3
∆ 3
Apr@@ 2
Assemblée 2
Comme 2
Commiss@@ 2
Département 2
ONU 2
Sept@@ 2
Unis 2
accue@@ 2
accès 2
actes 2
anglais 2
appel 2
appui 2
atte@@ 2
auprès 2
autorités 2
avanc@@ 2
celle 2
ceux 2
compte 2
conférence 2
conséqu@@ 2
contexte 2
différents 2
doit 2
domaines 2
donné 2
enfant 2
enseign@@ 2
estini@@ 2
exemple 2
fais@@ 2
famille 2
faut 2
fins 2
fié 2
fourn@@ 2
garanti@@ 2
gouvern@@ 2
gouvernement 2
hôtel 2
investi@@ 2
janvier 2
lequel 2
liberté 2
lée 2
matière 2
meil@@ 2
membres 2
mois 2
nex 2
niveaux 2
nombreux 2
nouveaux 2
nouvelle 2
novembre 2
octob@@ 2
ordinaire 2
ordre 2
où 2
paragraphe 2
politique 2
pourr@@ 2
principes 2
prix 2
protég@@ 2
qualité 2
quelques 2
quels 2
recher@@ 2
règlement 2
rées 2
régi@@ 2
répon@@ 2
rése@@ 2
septembre 2
sieur 2
sociale 2
souvent 2
suivre 2
tenu 2
territoire 2
texte 2
tient 2
toge@@ 2
travail 2
tée 2
vertu 2
vé@@ 2
¨ 2
µ 2
À@@ 2
Á 2
Ä 2
Ó 2
Ô@@ 2
Ö 2
× 2
Ø 2
économie 2
éducation 2
égi@@ 2
élec@@ 2
émati@@ 2
ément 2
éné@@ 2
érence 2
érer 2
érie 2
érique 2
ñ 2
ò@@ 2
ù 2
ý 2
ý@@ 2
ā 2
ď@@ 2
ě@@ 2
ķ@@ 2
Ľ@@ 2
ľ@@ 2
ł 2
ź 2
Ž 2
́ 2
ά@@ 2
ή 2
η 2
θ 2
μ 2
ξ@@ 2
ϊ@@ 2
ό 2
ύ 2
Ћ@@ 2
В@@ 2
Д@@ 2
щ@@ 2
ь 2
א@@ 2
ב@@ 2
ג@@ 2
ד@@ 2
ה@@ 2
ט@@ 2
כ@@ 2
ל@@ 2
ם 2
ק@@ 2
ר@@ 2
ب 2
د@@ 2
ق@@ 2
ل@@ 2
و@@ 2
› 2
─ 2
► 2
○ 2
♦ 2
ﬁ@@ 2
Ces 1
Gouvern@@ 1
Gouvernement 1
Octob@@ 1
PNU@@ 1
Président 1
Règ@@ 1
Secrétariat 1
abliss@@ 1
acte 1
activité 1
activités 1
actuellement 1
adress@@ 1
agric@@ 1
alités 1
août 1
appel@@ 1
aucune 1
besoin 1
bénéfic@@ 1
caract@@ 1
catég@@ 1
celles 1
celui 1
certaines 1
chargé 1
civile 1
clé@@ 1
concerne 1
conflit 1
conflits 1
conna@@ 1
considé@@ 1
consultatif 1
contrôle 1
croissance 1
cré@@ 1
différ@@ 1
disponib@@ 1
déb@@ 1
démocratique 1
efficace 1
efficacité 1
emploi 1
enseignement 1
européenne 1
exercice 1
exprim@@ 1
exécution 1
façon 1
fonction 1
fonctionn@@ 1
fondam@@ 1
fondament@@ 1
férence 1
groupes 1
grâce 1
gueur 1
haut 1
ilité 1
indivi@@ 1
indre 1
inement 1
internationaux 1
intégration 1
intéress@@ 1
intérieur 1
intérêt 1
investiss@@ 1
isième 1
ivent 1
juin 1
laquelle 1
lits 1
lorsque 1
manière 1
mement 1
mieux 1
mondi@@ 1
montant 1
mê@@ 1
niveau 1
nomb@@ 1
néc@@ 1
objectif 1
objet 1
opér@@ 1
opération 1
pauvreté 1
permet@@ 1
pratique 1
preu@@ 1
problème 1
procédure 1
progrès 1
promouvoir 1
provisoire 1
prés@@ 1
présentant 1
prév@@ 1
prévention 1
quatre 1
quelle 1
quement 1
recommand@@ 1
renforcer 1
reste 1
réalisation 1
rédu@@ 1
réfugiés 1
rég@@ 1
régl@@ 1
résolution 1
résultats 1
s&apos; 1
sera 1
seul@@ 1
sieurs 1
sociaux 1
société 1
souha@@ 1
soutien 1
spécial 1
spécialis@@ 1
suiv@@ 1
suivi 1
systèmes 1
sécur@@ 1
sû@@ 1
telles 1
tenir 1
troisième 1
turel@@ 1
victimes 1
volon@@ 1
voudrais 1
¶ 1
¾ 1
États 1
Ê@@ 1
Ì@@ 1
Ï@@ 1
Ð@@ 1
Ô 1
Û@@ 1
Þ@@ 1
ã 1
æ 1
èrement 1
économiques 1
écur@@ 1
également 1
égalité 1
égard 1
élev@@ 1
éner@@ 1
équi@@ 1
éra@@ 1
étant 1
ì@@ 1
ð 1
ôle 1
õ 1
÷ 1
ø 1
û 1
ût 1
ą 1
Ć 1
Č 1
ī 1
ī@@ 1
İ 1
Ń@@ 1
ņ@@ 1
ő 1
œ 1
ŕ 1
Ř 1
ś 1
Š 1
Ţ@@ 1
ţ 1
ţ@@ 1
Ů 1
ż 1
ȃ@@ 1
ș@@ 1
ț 1
ə 1
̵ 1
Α 1
Γ@@ 1
Ι 1
Ι@@ 1
Κ@@ 1
Π@@ 1
Ρ@@ 1
Τ@@ 1
δ 1
σ 1
υ 1
φ@@ 1
ϊ 1
ώ 1
ϕ@@ 1
Ќ 1
Ќ@@ 1
Џ@@ 1
А@@ 1
Б@@ 1
Е 1
Е@@ 1
Н@@ 1
О 1
П@@ 1
Т@@ 1
Х@@ 1
Ю@@ 1
г 1
з 1
л 1
н 1
с 1
т 1
у 1
х@@ 1
ч 1
ъ 1
э@@ 1
ю@@ 1
і@@ 1
ז@@ 1
ך 1
ל 1
מ@@ 1
ף 1
פ@@ 1
ת 1
ת@@ 1
، 1
ت 1
ح@@ 1
خ@@ 1
ع@@ 1
ف@@ 1
م@@ 1
ن 1
ن@@ 1
ه 1
ي 1
ي@@ 1
٭ 1
چ@@ 1
ی 1
ၡ@@ 1
ၢ@@ 1
ၱ@@ 1
Ⴐ 1
Ⴑ 1
Ⴞ@@ 1
″ 1
※ 1
⁄ 1
₤ 1
₫ 1
ℓ 1
№ 1
← 1
↝ 1
■ 1
▪ 1
▲ 1
▸ 1
◊ 1
♲ 1
世@@ 1
中@@ 1
加@@ 1
卓@@ 1
原@@ 1
啦 1
壹 1
壹@@ 1
大@@ 1
川@@ 1
文 1
新@@ 1
日@@ 1
春@@ 1
晶 1
智@@ 1
本@@ 1
泥@@ 1
献@@ 1
王@@ 1
琉 1
甜@@ 1
界 1
石@@ 1
简 1
茶@@ 1
語 1
貢@@ 1
钧@@ 1
雄@@ 1
馬 1
﴾ 1
﴿ 1
） 1
［ 1
］ 1
madeupword0000 0
madeupword0001 0
madeupword0002 0
madeupword0003 0
madeupword0004 0
madeupword0005 0
madeupword0006 0
