de 461715
, 340114
la 252682
et 223395
. 220497
des 202571
l&apos; 184576
les 176234
le 162351
à 158940
d&apos; 125169
du 116515
en 108525
que 89777
a 73467
pour 66479
é 64596
er 64268
dans 64143
un 62065
) 59152
au 58493
une 57182
@-@ 54898
sur 52857
aux 51701
est 48773
par 48743
( 45418
qui 45347
/ 41779
dé@@ 36909
e 36190
és 35710
ant 34060
ée 33729
&quot; 31078
ation 30909
ré@@ 30755
é@@ 30461
es 30239
ent 29077
ées 28669
ce 27783
il 27641
t@@ 27570
in@@ 27281
Le 27008
ont 26648
qu&apos; 26622
ou 25982
s@@ 25380
v@@ 24947
ne 23746
se 23419
S@@ 22981
; 22680
b@@ 22419
pas 22412
l@@ 22256
: 22145
sont 22046
plus 21776
ement 21490
d@@ 21347
été 21322
p@@ 21130
i 21047
m@@ 21003
con@@ 20937
aire 20748
re@@ 20703
avec 20496
te 20188
ti@@ 20028
a@@ 19318
C@@ 19223
r@@ 18715
t 18698
P@@ 18521
is@@ 18453
ations 18362
i@@ 18330
ité 18326
pays 18110
être 18050
elle 17853
s 17799
La 17751
A@@ 17739
s&apos; 17620
Les 17608
c@@ 17419
it@@ 17261
u@@ 17203
ch@@ 17201
di@@ 17139
M@@ 16340
aires 16104
ait 15851
g@@ 15788
an@@ 15250
ér@@ 15210
par@@ 14725
ag@@ 14609
nous 14542
è@@ 14493
ale 14320
on 14237
me 14236
développement 14207
ons 14178
ses 14174
ces 14166
li@@ 14049
leur 14012
n&apos; 13999
o@@ 13965
n@@ 13902
B@@ 13860
au@@ 13772
pré@@ 13756
ques 13704
tes 13560
T@@ 13540
droits 13408
États 13407
am@@ 13335
en@@ 13311
D@@ 13140
er@@ 13134
E@@ 13106
or@@ 13098
Il 13079
Nations 12973
qu@@ 12934
L@@ 12924
f@@ 12850
son 12838
is 12788
ie 12675
ère 12622
Conseil 12583
Unies 12509
autres 12491
R@@ 12321
re 12237
L&apos; 12213
ence 12131
y 12059
h@@ 12050
u 11955
ou@@ 11947
cette 11922
ements 11907
sa 11709
Comité 11704
ants 11671
el 11483
ales 11443
ent@@ 11397
A 11326
inter@@ 11301
ac@@ 11283
tr@@ 11202
al@@ 11185
at@@ 11151
al 11094
si@@ 11047
tion 11004
age 10929
Commission 10905
ance 10728
ar@@ 10696
y@@ 10677
rapport 10661
d 10461
o 10424
fait 10418
ite 10412
I@@ 10394
tions 10282
ab@@ 10253
entre 10187
ter 10068
e@@ 10051
on@@ 9999
leurs 9966
sécurité 9954
F@@ 9827
im@@ 9801
es@@ 9757
ra@@ 9740
2 9703
N@@ 9666
- 9622
comme 9471
elles 9450
pro@@ 9389
sou@@ 9384
ci@@ 9361
ers 9332
vous 9330
En 9257
ét@@ 9251
également 9235
pl@@ 9196
él@@ 9196
contre 9140
vo@@ 9137
.@@ 9096
pr@@ 9091
tous 9054
ainsi 9029
ap@@ 8992
it 8934
co@@ 8921
3 8905
travail 8806
1 8803
non 8679
ic@@ 8673
faire 8671
droit 8620
ante 8602
ités 8569
l 8488
4@@ 8437
ts 8309
ères 8284
il@@ 8257
V@@ 8206
com@@ 8201
O@@ 8195
résolution 8122
vi@@ 8094
ine 8076
3@@ 8065
G@@ 8060
rer 8052
général 8032
ils 8029
aient 8003
tant 7986
ri@@ 7919
én@@ 7866
tout 7832
ex@@ 7804
ents 7797
us@@ 7797
comm@@ 7769
ro@@ 7756
dis@@ 7663
mesures 7650
tre 7640
homme 7630
ad@@ 7611
4 7605
ais 7598
mais 7580
k@@ 7565
j@@ 7554
st@@ 7528
session 7501
5 7458
us 7437
vis@@ 7389
om@@ 7388
as@@ 7381
enfants 7322
si 7318
onn@@ 7310
2@@ 7265
ens 7233
able 7229
femmes 7212
end@@ 7195
même 7145
ment 7030
c 7018
acc@@ 6989
membres 6969
peut 6968
els 6955
État 6937
r 6886
z 6880
H@@ 6852
6 6839
cl@@ 6819
activités 6801
E 6781
générale 6750
mo@@ 6747
ables 6734
projet 6730
ème 6692
su@@ 6690
ue 6679
M. 6671
7@@ 6648
Assemblée 6606
per@@ 6569
article 6561
internationale 6527
dont 6522
aussi 6467
min@@ 6462
mise 6436
Convention 6432
an 6428
sion 6411
tés 6367
ê@@ 6353
té 6351
9 6335
Président 6313
ences 6279
fi@@ 6273
ol@@ 6264
services 6257
et@@ 6197
se@@ 6187
7 6158
action 6158
res 6139
Secrétaire 6136
un@@ 6111
cas 6065
ente 6051
doit 6035
cadre 6031
6@@ 6029
personnes 6016
Nous 6008
deux 5990
op@@ 5936
notamment 5905
partie 5904
ure 5903
question 5895
ter@@ 5865
ir 5858
le@@ 5827
9@@ 5790
sans 5769
programme 5748
jour 5746
S 5731
comp@@ 5725
f 5716
cours 5712
teurs 5702
sous 5687
concernant 5677
bien 5657
C 5651
toutes 5648
in 5642
je 5632
men@@ 5587
international 5585
th@@ 5585
tri@@ 5558
che 5556
% 5536
questions 5521
5@@ 5518
système 5461
8 5460
res@@ 5446
de@@ 5444
em@@ 5427
pos@@ 5408
ise 5387
compte 5384
ver@@ 5381
Organisation 5367
&apos; 5361
ances 5360
paix 5347
Groupe 5327
fon@@ 5322
gu@@ 5319
pour@@ 5319
ot@@ 5314
afin 5307
utilis@@ 5290
enti@@ 5283
soit 5273
trans@@ 5271
av@@ 5265
tionn@@ 5262
Ch@@ 5256
po@@ 5240
Dans 5239
port@@ 5230
application 5216
pu@@ 5203
politique 5195
ai@@ 5190
oc@@ 5182
ati@@ 5177
matière 5175
économique 5164
mis 5161
8@@ 5151
ren@@ 5149
éri@@ 5144
ateurs 5136
ur@@ 5136
À 5125
ur 5119
vue 5113
0@@ 5106
contr@@ 5093
tra@@ 5089
aur@@ 5085
J@@ 5078
cré@@ 5073
antes 5069
ci 5069
eux 5067
était 5026
coopération 5023
all@@ 5012
x@@ 5004
K@@ 4983
éc@@ 4981
après 4969
Con@@ 4952
el@@ 4952
ec@@ 4923
ass@@ 4890
Je 4875
nombre 4847
eurs 4838
prendre 4832
enne 4830
iss@@ 4820
politiques 4804
mettre 4794
lement 4782
cr@@ 4777
D 4776
at 4776
direc@@ 4747
ul@@ 4746
ressources 4725
situation 4725
protection 4724
ans 4723
,@@ 4708
I 4705
mon@@ 4700
iter 4699
entes 4696
U@@ 4691
constitu@@ 4671
z@@ 4665
â@@ 4662
év@@ 4660
n 4651
voir 4639
européenne 4628
paragraphe 4620
É@@ 4618
moins 4613
cons@@ 4601
bi@@ 4576
ô@@ 4558
gr@@ 4539
ues 4511
niveau 4509
ats 4497
point 4485
particulier 4448
organisations 4442
mar@@ 4440
programmes 4416
m 4396
dem@@ 4394
sé@@ 4388
présent@@ 4384
part 4382
tu@@ 4382
où 4376
ph@@ 4374
ez 4360
trou@@ 4347
lib@@ 4339
cet 4335
ain 4333
ess@@ 4330
ég@@ 4319
doivent 4307
ill@@ 4306
10 4301
its 4300
loi 4268
teur 4250
Union 4246
ordre 4231
rap@@ 4231
eur 4206
ve 4198
b 4192
œuvre 4182
att@@ 4176
parties 4175
avait 4172
autre 4169
rec@@ 4124
ç@@ 4119
Gouvernement 4108
sign@@ 4108
vement 4106
République 4099
î@@ 4082
mes 4077
as 4043
alité 4037
Pour 4017
serv@@ 4017
2005 4015
cou@@ 4014
ages 4001
jou@@ 3999
ni@@ 3999
suiv@@ 3982
ser@@ 3972
ven@@ 3971
adop@@ 3970
for@@ 3970
ites 3969
santé 3966
examen 3952
ir@@ 3951
aine 3950
information 3947
déc@@ 3946
informations 3946
fication 3942
très 3942
notre 3936
toute 3936
considé@@ 3927
lieu 3906
compl@@ 3896
2004 3874
données 3859
gestion 3847
avoir 3835
tenu 3825
1@@ 3808
ge 3803
dit 3788
ist@@ 3785
rement 3783
suite 3781
Conférence 3773
h 3766
and@@ 3762
sera 3762
era 3730
sp@@ 3727
lui 3714
2006 3710
aide 3707
peuvent 3681
répon@@ 3678
lic@@ 3676
encore 3674
ique 3665
processus 3664
efforts 3662
demande 3641
spéci@@ 3641
décision 3636
15 3618
2003 3611
2000 3608
hum@@ 3605
déf@@ 3602
ire 3600
place 3592
avant 3591
parti@@ 3589
forme 3583
R 3575
ateur 3570
base 3569
alement 3562
ves 3560
priv@@ 3550
ès 3542
esp@@ 3541
ai 3537
travaux 3534
temps 3531
votre 3529
dispositions 3528
propos@@ 3527
2001 3525
égard 3523
ob@@ 3522
tres 3509
In@@ 3493
ten@@ 3492
pres@@ 3490
rel@@ 3487
titre 3482
fin 3471
ais@@ 3469
off@@ 3469
por@@ 3467
2002 3462
sid@@ 3459
Ré@@ 3458
vie 3454
ori@@ 3452
P 3450
compris 3444
organis@@ 3441
import@@ 3433
eu 3431
défin@@ 3422
formation 3417
aut@@ 3384
princip@@ 3382
élec@@ 3381
coll@@ 3376
alis@@ 3370
médi@@ 3365
qui@@ 3355
vers 3353
? 3349
cor@@ 3349
pass@@ 3336
domaine 3330
plan 3321
venir 3315
bu@@ 3310
devrait 3309
p 3308
national 3305
conformément 3304
mi@@ 3301
dollars 3298
ari@@ 3284
anti@@ 3283
parten@@ 3282
hi@@ 3271
ture 3258
personnel 3250
fois 3244
Par@@ 3241
tement 3237
our@@ 3236
met 3223
id@@ 3217
fa@@ 3215
12 3214
prise 3212
2007 3203
intég@@ 3187
W@@ 3185
sor@@ 3184
uni@@ 3175
ande 3166
éch@@ 3165
lu@@ 3164
int@@ 3161
gra@@ 3155
pris 3152
entre@@ 3150
environnement 3143
nos 3143
institutions 3142
affaires 3140
manière 3126
pén@@ 3125
ain@@ 3113
ver 3108
armes 3107
du@@ 3106
ément 3092
appro@@ 3091
Qu@@ 3089
assurer 3085
fonctionn@@ 3080
rôle 3080
g 3078
cho@@ 3074
lo@@ 3057
monde 3057
De 3056
tenir 3055
sur@@ 3054
no@@ 3053
financi@@ 3048
permet@@ 3048
inv@@ 3043
objectifs 3039
Al@@ 3033
ures 3033
2008 3032
continu@@ 3032
and 3022
décembre 3020
avons 3015
accès 3012
ecti@@ 3012
ux 3012
ss@@ 3010
loc@@ 3003
30 2997
document 2995
gi@@ 2995
préc@@ 2985
appui 2978
conditions 2974
urs 2969
T 2966
ach@@ 2965
um@@ 2955
ble 2951
lors 2946
issant 2945
Un 2940
concerne 2935
uti@@ 2933
spécial 2924
groupe 2918
internationales 2918
so@@ 2917
donc 2915
Afrique 2904
form@@ 2899
mesure 2897
conn@@ 2893
soient 2888
&#91; 2885
ris@@ 2882
éducation 2879
Re@@ 2875
Ce 2862
ONU 2860
visant 2857
engag@@ 2853
rem@@ 2853
région 2851
fier 2850
abilité 2841
fourn@@ 2838
réalis@@ 2837
20 2827
depuis 2827
nationale 2825
Europe 2820
offici@@ 2813
plac@@ 2813
autor@@ 2811
actu@@ 2803
derni@@ 2798
respons@@ 2798
Bureau 2795
ellement 2794
commun@@ 2789
cri@@ 2786
compét@@ 2784
ensemble 2784
pendant 2782
séance 2774
ff@@ 2770
dou@@ 2753
ret@@ 2747
CE@@ 2746
man@@ 2746
he@@ 2743
selon 2740
inst@@ 2738
illes 2734
ve@@ 2734
rapports 2733
outre 2732
société 2727
mati@@ 2725
rée 2725
sup@@ 2725
11 2723
réunion 2723
contrôle 2717
produits 2715
quement 2709
Programme 2708
certains 2705
possible 2705
secteur 2703
ig@@ 2701
social 2701
travail@@ 2700
période 2698
gar@@ 2695
position 2695
ra 2693
bl@@ 2692
présent 2687
rou@@ 2685
onc@@ 2684
val@@ 2684
renforcer 2681
cul@@ 2680
Unis 2676
résultats 2672
x 2672
Cette 2671
ceux 2666
Au 2662
c&apos; 2662
problèmes 2657
sec@@ 2656
soci@@ 2654
ouver@@ 2653
bles 2651
représent@@ 2649
groupes 2642
main@@ 2642
trois 2642
peu@@ 2641
accord 2634
isation 2632
fac@@ 2625
.1 2624
note 2622
sions 2616
exemple 2610
inform@@ 2610
ains 2605
la@@ 2605
fs 2604
stat@@ 2601
conna@@ 2595
&#93; 2594
discrimination 2594
relatives 2594
étrang@@ 2593
chaque 2592
Une 2589
tent 2587
atif 2584
publi@@ 2583
mondiale 2582
arm@@ 2575
projets 2571
part@@ 2567
pe@@ 2567
Si 2563
lutte 2559
laquelle 2555
199@@ 2548
chang@@ 2546
population 2546
plusieurs 2544
13 2542
essenti@@ 2540
souha@@ 2540
sub@@ 2534
année 2532
dur@@ 2532
cu@@ 2528
ple@@ 2526
En@@ 2524
modi@@ 2523
recommandations 2521
sy@@ 2521
communauté 2519
nouveau 2519
centr@@ 2517
étaient 2517
assistance 2516
te@@ 2515
C&apos; 2508
endant 2505
évaluation 2501
19@@ 2498
agne 2495
contribu@@ 2492
tique 2492
tou@@ 2490
Des 2488
génér@@ 2478
déclar@@ 2477
ice 2475
sc@@ 2464
détermin@@ 2462
utilisation 2462
ologi@@ 2460
vers@@ 2458
organismes 2453
prises 2448
fl@@ 2447
Elle 2446
fic@@ 2444
abor@@ 2442
conséqu@@ 2438
première 2437
années 2436
Mme 2433
qualité 2430
ître 2422
nom 2420
do@@ 2415
NU@@ 2414
voy@@ 2402
14 2401
exercice 2399
18 2397
ell@@ 2394
justice 2390
ous 2390
façon 2389
imp@@ 2380
économiques 2377
fer@@ 2376
00 2375
durable 2374
mal@@ 2374
aines 2373
Pro@@ 2370
use 2370
juin 2366
emb@@ 2364
différ@@ 2362
car@@ 2360
porte 2349
moyens 2348
état 2341
Ces 2339
enfant 2337
atte@@ 2335
atives 2334
technique 2334
rés 2331
ace 2328
faut 2323
ann@@ 2320
Parlement 2319
tor@@ 2319
opérations 2317
seront 2315
alisation 2310
améliorer 2306
effet 2304
participation 2304
peti@@ 2303
dat@@ 2298
ins 2298
app@@ 2297
stratégi@@ 2294
20@@ 2288
pi@@ 2285
associ@@ 2284
.2@@ 2282
pri@@ 2281
public@@ 2278
fonds 2276
ets 2275
examin@@ 2274
augment@@ 2272
ouv@@ 2271
service 2270
tenant 2265
exist@@ 2263
financement 2263
savoir 2261
don@@ 2259
violence 2259
2009 2258
annexe 2256
cli@@ 2256
mor@@ 2256
représentants 2253
mondial 2252
sujet 2246
Monsieur 2239
pourr@@ 2238
charg@@ 2237
nécessaires 2237
déjà 2232
mission 2232
administr@@ 2229
heures 2229
important 2229
issent 2226
prior@@ 2224
préoccup@@ 2223
ête 2223
porter 2222
pe 2220
progrès 2216
issance 2211
organisation 2208
importance 2207
ut 2207
w@@ 2207
ayant 2205
ing@@ 2200
dée 2197
cela 2194
pose 2194
X@@ 2193
régl@@ 2193
exp@@ 2189
produ@@ 2186
ennes 2185
besoins 2183
ennent 2181
budget 2180
nes 2178
dre 2177
experts 2177
grande 2171
O 2167
entreprises 2164
public 2162
ar 2160
acte 2157
mer 2154
ré 2154
commerce 2152
premier 2147
nationales 2145
avaient 2144
cont@@ 2144
limit@@ 2144
serait 2144
équi@@ 2143
administration 2142
félic@@ 2140
égalité 2140
conven@@ 2134
tation 2134
nécessaire 2129
Parties 2128
domaines 2128
cro@@ 2127
date 2127
deuxième 2126
millions 2125
appu@@ 2121
missions 2118
On 2114
région@@ 2112
fé@@ 2111
nouvelles 2108
site 2104
actions 2103
création 2101
juillet 2100
êts 2100
andes 2099
autorités 2098
cin@@ 2096
iser 2091
entr@@ 2089
devraient 2087
ines 2087
facil@@ 2086
sociale 2086
tefois 2086
Com@@ 2080
mandat 2078
isse 2077
hui 2069
suffis@@ 2068
vient 2068
coordination 2066
enqu@@ 2066
internationaux 2066
sex@@ 2060
comb@@ 2059
recommand@@ 2057
emploi 2056
documents 2055
tées 2050
cer@@ 2049
débat 2048
tric@@ 2048
M 2043
personne 2043
fique 2041
march@@ 2040
négoci@@ 2035
terme 2034
procédure 2028
Membres 2027
mois 2027
texte 2027
septembre 2026
.2 2023
Par 2023
prév@@ 2022
ement@@ 2020
pou@@ 2020
fav@@ 2019
seulement 2019
k 2017
éd@@ 2014
but 2013
suivi 2011
promouvoir 2009
prim@@ 2008
asse 2007
ru@@ 2007
raison 2006
des@@ 2005
présente 2004
De@@ 2003
destin@@ 2003
H 2001
cep@@ 2000
respect 1999
meil@@ 1998
to@@ 1998
ani@@ 1994
recherche 1994
exéc@@ 1993
... 1990
pauvreté 1990
problème 1990
adopté 1988
Tou@@ 1985
capacités 1984
sein 1984
bo@@ 1983
fr@@ 1982
normes 1981
16 1979
délégation 1978
pourrait 1975
formes 1973
ection 1971
tée 1969
ule 1966
ard 1964
marché 1963
1999 1962
concern@@ 1962
ordonn@@ 1960
ège 1959
suivre 1956
examiner 1954
Ac@@ 1953
gouvernement 1953
terrorisme 1952
toujours 1951
novembre 1949
promotion 1949
tro@@ 1948
17 1947
milit@@ 1947
fais@@ 1946
alim@@ 1942
aï@@ 1942
inf@@ 1941
ma@@ 1934
0 1933
représentant 1933
ici 1932
quer 1932
occup@@ 1931
abil@@ 1930
déb@@ 1928
objet 1924
B 1923
not@@ 1922
acqu@@ 1918
nouveaux 1917
renforcement 1917
aci@@ 1915
tenue 1912
ative 1911
étant 1910
octobre 1909
proposition 1909
diff@@ 1908
10@@ 1907
log@@ 1907
observ@@ 1907
pen@@ 1906
pouv@@ 1906
prévention 1906
maintien 1903
sal@@ 1903
esti@@ 1902
rir 1901
enn@@ 1899
ples 1896
décisions 1895
plu@@ 1895
européen 1891
ches 1890
formul@@ 1890
ligne 1885
oires 1884
principes 1883
uses 1883
arg@@ 1882
vou@@ 1882
j&apos; 1881
requ@@ 1880
responsabilité 1880
déclaration 1879
to 1878
ak@@ 1877
montant 1877
ign@@ 1876
judici@@ 1873
dire 1871
métho@@ 1869
secrétariat 1867
taux 1862
ève 1861
tiques 1860
faveur 1859
eau 1858
aider 1856
our 1855
face 1854
Fonds 1847
proc@@ 1846
iques 1845
mars 1837
exig@@ 1836
organes 1836
systèmes 1835
tient 1835
fu@@ 1834
appel@@ 1833
G 1831
enc@@ 1831
anc@@ 1829
objectif 1829
mai 1828
50 1826
amélior@@ 1824
ib@@ 1823
auprès 1821
développ@@ 1819
ration 1819
nouvelle 1817
ariat 1816
he 1815
hé@@ 1814
règlement 1814
car 1813
ération 1809
sti@@ 1808
Au@@ 1805
ant@@ 1803
grand 1803
ON@@ 1801
attention 1801
ler 1798
les@@ 1798
actes 1797
irs 1797
tif 1795
établissement 1795
liqu@@ 1793
ress@@ 1793
soulign@@ 1793
renseignements 1791
adoption 1790
certaines 1790
méd@@ 1788
reconna@@ 1788
consac@@ 1787
mi 1787
type 1786
conférence 1785
caract@@ 1784
gé@@ 1784
ls 1783
tives 1783
institu@@ 1782
met@@ 1782
pren@@ 1782
gouvernements 1781
mob@@ 1780
civile 1779
adress@@ 1778
afric@@ 1777
entation 1776
pratiques 1775
str@@ 1773
victimes 1773
volon@@ 1772
celui 1771
identi@@ 1771
jusqu&apos; 1771
û@@ 1769
tels 1768
ins@@ 1767
ix 1767
euses 1766
vertu 1766
ième 1764
Su@@ 1763
liste 1762
ni 1762
ole 1761
ilité 1760
appliqu@@ 1756
! 1753
nécessité 1751
production 1751
orig@@ 1750
celle 1749
mod@@ 1749
quels 1749
gouvernementales 1748
nombreux 1747
relative 1747
éléments 1747
pertin@@ 1746
gues 1745
VI@@ 1744
extr@@ 1744
particip@@ 1744
transport 1744
moyen 1743
intéress@@ 1742
esse 1741
prépar@@ 1740
25 1739
avril 1738
disponib@@ 1736
fondament@@ 1734
pouvoir 1734
quelles 1733
respec@@ 1732
Déclaration 1731
fiques 1729
assur@@ 1727
cher 1727
60 1725
envir@@ 1725
est@@ 1725
posi@@ 1725
effectu@@ 1724
cour@@ 1721
réc@@ 1719
aujourd&apos; 1718
réunions 1718
publique 1717
aff@@ 1714
nationaux 1713
ay@@ 1712
Cour 1711
intérieur 1711
sol@@ 1710
cal@@ 1708
sommes 1705
télé@@ 1704
12@@ 1701
ali@@ 1701
principe 1700
urg@@ 1700
vision 1700
donner 1696
fins 1694
Sud 1693
fin@@ 1690
jeunes 1690
lis@@ 1687
An@@ 1684
cam@@ 1683
reç@@ 1683
atifs 1680
procédures 1680
L 1679
législation 1676
II 1675
près 1671
dépenses 1669
soutien 1666
iti@@ 1664
famille 1662
19 1660
fournir 1660
matéri@@ 1657
alités 1656
ports 1654
ge@@ 1648
cir@@ 1647
expéri@@ 1644
of 1644
az@@ 1643
industri@@ 1643
rent 1643
donné 1641
endre 1641
Ex@@ 1640
um 1639
nom@@ 1638
Protocole 1637
acti@@ 1637
techniques 1636
tenus 1636
Commiss@@ 1635
communication 1634
présenté 1632
ide 1628
particulièrement 1627
éco@@ 1625
F 1621
ang@@ 1621
celles 1621
the 1620
vention 1618
jo@@ 1617
Dé@@ 1616
territoire 1616
intérêt 1615
ailleurs 1614
out 1612
prés@@ 1610
one 1608
N 1604
besoin 1604
donn@@ 1603
ici@@ 1602
rapp@@ 1602
étude 1602
protég@@ 1599
diver@@ 1598
ple 1594
différents 1593
tel 1593
ôt 1592
juridique 1591
TI@@ 1589
ies 1588
élev@@ 1588
janvier 1587
portant 1586
amend@@ 1585
ions 1585
rées 1584
Gu@@ 1583
const@@ 1583
ment@@ 1580
ationn@@ 1579
os 1579
commerci@@ 1578
encourag@@ 1578
stratégie 1577
Z@@ 1576
exprim@@ 1576
1er 1575
enreg@@ 1572
iste 1572
amment 1569
ors 1568
bonne 1566
élaboration 1562
vent 1561
véhic@@ 1561
avis 1560
prix 1560
install@@ 1558
proch@@ 1558
prom@@ 1558
Ministère 1557
résolutions 1556
particuli@@ 1555
décidé 1554
prof@@ 1554
clai@@ 1553
prend 1553
arr@@ 1552
indre 1552
lég@@ 1551
police 1551
Mo@@ 1549
appropri@@ 1549
devant 1549
permettre 1549
24 1548
alors 1547
figur@@ 1547
21 1546
mieux 1546
Ar@@ 1544
exécution 1544
maj@@ 1544
dro@@ 1543
Y@@ 1542
aucune 1542
fix@@ 1542
D&apos; 1540
créer 1538
èrement 1537
31 1536
opér@@ 1536
humanitaire 1535
arri@@ 1533
indépend@@ 1532
ète 1531
emp@@ 1530
haut 1526
Canada 1525
Direc@@ 1524
fonction 1523
réfugiés 1523
demand@@ 1522
PNU@@ 1521
ju@@ 1521
envis@@ 1520
règles 1518
affec@@ 1515
popul@@ 1515
ille 1514
liberté 1514
rése@@ 1514
annu@@ 1513
éra@@ 1513
hau@@ 1511
13@@ 1508
Tra@@ 1508
dev@@ 1507
mé@@ 1505
nat@@ 1505
instruments 1504
lanc@@ 1504
beaucoup 1503
investiss@@ 1503
sexu@@ 1503
tail@@ 1502
J&apos; 1500
pre 1500
peu 1499
professionn@@ 1499
sensib@@ 1499
indiqu@@ 1498
omm@@ 1497
ate@@ 1495
chargé 1494
actuellement 1493
arab@@ 1493
hommes 1493
ne@@ 1490
voudrais 1490
érie@@ 1490
fonc@@ 1489
palestini@@ 1489
198@@ 1488
col@@ 1487
conflits 1487
adap@@ 1486
zones 1486
Règ@@ 1485
devons 1485
no 1485
régions 1485
sais@@ 1484
statisti@@ 1484
supplé@@ 1484
tive 1484
pression 1483
conflit 1482
conf@@ 1480
désarmement 1480
budg@@ 1479
contributions 1479
mentaires 1479
* 1478
dation 1478
présentant 1474
équ@@ 1474
avantage 1473
spéciale 1473
or 1472
spécialis@@ 1470
preu@@ 1468
sû@@ 1465
atoire 1464
Pré@@ 1461
érieur 1461
mu@@ 1459
ud@@ 1458
Mon@@ 1457
isme 1457
nucléaires 1456
dr@@ 1455
rais@@ 1455
ric@@ 1454
traitement 1454
lorsque 1453
quoi 1453
ure@@ 1453
Département 1451
Rapport 1451
Si@@ 1451
moment 1450
C.@@ 1449
évalu@@ 1448
issement 1447
avanc@@ 1446
niveaux 1443
anci@@ 1441
citoyens 1441
obligations 1441
oph@@ 1439
ax@@ 1438
pa@@ 1438
tifs 1437
points 1436
just@@ 1432
ène 1432
inscri@@ 1431
demandé 1429
efficacité 1426
régional 1426
fo@@ 1425
mon 1425
énergie 1425
chamb@@ 1424
puis 1424
mécanismes 1423
pratique 1421
telles 1419
olu@@ 1418
étro@@ 1417
agit 1416
communi@@ 1416
ate 1415
long 1415
culturel@@ 1413
délég@@ 1413
propositions 1413
assi@@ 1412
applic@@ 1411
relations 1406
enseignement 1405
Mission 1404
indic@@ 1404
iv@@ 1404
Am@@ 1403
Secrétariat 1403
confi@@ 1403
oris@@ 1403
adi@@ 1401
condu@@ 1400
accue@@ 1399
aucun 1399
erre 1399
orer 1398
veill@@ 1398
liv@@ 1397
tur@@ 1397
dernier 1396
effets 1396
ens@@ 1396
dom@@ 1395
let@@ 1395
mun@@ 1395
Mal@@ 1393
obtenir 1392
perman@@ 1392
économie 1392
Mar@@ 1390
efficace 1389
autochtones 1388
quel 1388
certain 1387
éli@@ 1387
occasion 1382
go@@ 1381
Gr@@ 1378
vigueur 1378
quelques 1377
der 1374
grâce 1373
habit@@ 1373
relatifs 1373
régionales 1373
approuv@@ 1372
solution 1372
Ou@@ 1371
Co@@ 1370
22 1369
Som@@ 1369
Amérique 1366
centre 1366
Cor@@ 1365
chi@@ 1364
postes 1364
tron@@ 1364
telle 1363
établir 1362
établi@@ 1359
consultatif 1358
oir 1357
23 1356
di 1355
trait@@ 1355
troisième 1355
réalisation 1352
struc@@ 1351
dam@@ 1350
remerci@@ 1350
souvent 1350
fau@@ 1349
,000 1348
lang@@ 1348
rendre 1347
fications 1346
intitul@@ 1346
ises 1345
ilisation 1344
15@@ 1343
capacité 1342
initiatives 1342
ition 1340
jug@@ 1339
vos 1339
accords 1338
lande 1338
vez 1338
consultations 1336
février 1336
quatre 1336
dispos@@ 1335
sidence 1335
nie 1334
hôtel 1333
efficac@@ 1331
succ@@ 1329
financières 1328
tradi@@ 1327
Pr@@ 1326
démocrati@@ 1326
indiqué 1326
inement 1326
migr@@ 1326
religi@@ 1326
sociaux 1326
cle 1325
effecti@@ 1325
aspects 1324
garantir 1324
rati@@ 1323
rég@@ 1323
étudi@@ 1323
appliquer 1320
correspon@@ 1320
nu@@ 1318
sus 1318
fié 1317
intention 1317
personn@@ 1317
législ@@ 1316
Haut 1315
exc@@ 1315
jours 1315
va 1315
possibilité 1314
provisoire 1313
émati@@ 1312
érie 1312
hu@@ 1311
ordinaire 1310
rig@@ 1309
bénéfici@@ 1306
ord 1306
compos@@ 1305
eur@@ 1305
intégration 1305
reste 1305
réduire 1305
1.@@ 1304
Isra@@ 1304
font 1304
gn@@ 1304
catég@@ 1303
dialogue 1303
disposition 1302
fronti@@ 1302
yer 1302
63 1299
Comme 1299
élimination 1299
mement 1296
surveill@@ 1295
vic@@ 1295
précéd@@ 1294
biens 1290
ël 1289
démocratique 1287
croissance 1286
estim@@ 1286
Sou@@ 1283
crimin@@ 1283
traite 1283
août 1282
ban@@ 1282
ev@@ 1282
juridi@@ 1282
Q@@ 1281
commission 1281
ager 1280
existe 1280
sem@@ 1280
ner 1279
régi@@ 1278
change 1277
relatif 1277
dang@@ 1276
érieure 1275
ext@@ 1271
fai@@ 1271
memb@@ 1271
activité 1270
cinq 1270
salle 1270
vote 1270
anglais 1269
lequel 1269
recours 1269
participer 1268
UE 1267
valeur 1267
incid@@ 1265
appel 1264
serve 1263
ges 1262
possib@@ 1262
ES 1261
long@@ 1260
étu@@ 1260
1,@@ 1258
Ce@@ 1258
rage 1258
lois 1257
No@@ 1255
oe@@ 1255
55 1254
contexte 1254
Mais 1251
ail 1250
égi@@ 1250
tour@@ 1248
véri@@ 1248
tiers 1246
itable 1245
érer 1245
êtes 1245
réduction 1242
chap@@ 1241
L.@@ 1236
quel@@ 1236
ult@@ 1233
forces 1231
nombre@@ 1228
uc@@ 1228
enf@@ 1226
garanti@@ 1226
26 1223
fem@@ 1219
mis@@ 1219
zone 1218
multi@@ 1217
trav@@ 1217
territ@@ 1216
articles 1215
tab@@ 1215
40 1214
financ@@ 1213
infr@@ 1213
ran@@ 1213
Vous 1212
équip@@ 1211
ing 1209
établiss@@ 1207
1998 1206
18@@ 1203
Centre 1202
collaboration 1202
expos@@ 1202
Asi@@ 1199
qué 1199
27 1197
employ@@ 1196
procéd@@ 1196
reven@@ 1196
sident 1196
ef 1191
propri@@ 1191
charge 1190
Un@@ 1189
uvre 1189
cher@@ 1188
MI@@ 1184
bon 1184
soins 1183
conse@@ 1182
Roy@@ 1181
OM@@ 1180
pol@@ 1179
recomm@@ 1179
istr@@ 1178
asi@@ 1175
mises 1174
ord@@ 1174
aven@@ 1173
me@@ 1173
reau 1173
férence 1170
ave@@ 1169
cid@@ 1167
ense 1166
Minis@@ 1165
be 1165
viv@@ 1164
rés@@ 1163
tention 1162
analyse 1161
explo@@ 1159
tot@@ 1159
ules 1159
concl@@ 1158
suit 1157
Pre@@ 1156
ma 1156
mê@@ 1155
DE 1154
ï@@ 1151
sul@@ 1150
ep@@ 1149
28 1148
cat@@ 1148
construction 1148
ps 1148
Ann@@ 1147
engagement 1147
hist@@ 1147
Code 1146
ville 1143
rev@@ 1142
mondi@@ 1141
nature 1141
total 1141
ouvel@@ 1139
manif@@ 1137
vol@@ 1137
bie 1134
consult@@ 1134
minis@@ 1133
difficul@@ 1132
Char@@ 1131
résul@@ 1131
jus@@ 1129
inqui@@ 1126
fran@@ 1124
lier 1124
mari@@ 1124
Vi@@ 1123
accord@@ 1123
bil@@ 1123
− 1123
CN@@ 1122
affirm@@ 1122
cre@@ 1121
trad@@ 1121
erg@@ 1120
ption 1120
exploitation 1119
exe 1117
observations 1117
union 1116
dispens@@ 1113
emplo@@ 1113
Gen@@ 1112
are 1112
individu@@ 1112
affir@@ 1111
appar@@ 1110
neu@@ 1110
sep@@ 1109
olution 1106
rant 1104
tiv@@ 1104
cau@@ 1103
ili@@ 1101
58 1097
vari@@ 1096
pris@@ 1094
we@@ 1091
consoli@@ 1089
participants 1089
fourni@@ 1087
plans 1087
étab@@ 1087
permanent 1086
port 1084
large 1083
som@@ 1083
Ad@@ 1081
CO@@ 1081
ail@@ 1081
cause 1081
eng@@ 1078
organ@@ 1077
Russi@@ 1075
exerc@@ 1075
technologi@@ 1075
expres@@ 1074
_ 1072
accep@@ 1071
br@@ 1069
pério@@ 1069
milli@@ 1068
obligation 1068
situ@@ 1068
curr@@ 1066
technologies 1066
terroris@@ 1066
contin@@ 1065
gouvernement@@ 1064
vul@@ 1063
hand@@ 1061
violations 1061
Sal@@ 1060
contribution 1060
14@@ 1059
v 1059
famili@@ 1057
lors@@ 1057
prog@@ 1057
hy@@ 1056
rend@@ 1056
61 1055
ette 1054
end 1053
impos@@ 1052
29 1049
iter@@ 1049
num@@ 1049
ron@@ 1049
Bi@@ 1048
capit@@ 1047
ed 1045
Rapporteur 1043
are@@ 1043
time 1043
viol@@ 1042
ef@@ 1041
europé@@ 1041
table 1041
Web 1039
structures 1039
culture 1038
insp@@ 1038
France 1037
menti@@ 1036
59 1035
• 1035
initiative 1033
œ@@ 1033
ature 1032
simp@@ 1032
Bo@@ 1030
nor@@ 1030
ffici@@ 1029
force 1028
istan 1028
satis@@ 1027
titu@@ 1027
Point 1026
êt 1026
version 1024
17@@ 1023
cap@@ 1020
hom@@ 1020
resp@@ 1020
concep@@ 1019
lev@@ 1019
Doc@@ 1018
compli@@ 1018
extra@@ 1017
minu@@ 1016
57 1013
qua@@ 1013
ONU@@ 1012
amb@@ 1011
accept@@ 1009
ue@@ 1006
Car@@ 1005
Tribunal 1004
vot@@ 1003
Constitution 1002
intér@@ 1002
ul 1002
und@@ 1001
.4 1000
Lib@@ 999
itation 998
tin@@ 998
onnement 997
ploy@@ 996
mécanis@@ 989
og@@ 989
agricul@@ 988
transpar@@ 983
conform@@ 981
UN@@ 979
Pri@@ 977
torture 976
candi@@ 974
centres 974
nav@@ 974
joint 973
AC@@ 972
soli@@ 972
tis@@ 972
auté 970
reg@@ 970
rest@@ 970
Mill@@ 969
af@@ 969
multilat@@ 967
Commun@@ 966
ade 966
be@@ 966
ental 966
transfer@@ 966
ient 965
56 963
auv@@ 963
continue 963
inten@@ 963
cy@@ 961
jur@@ 960
out@@ 960
197@@ 958
U 958
Plan 957
tine 957
For@@ 955
V 955
ase 955
sanc@@ 955
section 955
intro@@ 952
exclu@@ 951
sci@@ 951
dic@@ 950
fam@@ 949
Internet 948
am 947
condition 947
tribu@@ 946
2010 945
gl@@ 945
initi@@ 945
terr@@ 944
absence 943
distin@@ 943
ile 943
pes 939
ands 938
direction 936
journ@@ 936
prot@@ 936
can@@ 935
Mad@@ 934
mul@@ 934
conclusions 933
sive 933
Iraq 930
New 930
Ser@@ 930
six 930
glob@@ 929
lim@@ 929
pens@@ 928
tex@@ 928
satisfaction 926
harmon@@ 925
analy@@ 923
Institu@@ 922
crime 921
omati@@ 921
placement 921
excep@@ 920
ventions 920
communications 919
élimin@@ 918
élé@@ 918
bun@@ 916
lut@@ 916
bour@@ 915
norm@@ 914
pai@@ 914
jet 913
st 913
produc@@ 912
quar@@ 912
recru@@ 912
univers@@ 912
venant 912
1997 911
emble 911
Di@@ 909
solutions 909
art 908
ame 907
scienti@@ 907
enseign@@ 904
So@@ 903
maxim@@ 903
ût 903
El@@ 902
encoura@@ 902
ref@@ 902
tures 902
.3 901
WP@@ 900
tain@@ 897
transition 897
pul@@ 896
impact 894
Division 891
instrument 890
oblig@@ 889
fic 888
sources 884
Office 883
ht@@ 883
mer@@ 882
onne 882
tification 882
plé@@ 880
termin@@ 880
Th@@ 876
det@@ 876
olog@@ 872
essi@@ 870
nuclé@@ 870
ective 869
ograp@@ 868
premi@@ 867
stoc@@ 867
000 865
mand@@ 865
physi@@ 865
agric@@ 862
ards 860
cent@@ 860
lig@@ 860
int 859
ethni@@ 858
grap@@ 857
obstac@@ 856
ore 856
secon@@ 856
ber@@ 855
rac@@ 855
Ob@@ 851
ad 851
devr@@ 851
nég@@ 851
ii 850
violation 849
anim@@ 847
bunal 847
ties 846
EN@@ 845
gén@@ 841
ambi@@ 839
indi@@ 838
oire 838
èg@@ 838
ho@@ 836
q@@ 836
ors@@ 835
UNICEF 834
York 834
gen@@ 833
hor@@ 833
incl@@ 833
inc@@ 832
dém@@ 830
ion 830
ga@@ 829
ordin@@ 829
persp@@ 829
Article 826
unique 825
appr@@ 824
confir@@ 823
lem@@ 822
illi@@ 821
raci@@ 821
Pl@@ 819
tat 819
mag@@ 818
paragraph@@ 816
pp@@ 816
St@@ 815
1995 814
sessions 814
iz@@ 812
Tur@@ 811
opération 809
prov@@ 808
-- 807
page 804
Forum 803
16@@ 798
ah@@ 798
Fin@@ 796
attach@@ 796
avant@@ 795
1996 793
3.@@ 793
arbit@@ 793
susp@@ 793
ti 793
2,@@ 792
porteur 791
pay@@ 790
bénéfic@@ 788
ES@@ 786
Ag@@ 785
sib@@ 785
urb@@ 780
Rec@@ 779
moder@@ 778
SI@@ 777
parents 777
dies 774
62 772
oi 771
pan@@ 767
� 767
potenti@@ 765
hô@@ 764
moy@@ 763
ours 762
IN@@ 761
Pal@@ 761
45 757
quali@@ 757
der@@ 755
gouvern@@ 755
HC@@ 753
crimes 753
lif@@ 753
apon 752
conclu@@ 752
AN@@ 751
Congo 751
cial 751
X 749
situations 749
consul@@ 748
Add@@ 747
Service 747
fron@@ 747
super@@ 747
syst@@ 747
humanit@@ 746
www.un.org 745
AI@@ 743
érence 743
lin@@ 742
ong@@ 742
plo@@ 742
ote 740
tim@@ 740
III 739
nam@@ 739
duc@@ 738
Note 736
fig@@ 735
pauv@@ 733
sum@@ 732
° 732
100 731
rédu@@ 731
ye@@ 730
35 729
ind@@ 729
pli@@ 729
istance 727
ession 726
Le@@ 723
Sy@@ 723
assu@@ 723
da 723
ruption 721
iture 719
Afghanistan 718
90 715
issions 714
No 713
TA@@ 709
concer@@ 708
diction 708
ination 708
uments 708
AR@@ 707
lign@@ 706
exemp@@ 704
obj@@ 704
80 703
CC@@ 703
option 703
renforc@@ 702
destruc@@ 698
pers@@ 698
recher@@ 698
liber@@ 697
activ@@ 696
cent 694
radi@@ 694
larg@@ 693
structure 693
Ira@@ 692
compar@@ 692
distribu@@ 692
sh@@ 691
ade@@ 689
isl@@ 689
cru@@ 685
reté 683
2.@@ 682
quelle 678
Jo@@ 677
lée 676
70 674
Nor@@ 672
tic@@ 668
ays 667
gh@@ 667
pal@@ 666
local 665
IS@@ 664
Kosovo 664
51 663
ome 663
ton 663
Col@@ 662
dépend@@ 662
nécess@@ 661
sible 660
cha@@ 659
conci@@ 659
International 658
ana 658
del@@ 656
ories 656
Cro@@ 653
dés@@ 652
54 651
ution 651
4.@@ 650
effor@@ 650
issue 649
per 649
signi@@ 649
jeun@@ 648
Ap@@ 646
consid@@ 646
nation@@ 644
asp@@ 642
changes 642
GR@@ 641
erc@@ 641
types 641
arch@@ 640
bru@@ 639
subst@@ 638
tem@@ 638
bur@@ 636
gie 636
ementation 635
TRAN@@ 632
ensus 631
sl@@ 630
sites 629
tre@@ 628
ments 627
Be@@ 626
final 626
Ko@@ 625
ates 625
Bur@@ 623
enni@@ 623
ya 623
certain@@ 622
contact 621
asse@@ 620
33 619
Per@@ 619
restric@@ 619
&amp; 617
Bel@@ 617
sit@@ 617
source 615
PR@@ 610
uv@@ 609
37 608
construc@@ 607
fil@@ 607
sug@@ 605
yp@@ 604
Por@@ 603
aut 603
rece@@ 603
rier 603
32 602
rit@@ 602
Dem@@ 601
ay 600
occu@@ 600
opinion 600
48 599
www.@@ 599
Add.1 598
ard@@ 597
main 597
nou@@ 595
ks 594
vir@@ 593
har@@ 592
correc@@ 591
uation 590
ds 589
Mex@@ 588
forc@@ 587
migration 586
Ital@@ 585
for 584
K 581
seil 581
érique 579
Po@@ 578
ectu@@ 578
Se@@ 574
docum@@ 574
Ab@@ 573
ital 572
tran@@ 572
5.@@ 571
Associ@@ 570
mes@@ 570
ulation 570
limin@@ 569
ation@@ 567
inclu@@ 567
Cuba 566
addi@@ 565
mp@@ 565
règ@@ 565
Her@@ 562
je@@ 561
Cam@@ 559
tats 559
cip@@ 557
ka 557
duction 556
gro@@ 555
mil@@ 555
six@@ 554
commer@@ 551
èmes 551
64 549
Ro@@ 549
pon@@ 549
minimum 547
prob@@ 545
cad@@ 544
act@@ 543
gan@@ 543
Univers@@ 542
ux@@ 542
ffic@@ 541
innov@@ 540
Str@@ 538
distribution 538
aint 536
appli@@ 536
Tim@@ 530
ends 530
relevant 529
tat@@ 528
lit@@ 527
prati@@ 523
Section 517
ce@@ 516
refl@@ 516
infra@@ 515
active 513
ON 512
positions 512
sieurs 510
00@@ 509
anit@@ 507
ol 507
air 505
sk@@ 504
ases 503
global 503
mater@@ 502
nov@@ 501
tien 501
net 499
ub@@ 498
abs@@ 495
minim@@ 495
Austr@@ 494
Administr@@ 492
manu@@ 492
ed@@ 490
ch 488
ect 488
jud@@ 488
Hotel 487
aw@@ 487
Af@@ 485
UNI@@ 484
-@@ 483
discus@@ 483
économi@@ 482
effective 481
fre@@ 479
ia 479
exam@@ 478
IC@@ 477
ong 476
Or@@ 474
û 474
clim@@ 472
former 472
Rap@@ 471
Slo@@ 471
hen@@ 468
The 467
sen@@ 466
ort 465
arrang@@ 464
civil 464
nal 464
tec@@ 463
ER@@ 462
hon@@ 460
effort 458
incip@@ 458
net@@ 455
cop@@ 453
grès 452
Fr@@ 451
once 451
IV 450
char@@ 450
grou@@ 448
On@@ 447
Sup@@ 447
man 447
opport@@ 446
investi@@ 444
sm@@ 444
ina 443
ument 443
rét@@ 442
infrastructure 438
rele@@ 438
uxième 436
auto@@ 435
ision 435
vé@@ 434
poli@@ 433
stitution 430
fra@@ 429
tern@@ 429
oll@@ 428
up@@ 428
esses 425
cit@@ 424
ince 424
Organ@@ 423
Li@@ 422
arb@@ 421
expert 421
@ 420
Stat@@ 420
xim@@ 419
alloc@@ 418
bal@@ 416
fe@@ 416
atis@@ 413
bre@@ 413
Jus@@ 412
lit 412
program@@ 412
cel@@ 411
ices 410
ner@@ 410
+ 409
mat@@ 408
érale 408
W 407
em 406
Ter@@ 405
ave 405
ui 405
© 404
= 400
vie@@ 398
lob@@ 397
TR@@ 396
ussi@@ 395
ze 395
&gt; 393
bri@@ 393
turel@@ 393
discussion 391
temp@@ 389
á@@ 388
times 387
clo@@ 386
acts 385
direct 384
discrimin@@ 384
ques@@ 382
titul@@ 382
civi@@ 380
vidence 380
agrap@@ 378
atégi@@ 377
Pe@@ 375
agement 374
ech@@ 374
oi@@ 374
Fon@@ 372
í@@ 372
transi@@ 371
Is@@ 369
cle@@ 368
vid@@ 367
Dis@@ 365
four 364
Ne@@ 363
clu@@ 363
ical 363
relev@@ 363
Ara@@ 362
citoy@@ 362
court 358
cus@@ 357
quot@@ 357
ECE 356
facilit@@ 355
ha@@ 350
ws 350
due 349
Г 349
administrative 348
til 348
inal 346
suff@@ 346
jour@@ 345
EC@@ 344
oms 344
pre@@ 344
Can@@ 342
pap@@ 341
&#@@ 340
Man@@ 340
Res@@ 340
descri@@ 338
partement 338
finan@@ 337
.org 336
200@@ 336
Palestini@@ 332
j 332
issu@@ 328
Bu@@ 327
cen@@ 327
signific@@ 327
rural 326
reli@@ 325
all 324
velopp@@ 324
zer@@ 324
$ 321
id 321
coup 320
fondam@@ 320
isième 319
He@@ 318
order 318
positive 318
étr@@ 318
veau 317
embre 313
jourd&apos; 313
&@@ 312
t; 312
ó@@ 312
proj@@ 310
rique 309
âce 309
ones 308
Y 307
aly@@ 307
angl@@ 306
anu@@ 306
olo@@ 305
ars 304
ity 304
péri@@ 304
Im@@ 303
Inter@@ 303
ow@@ 302
auss@@ 301
istère 301
th 301
mani@@ 300
ting 299
doc@@ 298
Op@@ 297
truc@@ 297
Sp@@ 292
eg@@ 292
........@@ 291
sidé@@ 290
voudr@@ 290
un.org 289
condi@@ 287
eff@@ 287
ges@@ 287
Me@@ 286
do 282
enter@@ 282
san@@ 282
ö@@ 282
lits 281
seul@@ 281
provis@@ 280
Uni@@ 279
Poli@@ 278
air@@ 278
oun@@ 278
ok 277
by 276
ean 276
enforc@@ 276
ü@@ 276
isions 275
regard 273
opin@@ 272
ource 272
alogue 269
ber 269
dra@@ 269
tice 269
ther@@ 268
éner@@ 268
secrét@@ 265
second 264
Action 263
DP 262
ivent 262
sécur@@ 261
Ass@@ 257
lat@@ 256
we 256
Trans@@ 255
fer 255
Aff@@ 254
ic 251
vice 249
ary 248
ange 246
w 246
ft 245
occ@@ 244
abliss@@ 243
sch@@ 243
abo@@ 242
Europ@@ 240
béné@@ 240
ive 240
asion 238
cs 238
land 238
ot 238
J 236
future 236
ty@@ 235
conduc@@ 234
king 234
ty 234
Indi@@ 233
bro@@ 233
million 233
Aus@@ 232
tenti@@ 231
carri@@ 230
exten@@ 230
ms 230
Acc@@ 228
dge 228
perform@@ 227
so 226
sw@@ 223
tho@@ 223
effici@@ 222
anis@@ 220
stand@@ 220
odi@@ 218
® 218
echn@@ 217
performance 215
substanti@@ 214
ly 213
enh@@ 212
ste@@ 212
tal@@ 211
hol@@ 210
tries 210
expl@@ 209
Em@@ 208
bel@@ 208
Envir@@ 207
corpor@@ 207
Pub@@ 206
auc@@ 206
essions 206
gueur 206
impl@@ 204
ose 203
Min@@ 202
Pan@@ 202
abit@@ 202
Prot@@ 201
side 201
Go@@ 199
ador 199
ause 199
renseign@@ 199
indivi@@ 198
# 197
ources 197
ke@@ 195
poin@@ 195
probl@@ 195
Ho@@ 194
del 194
dri@@ 194
lead@@ 194
ects 193
utive 193
repor@@ 192
suc@@ 192
lam@@ 191
ack@@ 190
act 190
ek 190
lab@@ 190
als 189
Tri@@ 188
ä@@ 187
support 186
ke 184
val 184
with 184
stitu@@ 183
hal@@ 182
Fe@@ 181
indus@@ 180
oy@@ 180
her 179
om 179
faç@@ 178
Ã 178
exper@@ 177
É 175
È@@ 174
ast 173
fir@@ 173
if 173
réfugi@@ 173
tu 173
auth@@ 172
domesti@@ 172
oura@@ 170
Sub@@ 169
aug@@ 169
ign 169
Î@@ 169
Rights 167
La@@ 166
United 166
hotel 166
Q 165
internation@@ 165
Oc@@ 164
ace@@ 161
cal 161
q 161
provi@@ 160
As@@ 159
cos@@ 158
issues 158
pend@@ 158
Law 157
Reg@@ 157
World 157
Z 156
was 156
men 154
ouse 154
ry 154
ress 153
Gouvern@@ 152
her@@ 152
course 151
doll@@ 151
od 151
National 150
écanis@@ 150
ñ@@ 150
ducation 149
requi@@ 148
ôle 148
conom@@ 147
op 147
ada 146
go 146
den 145
guid@@ 144
ich 144
ack 143
essus 143
rench 143
DS 142
..@@ 141
Development 141
Human 141
exis@@ 141
ak 140
med 140
politi@@ 139
regar@@ 139
investig@@ 137
pur@@ 137
rements 137
Fo@@ 136
mig@@ 135
onal 135
ords 134
atisti@@ 133
² 132
sel@@ 131
line 130
We@@ 129
get 129
€ 129
particu@@ 128
alth 127
ods 127
ill 126
atin@@ 125
mental 125
écur@@ 124
Fi@@ 122
erci@@ 122
sis 122
inté@@ 121
ish@@ 121
ests 119
Sec@@ 118
can 118
ffice 118
nomb@@ 118
ters 117
views 117
armement 116
ouvoir 115
ć 115
ese 114
eds 113
rom 113
Protoc@@ 112
autocht@@ 111
dy 111
fur@@ 111
airs 110
ey 110
lar@@ 110
ous@@ 110
protec@@ 110
décid@@ 109
á 109
gs 108
mom@@ 108
ings 107
aun@@ 106
olutions 106
Ger@@ 105
ency 105
isis 105
Wor@@ 104
gram@@ 103
from 102
ship 102
ated 100
obst@@ 100
º 100
four@@ 99
ize 99
particul@@ 99
vel@@ 99
way 99
ï 99
contex@@ 98
dépen@@ 98
ere 98
ã@@ 97
Dec@@ 96
up 96
enda 95
jan@@ 95
offic@@ 95
ament 94
techn@@ 93
ass 92
wn 92
unions 91
very 91
work 91
of@@ 90
tion@@ 90
the@@ 89
room 88
tern 88
that 88
tor 88
Act 87
ols 87
report 87
± 87
Americ@@ 86
ach 86
Г@@ 86
velop@@ 85
view 85
aboration 84
ith 84
tical 84
ender 83
und 83
you 83
clar@@ 81
vier 81
hel@@ 80
eso@@ 79
instr@@ 79
objecti@@ 78
ound 78
éné@@ 78
Cour@@ 77
ess 77
fun@@ 77
rest 77
wi@@ 77
ety 76
promo@@ 76
CEF 75
Council 75
Program@@ 75
ational 75
ss 75
Report 74
eth@@ 74
foc@@ 74
ild@@ 74
mit@@ 74
™ 74
law 73
lic 73
not 72
vo 72
ë 72
Group 71
ank 71
red 71
train@@ 71
ural 71
Afric@@ 70
ú@@ 70
ildren 69
ted 69
well 69
Fed@@ 68
Grou@@ 68
add@@ 68
améli@@ 68
eric@@ 68
idi@@ 68
nouvel@@ 68
standards 68
tw@@ 68
Wh@@ 67
agenda 67
ten 67
ù 67
č@@ 67
Cri@@ 66
ding 66
ial 66
illet 66
ling 66
rate 66
any 65
inter 65
Court 64
invol@@ 64
wor@@ 64
clé@@ 63
own 63
space 63
state 63
European 62
ear@@ 62
right 62
ticles 62
wat@@ 62
invest@@ 61
ther 61
usiness 61
ysi@@ 61
ator 60
medi@@ 60
old 60
ree 60
š@@ 60
ally 59
have 59
leg@@ 59
ust 59
Déclar@@ 58
\ 58
Aug@@ 57
bec@@ 57
earch 57
hic@@ 57
para 57
seign@@ 57
this 57
try 57
Nov@@ 56
Women 56
case 56
ld 56
org 56
your 56
Ê@@ 56
о@@ 56
Hum@@ 55
my 55
ren 55
è 55
ission 54
which 54
í 54
Ё@@ 54
General 53
commit@@ 53
deb@@ 52
fol@@ 52
igh@@ 52
shall 52
ide@@ 51
bia 50
has 50
ist 50
African 49
ating 49
cht@@ 49
gy 49
ness 49
éval@@ 49
ë@@ 49
√ 49
In 48
oci@@ 48
ow 48
staff 48
wh@@ 48
ablis@@ 47
ania 47
item 47
pon 47
а@@ 47
dec@@ 46
had 46
more 46
ning 46
ology 46
ual 46
ward 46
Ç@@ 46
ó 46
States 45
ao@@ 45
ben@@ 45
dg@@ 45
ful 45
major 45
mit 45
ory 45
tic 45
....@@ 44
Afgh@@ 44
Social 44
State 44
ath 44
ocrati@@ 44
pub@@ 44
than 44
{ 44
ality 43
diffic@@ 43
ensure 43
low 43
new 43
ope 43
set 43
speci@@ 43
veaux 43
н@@ 43
It 42
ited 42
otel 42
oth 42
sion@@ 42
were 42
· 42
α@@ 42
Coun@@ 41
day 41
design@@ 41
eral 41
ily 41
will 41
} 41
μ@@ 41
This 40
bet@@ 40
ener@@ 40
techni@@ 40
ying 40
∗ 40
Commis@@ 39
EU 39
ight 39
oper@@ 39
ø@@ 39
Africa 38
Mr 38
Tran@@ 38
conomi@@ 38
ems 38
ild 38
key 38
lands 38
management 38
treat@@ 38
urr@@ 38
vern@@ 38
Š@@ 38
Sum@@ 37
acy 37
elec@@ 37
ew 37
ind 37
Economic 36
Security 36
form 36
impro@@ 36
nec@@ 36
tional 36
ven 36
е@@ 36
й@@ 36
South 35
achi@@ 35
monit@@ 35
ril 35
tural 35
ways 35
и@@ 35
р@@ 35
Cub@@ 34
High 34
come 34
objectives 34
ponib@@ 34
à@@ 34
each 33
eration 33
fugi@@ 33
peri@@ 33
see 33
their 33
т@@ 33
about 32
bed 32
business 32
coordin@@ 32
current 32
equi@@ 32
ering 32
gener@@ 32
good 32
wel@@ 32
α 32
coun@@ 31
ded 31
eval@@ 31
free 31
ish 31
manent 31
now 31
ority 31
‑ 31
basi@@ 30
beau@@ 30
development 30
gni@@ 30
into 30
tain 30
urop@@ 30
¨ 30
Â@@ 30
Committee 29
Department 29
common 29
eld 29
ght 29
low@@ 29
trol 29
ving 29
would 29
≤ 29
alia 28
field 28
licy 28
other 28
rights 28
standing 28
thing 28
ww@@ 28
Conference 27
been 27
equ@@ 27
ject 27
ners 27
oring 27
set@@ 27
stain@@ 27
thers 27
¿ 27
Ã@@ 27
Special 26
europ@@ 26
ked 26
only 26
ough 26
over@@ 26
reign 26
under@@ 26
ι@@ 26
All 25
addition 25
agre@@ 25
aid 25
even 25
first 25
ful@@ 25
just 25
lack 25
néc@@ 25
oung 25
over 25
trade 25
world 25
Á@@ 25
â 25
τ@@ 25
с@@ 25
‰ 25
We 24
ders 24
elines 24
gh 24
ilities 24
ll 24
make 24
s. 24
shi@@ 24
water 24
§ 24
а 24
Fund 23
Organization 23
countries 23
his 23
many 23
plann@@ 23
saf@@ 23
small 23
some 23
usin@@ 23
victi@@ 23
ž@@ 23
́ 23
ε@@ 23
also 22
ased 22
cies 22
conflic@@ 22
ely 22
like 22
reser@@ 22
stud@@ 22
AIDS 21
Afr@@ 21
As 21
Secrét@@ 21
aring 21
cases 21
fied 21
how 21
ism 21
list 21
ological 21
there 21
tors 21
who 21
ß@@ 21
л@@ 21
Board 20
alog@@ 20
available 20
edom 20
islation 20
reat@@ 20
should 20
they 20
tit@@ 20
under 20
year 20
в@@ 20
к@@ 20
China 19
HIV 19
May 19
ability 19
adv@@ 19
area 19
light 19
system 19
through 19
where 19
£ 19
С@@ 19
≥ 19
America 18
For 18
Government 18
ask 18
best 18
deli@@ 18
dom 18
ference 18
great 18
here 18
human 18
life 18
pow@@ 18
put 18
quality 18
suppor@@ 18
ª@@ 18
å@@ 18
æ 18
ô 18
Č@@ 18
п@@ 18
Develop@@ 17
June 17
Octob@@ 17
access 17
after 17
could 17
depend@@ 17
eci@@ 17
ected 17
ept@@ 17
far 17
genous 17
made 17
refer@@ 17
review 17
sing 17
them 17
work@@ 17
¶ 17
½ 17
Œ@@ 17
π@@ 17
&apos;@@ 16
Arab 16
Commit@@ 16
Koso@@ 16
Sept@@ 16
alization 16
appe@@ 16
ently 16
ext 16
fuge@@ 16
ility 16
including 16
jà 16
last 16
provisions 16
self 16
spe@@ 16
tegr@@ 16
used 16
w.@@ 16
Ô@@ 16
θ@@ 16
ν@@ 16
σ@@ 16
Є@@ 16
Affairs 15
Ministry 15
November 15
aveur 15
country 15
cust@@ 15
high 15
kno@@ 15
may 15
meetings 15
next 15
open 15
operation 15
policy 15
sieur 15
such 15
tak@@ 15
ved 15
what 15
when 15
ß 15
š 15
λ@@ 15
ο@@ 15
е 15
м@@ 15
If 14
President 14
Working 14
arian 14
developing 14
langu@@ 14
legal 14
lem 14
omen 14
read@@ 14
reat 14
reports 14
same 14
sed 14
unities 14
within 14
Â 14
Ö@@ 14
Δ@@ 14
ρ@@ 14
Ђ 14
г@@ 14
д@@ 14
й 14
у@@ 14
Mr@@ 13
against 13
arly 13
because 13
between 13
did 13
ered 13
eting 13
eve 13
func@@ 13
less 13
mework 13
ply 13
professi@@ 13
proper@@ 13
region 13
sibility 13
sure 13
then 13
ths 13
verty 13
working 13
zation 13
Ü@@ 13
ř@@ 13
ş@@ 13
κ@@ 13
з@@ 13
.m@@ 12
April 12
Treaty 12
atory 12
building 12
care 12
communic@@ 12
comple@@ 12
control 12
data 12
econom@@ 12
ening 12
experi@@ 12
financial 12
general 12
group 12
nership 12
prepar@@ 12
private 12
provision 12
reas@@ 12
reco@@ 12
spé@@ 12
two 12
wide 12
ò 12
ŕ 12
At 11
Commission@@ 11
He 11
Republic 11
There 11
They 11
ainst 11
allow@@ 11
children 11
cooperation 11
during 11
led 11
making 11
members 11
must 11
partment 11
present@@ 11
research 11
respon@@ 11
scho@@ 11
status 11
taken 11
these 11
three 11
wledge 11
years 11
Á 11
č 11
ı@@ 11
δ@@ 11
С 11
ь@@ 11
Govern@@ 10
March 10
Party 10
To 10
ately 10
contain@@ 10
every 10
follow 10
food 10
independ@@ 10
mark@@ 10
meeting 10
people 10
process 10
project 10
regul@@ 10
special 10
text 10
tiz@@ 10
tob@@ 10
tow@@ 10
~ 10
ú 10
ā@@ 10
ă@@ 10
ι 10
б@@ 10
в 10
Assemb@@ 9
Assembly 9
Speci@@ 9
ared 9
ators 9
based 9
better 9
capac@@ 9
dated 9
defin@@ 9
draft 9
economic 9
education 9
employment 9
ennium 9
fully 9
help 9
integr@@ 9
ization 9
metho@@ 9
most 9
ned 9
needs 9
organiz@@ 9
recommend@@ 9
regi@@ 9
related 9
righ@@ 9
since 9
tee 9
them@@ 9
using 9
without 9
wle@@ 9
zed 9
µ@@ 9
ä 9
æ@@ 9
ğ@@ 9
ı 9
ί@@ 9
и 9
Afghan@@ 8
August 8
December 8
Executive 8
February 8
January 8
July 8
Memb@@ 8
beg@@ 8
cost 8
energy 8
environment 8
framework 8
full 8
goti@@ 8
govern@@ 8
half 8
health 8
market 8
number 8
security 8
systems 8
targ@@ 8
technology 8
tly 8
treatment 8
unity 8
uring 8
visory 8
³ 8
º@@ 8
ö 8
ě@@ 8
ł@@ 8
Ž@@ 8
̀ 8
Ο 8
ά 8
έ@@ 8
о 8
ы@@ 8
Apr@@ 7
October 7
Righ@@ 7
These 7
activities 7
aff 7
armament 7
aving 7
before 7
challenges 7
child 7
clear 7
consider@@ 7
cultural 7
decision 7
eful 7
fact 7
family 7
find 7
forms 7
give 7
groups 7
high@@ 7
implement 7
include 7
ious 7
level 7
mitted 7
necess@@ 7
need 7
ouvern@@ 7
present 7
projects 7
provided 7
resources 7
result 7
though 7
tings 7
ween 7
while 7
¦ 7
Ä@@ 7
Í@@ 7
ń@@ 7
υ@@ 7
□ 7
● 7
Agre@@ 6
Commissioner 6
Israel 6
Member 6
Minister 6
Parli@@ 6
Protocol 6
Secretary 6
^ 6
accoun@@ 6
adopted 6
areas 6
beli@@ 6
community 6
concerning 6
considered 6
cover@@ 6
develop@@ 6
enting 6
example 6
fy 6
governmental 6
guar@@ 6
igh 6
increase 6
keep@@ 6
member 6
ould 6
peace 6
recommendations 6
role 6
servic@@ 6
society 6
strategi@@ 6
strategy 6
taking 6
third 6
training 6
vely 6
vities 6
wish 6
women 6
¢ 6
¬ 6
µ 6
Ó@@ 6
Û@@ 6
å 6
ś@@ 6
ή@@ 6
β@@ 6
γ@@ 6
ε 6
λ 6
ς 6
к 6
ф@@ 6
′ 6
♦ 6
.m. 5
That 5
Treat@@ 5
above 5
acekeeping 5
among 5
another 5
arms 5
being 5
benef@@ 5
bodies 5
chall@@ 5
comes 5
developed 5
different 5
especially 5
etary 5
fif@@ 5
held 5
included 5
integration 5
least 5
legislation 5
much 5
necessary 5
ocratic 5
ously 5
p.m. 5
poverty 5
prehensive 5
provides 5
recent 5
regional 5
resolution 5
resul@@ 5
results 5
risk 5
sector 5
several 5
still 5
tech@@ 5
those 5
towards 5
uclear 5
¹ 5
Ä 5
Å 5
Å@@ 5
Ô 5
évrier 5
ò@@ 5
İ@@ 5
ő@@ 5
Ş@@ 5
Р 5
ж@@ 5
ю@@ 5
я 5
ї@@ 5
ў@@ 5
ו@@ 5
† 5
→ 5
Representative 4
September 4
account 4
amount 4
apons 4
become 4
build@@ 4
cil 4
concerned 4
decided 4
differ@@ 4
duce 4
ember 4
ended 4
environmental 4
fund@@ 4
funds 4
going 4
government 4
implementation 4
individual 4
ized 4
monitoring 4
needed 4
paragraph 4
particular 4
party 4
peop@@ 4
practice 4
practices 4
previ@@ 4
principles 4
regular 4
represent@@ 4
said 4
secret@@ 4
sept@@ 4
statement 4
submitted 4
take 4
various 4
whe@@ 4
Ï@@ 4
Ñ@@ 4
× 4
Ø@@ 4
ç 4
ă 4
ć@@ 4
đ@@ 4
ė 4
ę@@ 4
ń 4
ż@@ 4
ž 4
Γ@@ 4
η@@ 4
ο 4
χ@@ 4
ό@@ 4
ύ@@ 4
Њ@@ 4
В 4
Д@@ 4
Р@@ 4
ц@@ 4
ч@@ 4
щ@@ 4
ґ@@ 4
ה 4
י@@ 4
‡ 4
Annex 3
Governments 3
Janu@@ 3
Parliament 3
Yor@@ 3
achiev@@ 3
address 3
already 3
appropriate 3
assessment 3
basis 3
cannot 3
conflict 3
contained 3
criminal 3
deci@@ 3
delegation 3
does 3
ecutive 3
encies 3
ength@@ 3
enth 3
eted 3
existing 3
further 3
gender 3
given 3
growth 3
guaran@@ 3
incre@@ 3
level@@ 3
levels 3
oned 3
operations 3
organizations 3
orities 3
pment 3
priority 3
progress 3
provide 3
relating 3
request 3
required 3
requirements 3
retur@@ 3
secretariat 3
significant 3
subject 3
sustainable 3
term 3
terms 3
terrorism 3
upon 3
vehic@@ 3
¡ 3
Ö 3
ê 3
ā 3
Đ@@ 3
ľ 3
Ł@@ 3
ň@@ 3
Ő@@ 3
ş 3
ί 3
β 3
ν 3
ω@@ 3
Ђ@@ 3
Ѓ@@ 3
В@@ 3
Н@@ 3
О@@ 3
Т@@ 3
м 3
ы 3
ь 3
ڤ 3
ၛ@@ 3
ၝ 3
∆ 3
⋅ 3
Chairman 2
Palestinian 2
Secret@@ 2
With 2
accordance 2
agencies 2
agreement 2
alized 2
amoun@@ 2
annex 2
authorities 2
believe 2
both 2
called 2
capacity 2
citizens 2
comprehensive 2
consider 2
consideration 2
continued 2
costs 2
decisions 2
def@@ 2
deleg@@ 2
determin@@ 2
develop 2
domestic 2
echanis@@ 2
emph@@ 2
environ@@ 2
essential 2
establishment 2
expressed 2
fficking 2
five 2
great@@ 2
grow@@ 2
however 2
humanitarian 2
istry 2
lear 2
means 2
meas@@ 2
mee@@ 2
might 2
military 2
ministr@@ 2
negoti@@ 2
nuclear 2
period 2
persons 2
problems 2
procedure 2
procedures 2
products 2
proposed 2
received 2
recogni@@ 2
regarding 2
response 2
rule 2
specific 2
strengthen 2
sustain@@ 2
technical 2
therefore 2
today 2
together 2
whether 2
¸ 2
¼ 2
À@@ 2
Ó 2
Ø 2
Ù 2
Ú@@ 2
ì@@ 2
ð@@ 2
ñ 2
õ 2
Ĉ@@ 2
ē@@ 2
ě 2
ī 2
ī@@ 2
ļ@@ 2
ō@@ 2
ū@@ 2
ů 2
˚ 2
̂ 2
Δ 2
Ε@@ 2
ά@@ 2
ή 2
γ 2
η 2
ξ@@ 2
ό 2
ύ 2
Љ@@ 2
Ћ@@ 2
П@@ 2
Ц@@ 2
с 2
у 2
ш@@ 2
я@@ 2
א@@ 2
ב@@ 2
ג@@ 2
ד@@ 2
ה@@ 2
ט@@ 2
כ@@ 2
ל@@ 2
ם 2
ק@@ 2
ר@@ 2
ٱ 2
Ⴞ@@ 2
‐ 2
″ 2
› 2
№ 2
∙ 2
► 2
・ 2
中@@ 2
文 2
ﬁ@@ 2
Declaration 1
Represent@@ 1
Secretariat 1
address@@ 1
adequ@@ 1
assess@@ 1
behalf 1
beso@@ 1
call@@ 1
challeng@@ 1
citiz@@ 1
committed 1
concern 1
context 1
duced 1
eded 1
effic@@ 1
especi@@ 1
establish 1
established 1
following 1
fore 1
increased 1
interest 1
laration 1
matter 1
measures 1
nex 1
noted 1
paragrap@@ 1
particularly 1
person 1
policies 1
political 1
practi@@ 1
principle 1
problem 1
proce@@ 1
proced@@ 1
promote 1
proposals 1
providing 1
receiv@@ 1
refuge@@ 1
remain@@ 1
representative 1
resolutions 1
responsibility 1
rules 1
satisfac@@ 1
sever@@ 1
strate@@ 1
strength@@ 1
throu@@ 1
tled 1
took 1
uly 1
weapons 1
¤ 1
¯ 1
¾ 1
Æ@@ 1
Ç 1
È 1
Ë@@ 1
Í 1
Î 1
ã 1
ì 1
õ@@ 1
ø 1
ù@@ 1
ý 1
ý@@ 1
ą@@ 1
Ć 1
ċ 1
Č 1
ĕ@@ 1
ė@@ 1
ĝ@@ 1
İ 1
Ľ@@ 1
ľ@@ 1
ņ@@ 1
Ř 1
ś 1
Ţ@@ 1
ţ 1
ţ@@ 1
Ŧ 1
ŭ 1
Ů 1
ű@@ 1
ų 1
ź@@ 1
Ž 1
ș@@ 1
ț 1
ȣ@@ 1
Α@@ 1
Ι@@ 1
Π@@ 1
Ρ@@ 1
δ 1
θ 1
π 1
σ 1
υ 1
ϊ 1
ώ 1
ϕ@@ 1
Ї@@ 1
Ќ 1
Ќ@@ 1
Џ@@ 1
А@@ 1
Е 1
Е@@ 1
И 1
К 1
К@@ 1
М@@ 1
Н 1
О 1
Ф@@ 1
г 1
д 1
з 1
н 1
р 1
т 1
х 1
х@@ 1
э@@ 1
ю 1
ѕ@@ 1
і@@ 1
ז@@ 1
ך 1
ל 1
מ@@ 1
ף 1
פ@@ 1
ת 1
ת@@ 1
ة@@ 1
٭ 1
ဪ 1
ậ@@ 1
ộ@@ 1
ỳ@@ 1
― 1
※ 1
← 1
↝ 1
▲ 1
▸ 1
◄ 1
○ 1
♲ 1
余@@ 1
卓@@ 1
原@@ 1
啦 1
大@@ 1
日@@ 1
春@@ 1
晏@@ 1
本@@ 1
泥@@ 1
献 1
王@@ 1
琉 1
甜@@ 1
皞@@ 1
简 1
茶 1
語 1
贡@@ 1
钧@@ 1
雄@@ 1
馬 1
ﬁ 1
ｓ@@ 1
ｰ@@ 1
madeupword0000 0
madeupword0001 0
madeupword0002 0
