, 233729
. 191486
the 162112
and 117433
to 95641
of 89209
a 86230
that 72128
i 63769
in 62213
it 58471
you 53975
we 51081
is 49746
&apos;s 43043
&quot; 39944
this 37881
so 27940
they 25244
for 22993
on 22870
was 22867
are 21902
have 20844
but 20518
what 20275
-- 20260
with 19262
/ 18618
can 18485
? 17321
: 16701
&apos;t 16658
about 16484
there 16177
as 16158
at 15732
be 15642
all 14878
not 14188
do 13713
an 13651
one 13597
my 13377
people 12813
&apos;re 12612
&gt; 12547
&lt; 12547
like 12370
if 12311
from 12270
or 12153
he 11232
now 11081
our 10975
these 10749
just 10704
when 10096
me 9980
because 9925
very 9526
by 9474
how 9423
out 9299
up 8859
them 8755
know 8665
more 8464
ed 8422
going 8378
re@@ 8064
which 8045
think 8031
had 7992
who 7959
ing 7837
here 7791
see 7779
us 7774
their 7757
your 7731
were 7478
really 7455
would 7432
get 7212
world 7095
then 7087
&apos;ve 6943
time 6839
some 6649
has 6513
&apos;m 6423
way 6398
= 6291
into 6271
don 6250
actually 6173
where 6171
will 5899
go 5886
years 5861
things 5831
s 5811
es 5789
other 5574
-@@ 5508
could 5504
no 5484
well 5334
ted 5331
want 5318
make 5284
in@@ 5274
been 5221
right 5006
she 5002
said 4896
something 4814
first 4708
those 4670
than 4644
y 4627
two 4594
new 4503
look 4432
his 4349
also 4329
thing 4308
c@@ 4298
e@@ 4249
talk 4249
little 4241
much 4203
got 4184
life 4144
work 4143
back 4127
over 4085
say 4084
al 4066
most 4045
only 4038
even 3973
s@@ 3957
able 3889
un@@ 3841
many 3795
♫ 3771
take 3753
need 3719
her 3607
why 3595
kind 3560
i@@ 3554
good 3548
did 3541
ate 3481
lot 3468
o@@ 3447
around 3431
let 3406
d@@ 3402
p@@ 3391
speaker 3339
every 3330
use 3328
come 3327
a@@ 3326
ti@@ 3319
li@@ 3311
down 3303
different 3298
doc 3295
through 3268
day 3257
g@@ 3213
&apos;ll 3184
t@@ 3180
de@@ 3147
di@@ 3115
its 3098
ts 3071
; 3058
being 3035
translator 3031
profiles 3028
reviewer 3024
http 3017
href 3008
www.ted.com 3008
same 2994
y@@ 2933
put 2927
con@@ 2841
doing 2820
ation 2779
co@@ 2732
three 2720
en@@ 2716
o 2696
called 2684
b@@ 2681
any 2607
ar@@ 2600
m@@ 2594
ri@@ 2591
percent 2587
er 2578
made 2560
r@@ 2551
today 2550
ers 2530
t 2515
after 2507
human 2499
&apos;d 2490
se@@ 2464
great 2437
tell 2430
e 2426
ly 2409
find 2408
ated 2395
m 2391
year 2366
dis@@ 2364
ch@@ 2363
ds 2357
change 2334
an@@ 2320
u@@ 2313
ro@@ 2305
another 2297
fact 2290
lo@@ 2277
big 2272
ting 2263
own 2259
idea 2239
le@@ 2219
last 2212
didn 2199
started 2199
should 2192
p 2179
before 2170
ve 2165
give 2154
st@@ 2149
f@@ 2146
man 2137
al@@ 2128
on@@ 2123
h@@ 2116
better 2109
might 2103
thought 2102
v@@ 2098
went 2091
place 2089
important 2084
d 2083
thank 2072
off 2062
never 2033
end 2015
l@@ 2005
at@@ 2002
story 2001
course 1991
le 1991
k@@ 1987
still 1984
again 1978
system 1973
does 1968
problem 1965
brain 1959
next 1956
part 1950
used 1945
ad@@ 1933
together 1926
technology 1925
water 1920
ago 1917
as@@ 1914
him 1912
start 1911
or@@ 1889
show 1885
each 1884
th@@ 1876
ac@@ 1867
w@@ 1854
came 1846
bit 1834
women 1815
c 1813
few 1809
pre@@ 1808
between 1806
n@@ 1798
ce 1797
l 1793
bo@@ 1776
el@@ 1776
ally 1774
ous 1770
ever 1756
&apos; 1755
ex@@ 1753
too 1752
ating 1735
looking 1724
long 1722
si@@ 1715
per@@ 1713
com@@ 1711
love 1706
data 1700
found 1697
ding 1687
point 1687
maybe 1681
ra@@ 1681
mean 1679
sh@@ 1675
question 1672
lectures 1669
try 1660
ty 1657
red 1652
ct 1645
bi@@ 1644
children 1637
genre 1637
ent 1636
age 1633
docid 1632
school 1630
pro@@ 1624
understand 1624
less 1622
done 1616
live 1612
subtitles 1607
doesn 1606
example 1604
tions 1603
ded 1599
transcript 1599
using 1597
po@@ 1582
may 1580
ant 1577
am 1575
tion 1571
wanted 1571
real 1568
working 1568
bu@@ 1563
j@@ 1563
old 1556
call 1555
ic 1548
im@@ 1546
ary 1538
g 1536
ma@@ 1532
whole 1528
help 1526
four 1524
est 1521
sort 1514
light 1512
ine 1511
k 1511
th 1509
away 1508
believe 1503
me@@ 1498
million 1495
op@@ 1495
h 1494
trying 1494
always 1488
de 1486
pe@@ 1486
als 1484
10 1480
everything 1476
ab@@ 1475
person 1469
vi@@ 1468
design 1465
power 1463
country 1458
city 1457
feel 1447
ves 1437
es@@ 1423
ni@@ 1423
be@@ 1419
er@@ 1415
kids 1412
car@@ 1411
create 1409
! 1405
number 1405
space 1404
five 1399
am@@ 1396
ke 1385
men 1385
su@@ 1384
second 1383
thinking 1378
se 1377
king 1374
mi@@ 1370
ment 1368
means 1367
par@@ 1363
comes 1356
times 1354
took 1348
ction 1346
become 1343
making 1341
information 1339
money 1331
ations 1321
no@@ 1317
ta@@ 1316
mar@@ 1311
small 1298
sense 1291
play 1289
future 1287
it@@ 1276
ap@@ 1272
ne@@ 1272
energy 1270
building 1268
social 1268
ver@@ 1267
ability 1266
enough 1266
probably 1265
for@@ 1262
getting 1262
side 1262
quite 1261
ist 1257
food 1254
says 1254
best 1246
home 1245
fe@@ 1237
without 1237
ties 1230
w 1227
der 1223
science 1223
is@@ 1210
ways 1209
ck 1208
left 1198
ter 1197
happened 1196
tic 1196
tra@@ 1195
body 1194
em@@ 1191
ons 1190
interesting 1184
build 1180
lives 1180
talking 1175
pi@@ 1168
while 1162
ask 1161
room 1159
set 1158
ance 1156
mo@@ 1152
makes 1151
coming 1150
ar 1148
ies 1147
such 1147
told 1146
anything 1143
countries 1141
pretty 1139
stuff 1136
move 1130
ca@@ 1129
ho@@ 1124
ely 1122
ms 1122
he@@ 1120
across 1119
dollars 1119
half 1116
earth 1112
hard 1111
ks 1107
once 1107
art 1106
do@@ 1106
min@@ 1105
ge@@ 1103
form 1102
x 1101
ses 1100
simple 1099
seen 1098
to@@ 1097
fi@@ 1093
ch 1091
20 1090
africa 1090
ful 1089
inter@@ 1087
living 1085
moment 1084
ble 1081
days 1080
imagine 1080
des 1078
te@@ 1078
case 1074
yet 1071
health 1068
te 1066
experience 1062
goes 1061
later 1058
asked 1057
bad 1057
happen 1054
ings 1054
sp@@ 1054
ol@@ 1053
tive 1053
having 1051
.@@ 1050
b 1050
ones 1049
else 1048
global 1046
ins 1043
saw 1041
z@@ 1041
learn 1039
book 1035
ir@@ 1032
car 1031
high 1030
project 1029
um 1025
care 1022
hand 1018
gra@@ 1013
happens 1013
la@@ 1013
qu@@ 1013
problems 1010
war 1010
family 1008
mind 1007
nothing 1006
tri@@ 1006
basically 1005
sure 1003
sa@@ 1002
gi@@ 996
reason 993
so@@ 992
whether 991
computer 990
,000 989
gu@@ 989
young 989
picture 987
business 986
mon@@ 980
both 979
inside 979
almost 978
el 978
states 978
ok 977
okay 973
process 969
cor@@ 968
ps 968
within 968
’ 965
planet 964
cted 963
words 962
ans 961
history 958
far 956
ck@@ 955
ci@@ 954
over@@ 954
trans@@ 952
line 949
possible 949
ence 947
ideas 946
someone 946
remember 942
public 938
ity 937
single 937
everybody 934
res@@ 933
ving 933
already 932
hi@@ 931
nature 930
top 929
n 926
saying 926
pa@@ 923
keep 922
ents 921
six 920
looks 916
open 915
child 914
sts 914
often 909
per 909
wrong 907
ws 907
looked 906
guy 904
50 903
answer 901
hope 900
son 900
cu@@ 897
true 896
cells 895
music 894
du@@ 890
billion 889
cy 888
oh 888
cr@@ 887
order 887
zed 886
carolina 885
ag@@ 884
ness 884
stories 884
heard 883
bring 881
os@@ 881
built 879
house 878
instead 878
matter 878
under 878
community 877
united 872
je@@ 871
myself 870
until 870
har@@ 869
cancer 868
30 867
face 866
video 865
yes 865
gets 863
ved 862
om@@ 861
ors 860
beautiful 858
sometimes 858
internet 855
word 851
since 850
language 849
ber@@ 848
man@@ 847
state 847
ments 845
ha 844
control 842
government 841
research 839
&#91; 838
&#93; 838
612126 837
ates 837
da@@ 837
montero 837
les 836
amazing 835
wa@@ 834
isn 832
works 831
read 830
sub@@ 830
ul@@ 830
woman 830
... 829
places 829
led 828
0s 827
sing 827
ge 826
cts 825
cks 824
taking 822
land 820
group 819
den@@ 818
night 817
species 816
turn 816
head 815
ze 815
sen@@ 814
months 813
education 812
pl@@ 812
pri@@ 811
universe 811
ent@@ 809
piece 808
f 802
r 802
tu@@ 802
under@@ 802
ars 800
stop 799
ined 798
society 797
couple 796
et@@ 796
fl@@ 796
ourselves 796
students 796
ur@@ 795
wasn 795
friends 794
dra@@ 788
job 788
pres@@ 787
exactly 784
tional 784
somebody 781
study 780
vo@@ 780
il@@ 779
us@@ 779
completely 778
sur@@ 778
re 776
heart 775
tr@@ 775
decided 773
everyone 771
run 771
um@@ 771
d-@@ 770
level 770
19@@ 768
became 768
ter@@ 767
can@@ 764
happy 763
itself 763
company 762
animals 760
though 760
turns 760
india 757
against 756
fish 756
learned 756
rather 755
out@@ 754
ger 753
knew 753
che@@ 752
model 752
ia 750
god 748
hear 748
large 748
front 746
6@@ 745
ces 745
must 745
ics 744
ging 743
happening 740
yeah 739
cal 737
na@@ 737
questions 737
share 737
middle 736
ste@@ 734
mis@@ 733
cre@@ 732
mu@@ 732
sho@@ 731
themselves 730
her@@ 729
kinds 729
3@@ 728
100 727
game 727
bar@@ 725
cing 723
minutes 723
wh@@ 720
created 719
name 719
bur@@ 718
others 718
we@@ 718
hours 717
rel@@ 717
huge 716
america 715
id 715
tation 714
american 712
col@@ 712
wi@@ 712
table 711
ha@@ 710
go@@ 708
sta@@ 708
ten@@ 708
sion 707
environment 706
along 705
gh@@ 705
phone 705
century 704
ru@@ 704
ling 702
cli@@ 700
br@@ 699
mother 699
fa@@ 698
perhaps 697
ju@@ 696
news 696
third 696
based 695
natural 695
the@@ 695
couldn 694
shows 694
worked 693
sound 692
early 690
disease 688
stic 688
air 687
ic@@ 687
cur@@ 686
flo@@ 684
ga@@ 684
past 681
lots 679
china 678
cra@@ 678
won 677
gave 676
turned 676
zing 676
learning 675
cap@@ 674
least 674
ked 673
8@@ 672
sti@@ 672
guys 670
ters 670
test 669
u 669
market 667
ocean 667
systems 667
moving 666
thousands 664
cities 663
— 663
gl@@ 662
figure 660
wing 660
cell 659
des@@ 658
machine 658
x@@ 658
known 657
finally 656
free 656
bor@@ 655
et 655
ged 655
particular 655
9@@ 654
fo@@ 653
gen@@ 653
self-@@ 653
during 652
changed 651
ry 651
ess 650
tor@@ 650
2 649
e-@@ 649
key 649
ism 646
powerful 646
entire 644
oil 644
4 643
y-@@ 643
7@@ 642
war@@ 642
takes 640
close 637
off@@ 637
taken 637
ali@@ 636
jo@@ 636
ou@@ 636
outside 635
ying 635
father 634
str@@ 633
gr@@ 630
ari@@ 629
hu@@ 629
15 628
behind 628
act 626
area 626
ph@@ 626
easy 625
view 622
culture 621
given 621
media 621
3 619
20@@ 618
ca 618
difference 615
ground 613
scale 613
bl@@ 612
1 611
economic 611
ev@@ 611
seven 611
up@@ 611
black 610
population 610
friend 609
ing@@ 609
ob@@ 609
ator 608
walk 608
dy 607
yourself 607
audience 606
parents 604
certain 603
ctions 601
ure 600
sed 598
difficult 597
needs 597
and@@ 596
leave 596
5@@ 595
pos@@ 595
whatever 595
wonderful 594
parts 593
beginning 592
wor@@ 592
began 590
4@@ 589
eyes 588
common 587
seeing 587
companies 586
local 586
york 585
cannot 584
ven@@ 584
ats 583
ned 583
size 583
super@@ 583
1020352 581
cking 581
lin@@ 581
paper 581
thu-huong 581
humans 580
rest 580
♪ 580
ce@@ 579
au@@ 578
ver 578
simply 577
cost 576
hands 576
stage 576
cally 574
green 573
ose 573
cat@@ 572
full 571
ba@@ 570
ches 569
death 569
ously 569
pu@@ 569
realized 568
terms 566
cl@@ 565
field 564
growth 564
needed 564
image 563
der@@ 562
team 562
force 560
fly 559
ning 557
week 556
grow 555
fin@@ 554
reality 554
amount 553
cri@@ 553
cul@@ 552
fac@@ 552
7 550
deal 550
gre@@ 550
center 549
tried 549
ture 546
40 545
gs 545
sc@@ 545
blue 544
hold 544
spend 544
ders 543
gone 543
behavior 542
eight 542
longer 542
national 542
ser@@ 541
interested 540
ality 539
poor 539
met 538
spent 538
felt 537
stri@@ 537
bri@@ 535
dro@@ 534
low 534
ship 532
char@@ 531
mor@@ 531
born 530
dna 530
sea 530
white 530
animal 529
either 529
tro@@ 529
nu@@ 528
books 526
political 525
quickly 525
ase 524
coun@@ 523
lost 523
ell@@ 522
ining 522
knowledge 522
opportunity 522
complex 521
step 521
type 521
value 521
mit 520
sk@@ 520
stra@@ 520
ban@@ 519
bra@@ 519
dri@@ 519
feet 519
growing 518
sha@@ 518
forward 517
ys 517
equ@@ 516
clear 515
surface 515
bs 514
watch 514
ff@@ 513
mat@@ 513
economy 512
lu@@ 512
cop@@ 511
buy 510
ger@@ 510
giving 509
dat@@ 508
dr@@ 508
sil@@ 508
pay 507
ak@@ 506
incredible 506
tan@@ 506
west 506
anyone 505
program 505
pur@@ 505
weeks 505
wouldn 505
cting 504
spi@@ 504
climate 503
els 503
write 503
girl 501
ma 501
patients 500
ice 496
areas 494
ced 494
cles 494
st 494
street 494
eat 493
sol@@ 493
challenge 492
hand@@ 492
sitting 492
south 492
cked 491
die 491
ec@@ 491
fied 491
personal 491
stor@@ 491
changes 490
numbers 490
telling 490
est@@ 489
ges 489
developed 488
fra@@ 488
ja@@ 487
speak 487
scientists 486
ie 485
pen@@ 485
ey 484
attention 483
images 483
ment@@ 483
bed 482
eg@@ 482
fully 482
auth@@ 480
brought 478
ched 478
dan@@ 478
feeling 478
ens 477
hor@@ 477
morning 477
ke@@ 476
physical 476
realize 476
understanding 475
voice 475
law 473
cy@@ 472
ently 472
board 471
cer@@ 471
enti@@ 471
technologies 471
map 470
ths 470
u.s. 470
ard 469
structure 468
miles 467
changing 466
gives 466
physi@@ 466
tics 466
9 465
plan@@ 465
swe@@ 465
theory 465
yed 465
literally 464
tes 464
creating 463
pan@@ 463
short 463
average 461
fast 461
t-@@ 460
ative 459
hundreds 459
nice 459
tru@@ 459
vision 459
ching 458
mer@@ 457
quality 457
alone 456
seems 456
tical 456
tur@@ 456
cars 455
cut 455
millions 455
running 455
wrote 455
ori@@ 454
deep 453
sun 453
fun 452
movement 452
starting 452
vis@@ 452
access 451
ented 451
mil@@ 451
online 451
patient 451
air@@ 450
forms 450
individual 450
morton 450
18@@ 449
bast 449
absolutely 448
english 448
fu@@ 448
tools 448
1108408 447
bottom 447
ingly 447
likely 447
playing 447
ei@@ 446
normal 446
8 445
ad 445
sive 445
ther 445
development 444
save 444
discovered 443
fun@@ 443
recently 443
cen@@ 442
soon 442
ster 442
60 441
relationship 440
nobody 439
vers 439
developing 438
dly 438
ward 438
pt 437
fear 435
generation 435
ines 435
innovation 434
medical 434
produce 434
5 433
kid 433
rate 432
por@@ 431
designed 430
modern 430
web 430
cru@@ 429
moved 429
blood 428
dark 428
result 428
ue 428
box 427
comp@@ 427
cool 427
film 427
prin@@ 427
solve 427
tically 427
wall 427
issue 426
lab 426
ot 426
ren@@ 426
mine 425
allow 424
da 424
den 423
died 423
far@@ 423
eth@@ 422
gener@@ 422
sions 422
solution 421
north 420
und@@ 420
material 419
seem 419
revolution 418
tiny 418
ages 417
tend 417
bio@@ 416
especially 416
person@@ 416
source 416
perfect 415
resources 415
support 415
uses 415
6 414
head@@ 414
inten@@ 414
risk 414
showed 414
stand 414
university 414
late 413
europe 412
sli@@ 412
asking 410
girls 410
sted 410
acy 409
gro@@ 409
ology 409
position 409
12 408
focus 408
industry 408
computers 407
issues 407
meet 407
message 407
network 407
chance 406
major 406
obviously 406
wish 406
hy@@ 405
non-@@ 405
sel@@ 405
ted@@ 405
beyond 404
bon@@ 404
ele@@ 404
ton 404
choice 403
product 403
writing 403
begin 402
vel@@ 402
199@@ 401
knows 401
talked 401
ical 400
sal@@ 400
baby 399
color 399
gar@@ 399
lived 399
robot 399
star@@ 399
bas@@ 398
medi@@ 398
she@@ 398
wo@@ 398
bal@@ 397
break 397
incredibly 397
med 397
security 397
z 397
cal@@ 396
haven 396
main 396
mental 396
my@@ 396
situation 396
available 395
class 395
don@@ 395
hal@@ 395
swi@@ 395
del@@ 394
en 394
reasons 394
wn 394
0@@ 393
aren 393
chinese 393
connected 393
ctive 393
predi@@ 393
town 393
ement 392
impact 392
involved 392
please 392
wal@@ 391
bigger 390
hour 390
pictures 390
rules 390
tells 390
yo@@ 390
fall 389
os 389
syn@@ 388
truth 388
worth 388
all@@ 387
special 387
tl@@ 387
anybody 386
ball 386
evidence 386
putting 386
bel@@ 385
ker 385
ster@@ 385
ther@@ 385
dead 384
ill@@ 384
nor@@ 384
shape 384
becomes 383
experiment 383
fir@@ 383
mission 383
top@@ 383
office 382
action 381
groups 381
teach 381
mer 380
boy 379
several 379
general 377
asi@@ 376
cent@@ 376
indeed 376
ls 376
recor@@ 376
scientific 376
active 375
drugs 375
il 375
similar 375
sounds 375
spe@@ 375
strong 375
compassion 374
fer 374
oper@@ 374
present 374
sting 374
drive 373
ences 373
explain 373
listen 373
men@@ 373
projects 373
pul@@ 373
ak 372
grand@@ 372
tic@@ 372
cho@@ 371
evolution 371
pat@@ 371
cation 370
door 370
guess 370
ton@@ 370
eless 369
eye 369
micro@@ 369
onto 369
software 369
squ@@ 369
ably 368
creative 368
digital 367
enter@@ 367
pped 367
schools 367
international 366
jobs 366
lines 366
sent 366
sex 366
violence 366
approach 365
solar 365
stay 365
appe@@ 364
sters 364
basic 363
cations 363
device 363
effect 363
games 363
ically 363
mass 363
road 363
towards 363
high-@@ 362
mal@@ 362
materials 362
pla@@ 362
san@@ 362
ast@@ 361
walking 361
cause 360
certainly 360
democracy 360
happiness 360
nine 360
tre@@ 360
wer 360
ants 359
edu@@ 359
potential 359
among 358
hundred 358
teachers 358
explor@@ 357
indi@@ 357
journey 357
tun@@ 357
cent 356
pal@@ 356
send 356
suddenly 356
u.@@ 356
25 355
deli@@ 355
impro@@ 355
mp@@ 355
poverty 355
ed@@ 354
back@@ 353
carbon 353
chan@@ 353
drug 353
list 353
eventually 352
ures 352
east 351
largest 351
ming 351
develop 350
everywhere 350
ft 350
hit 349
lat@@ 349
meaning 349
success 349
code 348
google 348
medicine 348
month 348
uni@@ 348
vent@@ 348
app@@ 347
memory 347
examples 346
minute 346
plants 346
notice 345
sit 345
alized 344
ber 344
biggest 344
eng@@ 344
leaders 344
tt@@ 344
wants 344
extremely 343
hop@@ 343
particularly 343
showing 343
thy 343
80 342
activity 342
plan 342
rich 342
aging 341
cies 341
dom@@ 341
econom@@ 341
lead 341
mate 341
reach 341
starts 341
student 341
han 340
ner 340
village 340
cket 339
finding 339
peace 339
radi@@ 339
pas@@ 338
whe@@ 338
exp@@ 337
positive 337
bat@@ 336
store 336
ators 335
clu@@ 335
pain@@ 335
wait 335
cro@@ 334
kes 334
object 334
posed 334
results 334
wed 334
wind 334
cated 333
chris 333
cultural 333
fil@@ 333
song 333
stat@@ 333
anyway 332
college 332
david 332
fire 332
further 332
ig@@ 332
including 332
interest 332
ki@@ 332
speed 332
totally 332
ah 331
clos@@ 331
fri@@ 331
ill 331
named 331
safe 331
wat@@ 331
1@@ 330
minds 330
ony 330
measure 329
models 329
row 329
thre@@ 329
vely 329
11 328
bre@@ 328
dou@@ 328
higher 328
mas@@ 328
poli@@ 328
ready 328
16 327
collec@@ 327
continue 327
ency 327
exciting 327
cs 326
han@@ 326
organization 326
role 326
vie@@ 326
add 325
brains 325
fer@@ 325
impossible 325
talks 325
watching 325
ared 324
grew 324
studies 324
essentially 323
fight 323
follow 323
ror 323
truly 323
ust 323
core 322
hing 322
response 322
self 322
smart 322
teacher 322
ast 321
bodies 321
dete@@ 321
objects 321
spread 321
standing 321
trees 321
buildings 320
camera 320
clo@@ 320
goo@@ 320
hol@@ 320
individuals 320
om 320
period 320
provi@@ 320
sou@@ 320
tor 320
dream 319
hospital 319
plant 319
crazy 318
favorite 318
hon@@ 318
mes 318
pattern 318
aff@@ 317
calcul@@ 317
conditions 317
dar@@ 317
doctor 317
ll@@ 317
mit@@ 317
ries 317
scar@@ 317
sebastian 317
ended 316
ish 316
moral 316
page 316
pick 316
skin 316
dep@@ 315
ligh@@ 315
trust 315
conver@@ 314
ered 314
goal 314
somewhere 314
traditional 314
usually 314
ily 313
tors 313
cas@@ 312
communities 312
crisis 312
fre@@ 312
hab@@ 312
points 312
und 312
worse 312
essi@@ 311
faster 311
mic 311
robots 311
wards 311
bes 310
cla@@ 310
expect 310
lower 310
500 309
meant 309
ple@@ 309
products 309
sun@@ 309
ve@@ 309
cate 308
gas 308
taught 308
version 308
blo@@ 307
cian 307
extraordinary 307
flu@@ 307
gri@@ 307
killed 307
lose 307
nuclear 307
ow@@ 307
struc@@ 307
tal 307
16@@ 306
belie@@ 306
electr@@ 306
healthy 306
tat@@ 306
10@@ 305
choose 305
ession 305
rights 305
tting 305
types 305
doctors 304
production 304
series 304
shown 304
unded 304
dent 303
wife 303
architecture 302
foot 302
humanity 302
infe@@ 302
la 302
movie 302
screen 302
tion@@ 302
training 302
200 301
arm 301
connect 301
except 301
fy 301
somehow 301
visual 301
hiv 300
smo@@ 300
ta 300
bacteria 299
consu@@ 299
ner@@ 299
non@@ 299
reading 299
repres@@ 299
fundamental 298
inv@@ 298
larger 298
lies 298
main@@ 298
od@@ 298
serious 298
shor@@ 298
18 297
allows 297
biology 297
combin@@ 297
dist@@ 297
ess@@ 297
older 297
physics 296
sorts 296
written 296
complicated 295
effective 295
fine 295
human@@ 295
kill 295
stars 295
tool 295
15@@ 294
above 294
ale 294
cases 294
consi@@ 294
consider 294
treatment 294
continu@@ 293
docum@@ 293
successful 293
ute 293
ands 292
ct@@ 292
electricity 292
fli@@ 292
lau@@ 292
ns 292
seconds 292
site 292
thousand 292
ye@@ 292
cha@@ 291
cycle 291
formed 291
oc@@ 291
ops 291
service 291
tain 291
throughout 291
upon 291
zation 291
ach@@ 290
allowed 290
beings 290
exist 290
increase 290
matic 290
mom 290
ners 290
ological 290
sleep 290
african 289
alive 289
bunch 289
ide@@ 289
protect 289
range 289
although 288
clearly 288
context 288
gh 288
hot 288
massive 288
spo@@ 288
therefore 288
tree 288
win 288
12@@ 287
central 287
cou@@ 287
dance 287
families 287
freedom 287
lar@@ 287
patterns 287
sky 287
supposed 287
ame 286
square 286
ack 285
critical 285
excited 285
expensive 285
faces 285
ited 285
john 285
perspective 285
power@@ 285
weight 285
ful@@ 284
hel@@ 284
one-@@ 284
income 283
performance 283
region 283
rise 283
specific 283
tv 283
americans 282
ati@@ 282
beauty 282
however 282
pieces 282
ris@@ 282
s-@@ 282
shot 282
anywhere 281
provide 281
clair 280
down@@ 280
hed 280
machines 280
slow 280
sto@@ 280
wel@@ 280
becoming 279
decisions 279
listening 279
mal 279
thanks 279
treat 279
well-@@ 279
228293 278
anti@@ 278
betti 278
bro@@ 278
ear@@ 278
edi@@ 278
engineering 278
exc@@ 278
police 278
pra@@ 278
ty@@ 278
bing 277
dad 277
kept 277
military 277
progress 277
pros@@ 277
search 277
17@@ 276
acc@@ 276
break@@ 276
ception 276
cold 276
cover 276
record 276
wonder 276
a-@@ 275
bul@@ 275
gotten 275
himself 275
hom@@ 275
ran@@ 275
sell 275
terri@@ 275
current 274
le-@@ 274
math 274
price 274
recognize 274
tle 274
western 274
actual 273
ately 273
ian 273
ley 273
to-@@ 273
ant@@ 272
ese 272
neurons 272
touch 272
amp@@ 271
cep@@ 271
contribu@@ 271
conversation 271
dangerous 271
diversity 271
driving 271
ini@@ 271
pain 271
smaller 271
tent 271
ass 270
famous 270
ils 270
park 270
poin@@ 270
pping 270
respon@@ 270
skills 270
was@@ 270
conven@@ 269
depen@@ 269
ghts 269
meters 269
proto@@ 269
psych@@ 269
tou@@ 269
actions 268
familiar 268
met@@ 268
nar@@ 268
practice 268
zero 268
governments 267
infor@@ 267
ologists 267
waste 267
240535 266
content 266
earlier 266
intelligence 266
president 266
waiting 266
wers 266
cle@@ 265
greater 265
private 265
solutions 265
sum@@ 265
adap@@ 264
aid 264
anymore 264
fru@@ 264
gic 264
liber@@ 264
museum 264
produ@@ 264
thro@@ 264
zen 264
ads 263
hey 263
ll 263
pol@@ 263
policy 263
speaking 263
suff@@ 263
teaching 263
urban 263
arti@@ 262
aware 262
concept 262
hi 262
three-@@ 262
van@@ 262
verse 262
zes 262
bank 261
draw 261
star 261
train 261
after@@ 260
career 260
ignor@@ 260
loved 260
sustainable 260
values 260
xi@@ 260
artist 259
bridge 259
cip@@ 259
decades 259
reach@@ 259
decade 258
ham@@ 258
ise 258
remarkable 258
v 258
costs 257
dge 257
fantastic 257
irs 257
magic 257
na 257
politics 257
prote@@ 257
pun@@ 257
speci@@ 257
travel 257
unfortunately 257
walked 257
ben@@ 256
connection 256
cour@@ 256
mus@@ 256
phones 256
que 256
services 256
00@@ 255
198@@ 255
choices 255
encoura@@ 255
environmental 255
flow 255
genes 255
legs 255
lon@@ 255
none 255
ore 255
redu@@ 255
vari@@ 255
weren 255
yp@@ 255
ans@@ 254
assu@@ 254
cians 254
complete 254
flying 254
forest 254
function 254
two-@@ 254
direction 253
ina 253
press 253
st-@@ 253
strange 253
stre@@ 253
ts@@ 253
whose 253
2@@ 252
babies 252
dog 252
effects 252
gers 252
yle 252
ff 251
funny 251
immediately 251
institutions 251
occu@@ 251
recogni@@ 251
boys 250
conflict 250
invented 250
near 250
term 250
plastic 249
print 249
virus 249
0,000 248
agen@@ 248
ek 248
ep@@ 248
feed 248
final 248
greatest 248
ler 248
nan@@ 248
publi@@ 248
race 248
raise 248
bees 247
comm@@ 247
fig@@ 247
genetic 247
mile 247
quar@@ 247
related 247
repor@@ 247
teri@@ 247
tly 247
90 246
commit@@ 246
expected 246
financial 246
industrial 246
lab@@ 246
london 246
meeting 246
mos@@ 246
shi@@ 246
conclu@@ 245
condu@@ 245
dness 245
ets 245
ier 245
mb 245
surro@@ 245
corpor@@ 244
cros@@ 244
essed 244
forth 244
fr@@ 244
leg@@ 244
lin 244
re-@@ 244
recent 244
understood 244
website 244
14 243
dollar 243
histor@@ 243
pull 243
rule 243
subject 243
unique 243
ble@@ 242
challenges 242
crimin@@ 242
disappe@@ 242
exist@@ 242
floor 242
following 242
fro@@ 242
helped 242
net 242
acting 241
ana 241
lea@@ 241
mobile 241
sorry 241
tar@@ 241
ahead 240
argu@@ 240
divi@@ 240
extra@@ 240
glo@@ 240
inst@@ 240
markets 240
path 240
pressure 240
ran 240
40@@ 239
appli@@ 239
creativity 239
laws 239
mel@@ 239
onic 239
ray 239
sat 239
clean 238
era 238
levels 238
visi@@ 238
bes@@ 237
cure 237
enormous 237
lights 237
memor@@ 237
ory 237
shared 237
answers 236
forces 236
forget 236
ken@@ 236
ny 236
obvious 236
particip@@ 236
rap@@ 236
various 236
workers 236
70 235
aged 235
agree 235
decide 235
dre@@ 235
female 235
pair 235
possibly 235
sign 235
win@@ 235
chemical 234
diseases 234
f-@@ 234
o-@@ 234
our@@ 234
reali@@ 234
societies 234
some@@ 234
survive 234
television 234
tivity 234
mul@@ 233
sam@@ 233
temp@@ 233
cher 232
fit 232
fuel 232
hole 232
land@@ 232
mostly 232
played 232
popular 232
religion 232
stance 232
ular 232
useful 232
willing 232
wr@@ 232
analy@@ 231
archite@@ 231
citizens 231
decision 231
explore 231
ght 231
nur@@ 231
pris@@ 231
sharing 231
sing@@ 231
ax@@ 230
bac@@ 230
below 230
bill 230
capacity 230
chi@@ 230
dest 230
event 230
glass 230
lan@@ 230
nation 230
paid 230
pr@@ 230
scre@@ 230
sig@@ 230
stone 230
terrible 230
work@@ 230
worst 230
ash 229
brea@@ 229
estim@@ 229
secret 229
accep@@ 228
birds 228
dr. 228
entation 228
justice 228
lets 228
mars 228
published 228
river 228
tem@@ 228
thetic 228
turning 228
capital 227
instance 227
ists 227
ite 227
mp 227
party 227
qui@@ 227
slide 227
addi@@ 226
ani@@ 226
attra@@ 226
conference 226
daughter 226
decl@@ 226
dying 226
island 226
ky 226
original 226
slightly 226
surgery 226
ank 225
arts 225
crow@@ 225
destro@@ 225
discover 225
efficient 225
evolved 225
hes 225
sau@@ 225
sh 225
trade 225
zz@@ 225
ang@@ 224
calls 224
classi@@ 224
fol@@ 224
grade 224
introdu@@ 224
relationships 224
sch@@ 224
stick 224
summer 224
tex@@ 224
track 224
apped 223
california 223
cam@@ 223
chair 223
ep 223
networks 223
ologist 223
programs 223
push 223
sor@@ 223
travel@@ 223
biological 222
directly 222
imag@@ 222
improve 222
infrastructure 222
knowing 222
mechan@@ 222
mountain 222
on-@@ 222
oni@@ 222
ung@@ 222
ven 222
ambi@@ 221
cir@@ 221
communicate 221
counter@@ 221
date 221
emotional 221
helping 221
scientist 221
sy@@ 221
0-@@ 220
afghanistan 220
audi@@ 220
bringing 220
causes 220
cial 220
domin@@ 220
experiments 220
fron@@ 220
ial 220
inspired 220
organizations 220
pp@@ 220
purpose 220
tively 220
tter@@ 220
address 219
clin@@ 219
consciousness 219
despite 219
gue 219
ili@@ 219
nearly 219
ours 219
reve@@ 219
zo@@ 219
apart 218
broken 218
communication 218
noticed 218
rop@@ 218
-year-old 217
acts 217
ature 217
eating 217
mark 217
pit@@ 217
produced 217
san 217
temperature 217
ancient 216
dd@@ 216
dy@@ 216
ine@@ 216
members 216
wir@@ 216
wood 216
&apos;@@ 215
carto@@ 215
collabor@@ 215
colleagues 215
exten@@ 215
fle@@ 215
fund@@ 215
green@@ 215
indian 215
rema@@ 215
responsibility 215
standard 215
x-@@ 215
197@@ 214
300 214
algorith@@ 214
alization 214
designers 214
di 214
gene 214
multi@@ 214
pass 214
quick 214
significant 214
streets 214
tech 214
achie@@ 213
balance 213
carry 213
eli@@ 213
ell 213
hr@@ 213
neighbor@@ 213
regi@@ 213
repe@@ 213
text 213
vol@@ 213
25@@ 212
aids 212
bom@@ 212
creates 212
eding 212
enting 212
radio 212
blind 211
descri@@ 211
differences 211
dig@@ 211
interest@@ 211
legal 211
len@@ 211
nations 211
ra 211
reduce 211
stopped 211
studying 211
supply 211
surprising 211
tele@@ 211
tho@@ 211
twice 211
birth 210
bits 210
boat 210
comfortable 210
dur@@ 210
experiences 210
highly 210
kin@@ 210
moon 210
ought 210
planets 210
pounds 210
rooms 210
stream 210
wer@@ 210
13 209
bought 209
closer 209
foot@@ 209
fying 209
missing 209
mming 209
nov@@ 209
ods 209
seemed 209
speech 209
task 209
wei@@ 209
yers 209
al-@@ 208
differently 208
feels 208
genome 208
hat@@ 208
held 208
ority 208
passion 208
process@@ 208
q@@ 208
sac@@ 208
shift 208
suppor@@ 208
tin@@ 208
af@@ 207
atmosphere 207
bly 207
check 207
engage 207
heat 207
oxygen 207
photograph 207
pic@@ 207
pil@@ 207
ples 207
rain 207
tations 207
uns 207
vering 207
sele@@ 206
shares 206
soci@@ 206
stron@@ 206
worry 206
$ 205
ach 205
custom@@ 205
drop 205
easily 205
eu@@ 205
focused 205
giant 205
grap@@ 205
join 205
loo@@ 205
russi@@ 205
straight 205
agre@@ 204
and-@@ 204
card 204
complexity 204
eri@@ 204
foo@@ 204
increas@@ 204
sin@@ 204
,@@ 203
14@@ 203
afraid 203
character 203
edge 203
fan@@ 203
fix 203
gor@@ 203
hun@@ 203
meter 203
molecules 203
passed 203
shel@@ 203
sites 203
val@@ 203
activ@@ 202
ards 202
attack 202
compon@@ 202
ering 202
extra 202
identity 202
invol@@ 202
male 202
organi@@ 202
pus@@ 202
shed 202
stances 202
stors 202
total 202
uring 202
yer 202
communic@@ 201
demo@@ 201
limit@@ 201
mur@@ 201
report 201
saving 201
achieve 200
akes 200
compli@@ 200
const@@ 200
facebook 200
law@@ 200
low-@@ 200
recei@@ 200
see@@ 200
structures 200
trouble 200
ttle 200
virtual 200
vor@@ 200
10,000 199
foundation 199
gas@@ 199
gradu@@ 199
hero@@ 199
imagination 199
ink 199
opportunities 199
poll@@ 199
professor 199
sle@@ 199
surv@@ 199
year-old 199
attac@@ 198
civil 198
collap@@ 198
creatures 198
ests 198
glob@@ 198
meas@@ 198
ong 198
prison 198
resi@@ 198
serve 198
thir@@ 198
artists 197
basis 197
bird 197
boo@@ 197
degrees 197
devices 197
graph 197
hearing 197
landscape 197
lt 197
new@@ 197
rock 197
sm 197
soli@@ 197
spending 197
wan@@ 197
adi@@ 196
charge 196
conc@@ 196
expec@@ 196
ites 196
reflec@@ 196
roll@@ 196
bil@@ 195
etc 195
fortun@@ 195
religious 195
stration 195
trial 195
acade@@ 194
aspe@@ 194
catch 194
load 194
lucky 194
ne 194
stem 194
stress 194
accoun@@ 193
bran@@ 193
cious 193
fairly 193
fascinating 193
fellow 193
forever 193
operation 193
bru@@ 192
consum@@ 192
contin@@ 192
dents 192
dire@@ 192
loss 192
nel 192
photo@@ 192
tas@@ 192
ases 191
cin@@ 191
condition 191
ells 191
habit@@ 191
mc@@ 191
resol@@ 191
simul@@ 191
spaces 191
tain@@ 191
window 191
asia 190
emplo@@ 190
ening 190
leadership 190
lie 190
phenomenon 190
possibility 190
richard 190
visu@@ 190
24 189
ance@@ 189
bone 189
care@@ 189
cos@@ 189
dea@@ 189
distance 189
effort 189
failure 189
fal@@ 189
farmers 189
ize 189
respond 189
sculp@@ 189
typical 189
unt 189
1,000 188
17 188
centi@@ 188
helps 188
leads 188
oceans 188
plac@@ 188
robo@@ 188
spec@@ 188
tom@@ 188
tremendous 188
ulate 188
ultimately 188
vacc@@ 188
ales 187
argument 187
cide 187
discovery 187
gate 187
graphic 187
gui@@ 187
iled 187
ima@@ 187
jun@@ 187
laun@@ 187
leading 187
moments 187
prize 187
reg@@ 187
rele@@ 187
sl@@ 187
tal@@ 187
tially 187
yellow 187
50@@ 186
billions 186
brilliant 186
campaign 186
corner 186
dence 186
depression 186
din@@ 186
imp@@ 186
puts 186
bled 185
cell@@ 185
cer 185
conne@@ 185
constru@@ 185
covered 185
demonstr@@ 185
engine 185
fur@@ 185
gan@@ 185
gry 185
inner 185
ken 185
lying 185
mir@@ 185
ordin@@ 185
return 185
sick 185
ten 185
abo@@ 184
brother 184
definition 184
dem@@ 184
dreams 184
ends 184
finished 184
graphy 184
iraq 184
kee@@ 184
profit 184
responsible 184
shouldn 184
suffering 184
1.@@ 183
appreci@@ 183
ath@@ 183
bt 183
designer 183
email 183
embra@@ 183
enter 183
fair 183
flies 183
hei@@ 183
necessary 183
oned 183
organisms 183
otherwise 183
particles 183
repli@@ 183
respect 183
techni@@ 183
wild 183
afford 182
alize 182
coffee 182
em 182
entirely 182
fighting 182
hur@@ 182
lesson 182
mm@@ 182
mouse 182
ologi@@ 182
oss 182
spring 182
tton 182
tured 182
ables 181
apping 181
assem@@ 181
concent@@ 181
diagn@@ 181
easier 181
figured 181
gol@@ 181
ick 181
interact 181
opposite 181
predict 181
puzz@@ 181
raised 181
reas@@ 181
tab@@ 181
tt 181
apply 180
arian 180
celebr@@ 180
ctor 180
eness 180
hair 180
hum@@ 180
insects 180
japan 180
journ@@ 180
mothers 180
photo 180
simpli@@ 180
sold 180
brings 179
end@@ 179
explo@@ 179
foreign 179
frequ@@ 179
high@@ 179
instru@@ 179
neuro@@ 179
opened 179
placed 179
secre@@ 179
vast 179
wealth 179
wide 179
abilities 178
ba 178
bility 178
bling 178
events 178
ka 178
matters 178
mem@@ 178
ney 178
note 178
notion 178
nutri@@ 178
obs@@ 178
od 178
passionate 178
quote 178
rein@@ 178
tives 178
tory 178
trained 178
benefits 177
deeply 177
dimensional 177
emer@@ 177
fill 177
filled 177
flu 177
fs 177
hidden 177
identi@@ 177
ka@@ 177
mix@@ 177
necessarily 177
painting 177
paul 177
th-@@ 177
xes 177
yn@@ 177
describe 176
european 176
flight 176
monit@@ 176
mr. 176
pe 176
slowly 176
suit 176
thes@@ 176
weird 176
acceler@@ 175
accur@@ 175
antly 175
base 175
benefit 175
capable 175
colors 175
creation 175
due 175
facts 175
fif@@ 175
ination 175
invisible 175
ped 175
tail 175
tter 175
ulation 175
0 174
00 174
according 174
childhood 174
conscious 174
contro@@ 174
craft 174
elements 174
enjoy 174
holding 174
invest@@ 174
investment 174
lic 174
noise 174
operating 174
photograph@@ 174
practic@@ 174
ring 174
sand 174
studied 174
survi@@ 174
tissue 174
atta@@ 173
bus@@ 173
cheap 173
cis@@ 173
coast 173
equal 173
expla@@ 173
importantly 173
innov@@ 173
magazine 173
negative 173
occur@@ 173
throw 173
tom 173
ury 173
wave 173
wee@@ 173
wonder@@ 173
brand 172
competition 172
degree 172
deser@@ 172
evol@@ 172
exhi@@ 172
home@@ 172
inclu@@ 172
jum@@ 172
offer 172
ome 172
ost 172
virtu@@ 172
visit 172
block 171
caught 171
christ@@ 171
contra@@ 171
coral 171
defen@@ 171
extreme 171
french 171
gene@@ 171
heads 171
horri@@ 171
in-@@ 171
limited 171
principles 171
traffic 171
walls 171
bla@@ 170
ery 170
friend@@ 170
influence 170
invi@@ 170
labor 170
nee@@ 170
ol 170
promise 170
requi@@ 170
roll 170
sensor@@ 170
seriously 170
sexual 170
transpor@@ 170
ams 169
believed 169
compe@@ 169
electric 169
failed 169
hopefully 169
husband 169
invest 169
kill@@ 169
lam@@ 169
motion 169
moves 169
names 169
photos 169
prof@@ 169
spor@@ 169
stran@@ 169
stuck 169
transform 169
unding 169
ut 169
weapons 169
adults 168
amp 168
contr@@ 168
driven 168
emergen@@ 168
engineers 168
factory 168
graphi@@ 168
ishing 168
lack 168
managed 168
philosop@@ 168
plus 168
titude 168
unless 168
vor 168
agers 167
begins 167
blin@@ 167
james 167
key@@ 167
lation 167
leaving 167
pac@@ 167
profound 167
ressed 167
surprise 167
tempor@@ 167
thinks 167
-up 166
1,@@ 166
196@@ 166
advantage 166
businesses 166
cei@@ 166
count 166
determin@@ 166
electro@@ 166
facili@@ 166
interaction 166
milli@@ 166
parti@@ 166
priv@@ 166
protein 166
sla@@ 166
succe@@ 166
versi@@ 166
volunte@@ 166
wisdom 166
ace 165
aling 165
belief 165
bit@@ 165
collective 165
compar@@ 165
cti@@ 165
exper@@ 165
fields 165
jud@@ 165
ko@@ 165
modi@@ 165
pap@@ 165
quantum 165
revie@@ 165
sector 165
soldiers 165
transpar@@ 165
wake 165
chap@@ 164
circu@@ 164
concerned 164
cont@@ 164
crip@@ 164
currently 164
emotions 164
engineer 164
everyday 164
fication 164
fundament@@ 164
george 164
magne@@ 164
opini@@ 164
organic 164
toward 164
treated 164
affect 163
allo@@ 163
british 163
circle 163
compu@@ 163
constantly 163
economics 163
extin@@ 163
fashion 163
fold 163
fourth 163
ght-@@ 163
honest 163
ii 163
kl@@ 163
mathematics 163
measu@@ 163
nam@@ 163
prob@@ 163
ried 163
ros@@ 163
sco@@ 163
sister 163
thomas 163
toi@@ 163
wil@@ 163
agriculture 162
apple 162
arms 162
ased 162
beat 162
breast 162
designing 162
dry 162
effici@@ 162
forced 162
gras@@ 162
gun 162
inci@@ 162
intervie@@ 162
las@@ 162
michael 162
neur@@ 162
random 162
rob@@ 162
station 162
sy 162
400 161
account 161
approach@@ 161
background 161
compared 161
eleph@@ 161
expres@@ 161
gain 161
generate 161
gon@@ 161
gos 161
graduate 161
impres@@ 161
interpre@@ 161
letter 161
lied 161
ories 161
separ@@ 161
separate 161
shap@@ 161
soil 161
spac@@ 161
strategy 161
vement 161
waves 161
wear 161
21@@ 160
argue 160
australia 160
free@@ 160
galaxy 160
ie@@ 160
keeping 160
los 160
majority 160
meat 160
peri@@ 160
pop@@ 160
posi@@ 160
professional 160
quie@@ 160
tan 160
yesterday 160
24@@ 159
civilization 159
classroom 159
construction 159
copy 159
crime 159
define 159
desert 159
fix@@ 159
followed 159
homes 159
imm@@ 159
invited 159
link 159
sar@@ 159
steps 159
stery 159
therapy 159
vice 159
whenever 159
whom 159
worried 159
activi@@ 158
aps 158
described 158
desire 158
faith 158
hell 158
increasingly 158
languages 158
log@@ 158
mani@@ 158
musi@@ 158
player 158
poetry 158
popul@@ 158
small@@ 158
supp@@ 158
symme@@ 158
ve-@@ 158
watched 158
ading 157
atures 157
consumption 157
coo@@ 157
corruption 157
deliver 157
distribu@@ 157
ear 157
hea@@ 157
impli@@ 157
interven@@ 157
investig@@ 157
iran 157
married 157
mexico 157
normally 157
oning 157
open-@@ 157
operate 157
paying 157
perfectly 157
rest@@ 157
sequence 157
signal 157
spon@@ 157
spre@@ 157
stake 157
surprised 157
tens 157
200@@ 156
alism 156
brazil 156
cognitive 156
demand 156
ecu@@ 156
ert 156
ght@@ 156
ids 156
infin@@ 156
jac@@ 156
lunch 156
narra@@ 156
neighborhood 156
organized 156
tomorrow 156
tox@@ 156
tures 156
users 156
vir@@ 156
alternative 155
cape 155
commercial 155
consequences 155
ctors 155
dan 155
drawing 155
gather@@ 155
goals 155
hate 155
independent 155
jane 155
mid@@ 155
opening 155
option 155
shif@@ 155
stac@@ 155
tons 155
universal 155
ves@@ 155
wearing 155
announ@@ 154
associated 154
bus 154
concep@@ 154
conf@@ 154
dom 154
dynamic 154
gely 154
gender 154
happ@@ 154
harder 154
integr@@ 154
jump 154
leader 154
mag@@ 154
powered 154
prevent 154
promis@@ 154
prop@@ 154
represent 154
sever@@ 154
sim@@ 154
tural 154
vac@@ 154
auti@@ 153
bread 153
co 153
compare 153
develop@@ 153
disco@@ 153
england 153
galaxies 153
hasn 153
mist@@ 153
nei@@ 153
paint 153
target 153
thri@@ 153
warming 153
washington 153
alists 152
avoid 152
bles 152
cortex 152
debate 152
dest@@ 152
elling 152
im 152
isi@@ 152
keys 152
laugh@@ 152
maps 152
mentioned 152
natur@@ 152
pho@@ 152
pon@@ 152
preser@@ 152
proud 152
reser@@ 152
ships 152
subje@@ 152
suggests 152
theater 152
valley 152
versus 152
68@@ 151
ama@@ 151
bear 151
challeng@@ 151
clock 151
closed 151
collect 151
hen@@ 151
institute 151
ior 151
ordinary 151
pages 151
rural 151
sm@@ 151
struggle 151
tough 151
wow 151
2,000 150
45 150
aming 150
anthrop@@ 150
broad@@ 150
church 150
cle 150
distribution 150
gentle@@ 150
houses 150
intelligent 150
lady 150
mad 150
management 150
pengu@@ 150
planning 150
rational 150
researchers 150
safety 150
sear@@ 150
secon@@ 150
slo@@ 150
sudden 150
surge@@ 150
survival 150
testing 150
ues 150
ain 149
arc@@ 149
bar 149
charac@@ 149
daily 149
feedback 149
fell 149
fla@@ 149
generations 149
gold 149
identify 149
int 149
joy 149
lec@@ 149
males 149
motiv@@ 149
mouth 149
poor@@ 149
principle 149
scen@@ 149
ution 149
vote 149
ack@@ 148
adult 148
anderson 148
aries 148
calling 148
categ@@ 148
evil 148
fest@@ 148
fis@@ 148
gam@@ 148
manage 148
micros@@ 148
shop 148
statistics 148
technologi@@ 148
teen@@ 148
thesis 148
threat 148
ze@@ 148
appear 147
ath 147
berg 147
charles 147
civili@@ 147
clinical 147
cloud 147
color@@ 147
ef@@ 147
farm 147
germany 147
ghter 147
govern@@ 147
grand 147
hin@@ 147
ills 147
launched 147
losing 147
meaning@@ 147
molecule 147
neurosci@@ 147
offi@@ 147
section 147
shapes 147
twitter 147
val 147
vehicle 147
accident 146
aring 146
ate@@ 146
bab@@ 146
cards 146
department 146
dolph@@ 146
exists 146
expression 146
kenya 146
match 146
metaphor 146
ping 146
plane 146
sentence 146
technical 146
tial 146
voices 146
alle@@ 145
asks 145
autom@@ 145
caused 145
connections 145
credit 145
democratic 145
depres@@ 145
einstein 145
ene@@ 145
explan@@ 145
inn@@ 145
leaves 145
optimi@@ 145
pers 145
received 145
shir@@ 145
spirit 145
spot 145
tage 145
vege@@ 145
wit@@ 145
35 144
aly@@ 144
appro@@ 144
bin@@ 144
bright 144
circum@@ 144
ela 144
entrepreneur@@ 144
existence 144
gal@@ 144
gran@@ 144
igh@@ 144
kilometers 144
kno@@ 144
may@@ 144
multiple 144
ough 144
poem 144
saved 144
seat 144
ser 144
speak@@ 144
stood 144
sum 144
tch 144
terrorism 144
trilli@@ 144
unds 144
va@@ 144
- 143
actor 143
awar@@ 143
chemistry 143
co-@@ 143
colum@@ 143
continent 143
electrical 143
grown 143
ham 143
ief 143
pher@@ 143
plu@@ 143
relevant 143
remote 143
rus@@ 143
sight 143
vill@@ 143
warm 143
weather 143
13@@ 142
advan@@ 142
airplane 142
article 142
bed@@ 142
contact 142
controlled 142
de-@@ 142
dealing 142
equivalent 142
ference 142
finger 142
hou@@ 142
hypo@@ 142
israel 142
lessons 142
miss 142
negoti@@ 142
nervous 142
orders 142
spoke 142
violent 142
100,000 141
ade 141
arab@@ 141
au 141
collection 141
connec@@ 141
cultures 141
ements 141
feelings 141
gen 141
hig@@ 141
importance 141
insi@@ 141
interface 141
leg 141
master 141
mortality 141
observ@@ 141
regular 141
shoes 141
viruses 141
advanced 140
artificial 140
camp 140
co2 140
dimensions 140
equipment 140
experts 140
harv@@ 140
hospit@@ 140
killing 140
marine 140
marriage 140
matically 140
occasi@@ 140
prove 140
roman@@ 140
stro@@ 140
wondering 140
wri@@ 140
analysis 139
britain 139
brown 139
by@@ 139
cers 139
curious 139
detail 139
embar@@ 139
emerging 139
empa@@ 139
experienced 139
geni@@ 139
inning 139
liter@@ 139
possibilities 139
producing 139
robert 139
rup@@ 139
absolute 138
appar@@ 138
army 138
chemicals 138
details 138
dinner 138
discipl@@ 138
drink 138
essential 138
fail 138
folks 138
four@@ 138
gli@@ 138
grandmother 138
highest 138
holes 138
member 138
minister 138
ols 138
part@@ 138
productive 138
rid 138
scan@@ 138
scene 138
sty 138
arrived 137
autonom@@ 137
awful 137
blu@@ 137
claim 137
cope 137
dam@@ 137
damage 137
driver 137
emis@@ 137
enjo@@ 137
fall@@ 137
frank@@ 137
fresh 137
heavy 137
influ@@ 137
liked 137
movies 137
onal 137
rates 137
ress 137
setting 137
signals 137
specifically 137
story@@ 137
via 137
worldwide 137
ya 137
20th 136
5,000 136
aded 136
cans 136
chain 136
coal 136
convinced 136
evolution@@ 136
fore@@ 136
hadn 136
healthcare 136
mand@@ 136
method 136
mountains 136
proje@@ 136
sad 136
satis@@ 136
sending 136
signs 136
thoughts 136
variety 136
anti-@@ 135
atory 135
ball@@ 135
dies 135
eff@@ 135
establi@@ 135
fishing 135
forming 135
gap 135
gy 135
invention 135
letters 135
magni@@ 135
osis 135
phil@@ 135
players 135
pre-@@ 135
processes 135
property 135
regul@@ 135
selling 135
stands 135
strength 135
suggest 135
trials 135
ug@@ 135
underneath 135
whereas 135
3d 134
angel@@ 134
chri@@ 134
dinosaurs 134
direct 134
distin@@ 134
hall@@ 134
ir 134
layer 134
messages 134
oral 134
pass@@ 134
plays 134
prime 134
promo@@ 134
ras@@ 134
red@@ 134
ric 134
suggest@@ 134
sustain@@ 134
switch 134
trip 134
wars 134
amo@@ 133
ason 133
aten 133
atom@@ 133
bia 133
broke 133
budget 133
capital@@ 133
click 133
coura@@ 133
dots 133
empty 133
flag 133
guar@@ 133
intern@@ 133
isol@@ 133
japanese 133
library 133
malaria 133
muscle 133
neu@@ 133
northern 133
picked 133
play@@ 133
portra@@ 133
proce@@ 133
properties 133
quali@@ 133
satellite 133
sex@@ 133
smell 133
suppose 133
tern@@ 133
tin 133
tumor 133
carrying 132
chr@@ 132
considered 132
controll@@ 132
facing 132
gles 132
k. 132
magi@@ 132
maker 132
mas 132
mates 132
molecular 132
percei@@ 132
reaction 132
relatively 132
ritual 132
shoul@@ 132
stu@@ 132
typically 132
ual 132
union 132
videos 132
art@@ 131
bor 131
breaking 131
cat 131
characters 131
convince 131
diet 131
disaster 131
eins 131
emotion 131
epidemic 131
exchange 131
hyper@@ 131
intui@@ 131
ium 131
migr@@ 131
osity 131
pants 131
sharks 131
spir@@ 131
steve 131
sw@@ 131
unit 131
van 131
victims 131
yl@@ 131
99 130
aled 130
behaviors 130
capture 130
carefully 130
definitely 130
double 130
effectively 130
gift 130
gling 130
leng@@ 130
partner 130
pole 130
ral 130
resource 130
rhyth@@ 130
roughly 130
shark 130
sides 130
stock 130
thers 130
umin@@ 130
valuable 130
69@@ 129
abstra@@ 129
bel 129
bott@@ 129
confidence 129
cross 129
defined 129
exercise 129
fisher@@ 129
gul@@ 129
hero 129
increasing 129
intellectual 129
inti@@ 129
kid@@ 129
movements 129
musical 129
pleasure 129
post@@ 129
refuge@@ 129
require 129
round 129
shar@@ 129
sources 129
steel 129
vable 129
adop@@ 128
ban 128
beach 128
bine 128
canada 128
chimpanze@@ 128
clou@@ 128
deeper 128
discus@@ 128
express 128
gay 128
generally 128
install@@ 128
lifetime 128
location 128
long-term 128
mark@@ 128
mathematical 128
mix 128
orig@@ 128
post-@@ 128
privi@@ 128
raising 128
represents 128
served 128
son@@ 128
status 128
studio 128
vin@@ 128
writer 128
zer@@ 128
195@@ 127
added 127
afri@@ 127
anding 127
collaboration 127
dow 127
ecosystem 127
fail@@ 127
feder@@ 127
gdp 127
platform 127
prot@@ 127
radical 127
rou@@ 127
shall 127
stupid 127
underwater 127
zone 127
addition 126
arab 126
bers 126
breath 126
buil@@ 126
correct 126
dogs 126
fewer 126
garden 126
gravity 126
hil@@ 126
honor 126
hurt 126
ison 126
lay 126
logi@@ 126
mini@@ 126
organs 126
photographs 126
practical 126
protected 126
released 126
requires 126
ride 126
singing 126
tane@@ 126
transformation 126
transition 126
ums 126
vulnerable 126
worlds 126
youtube 126
affected 125
astronom@@ 125
atlan@@ 125
bubble 125
buying 125
dio@@ 125
eric 125
explains 125
fossil 125
fund 125
ge-@@ 125
ingu@@ 125
lands 125
mes@@ 125
microbes 125
ord@@ 125
pet 125
plate 125
politicians 125
respe@@ 125
rock@@ 125
sample 125
sensitive 125
stan@@ 125
stru@@ 125
tains 125
techniques 125
teeth 125
thin@@ 125
unts 125
150 124
accept 124
atoms 124
birth@@ 124
cameras 124
chicago 124
cil 124
comple@@ 124
ctional 124
deci@@ 124
diam@@ 124
discussion 124
ember 124
exact 124
francisco 124
gest@@ 124
iden@@ 124
inevi@@ 124
insight 124
insu@@ 124
jos@@ 124
kers 124
life@@ 124
makers 124
mira@@ 124
nigeria 124
path@@ 124
previous 124
rare 124
regions 124
sets 124
staf@@ 124
sub-@@ 124
tered 124
tests 124
unlike 124
unusual 124
vag@@ 124
wings 124
wire 124
2008 123
adverti@@ 123
assi@@ 123
blocks 123
crete 123
curi@@ 123
eline 123
employees 123
environments 123
former 123
fran@@ 123
gest 123
lou@@ 123
nity 123
notes 123
performing 123
primary 123
rand@@ 123
roads 123
roots 123
sand@@ 123
sett@@ 123
sugar 123
user 123
yn 123
appropriate 122
bloo@@ 122
bo 122
boundar@@ 122
chicken 122
cular 122
depends 122
enty 122
finish 122
harvard 122
hide 122
introduced 122
islam@@ 122
newspaper 122
obje@@ 122
ok@@ 122
peac@@ 122
prepared 122
rapidly 122
scor@@ 122
situations 122
southern 122
treat@@ 122
trick 122
tries 122
yment 122
admini@@ 121
bang 121
battery 121
battle 121
bee@@ 121
brothers 121
earth@@ 121
factors 121
glam@@ 121
gram 121
hall 121
hydrogen 121
ight 121
illness 121
include 121
laptop 121
literature 121
open@@ 121
pack@@ 121
psychology 121
quit@@ 121
restaurant 121
risks 121
sequ@@ 121
sophisticated 121
sym@@ 121
tested 121
trage@@ 121
tw@@ 121
wid@@ 121
&amp; 120
astern 120
cky 120
competi@@ 120
director 120
drin@@ 120
flexi@@ 120
gressi@@ 120
hous@@ 120
inse@@ 120
intri@@ 120
mention 120
phr@@ 120
pollution 120
resear@@ 120
spli@@ 120
translat@@ 120
twi@@ 120
angle 119
behavi@@ 119
bomb 119
ckets 119
comfort 119
fel@@ 119
frame 119
ist@@ 119
ladies 119
lap@@ 119
mean@@ 119
nasa 119
skelet@@ 119
sor 119
trum 119
bet 118
bi 118
capit@@ 118
cents 118
computing 118
destru@@ 118
diplom@@ 118
fire@@ 118
interview 118
kitchen 118
mod@@ 118
motor 118
muslim 118
pin@@ 118
poten@@ 118
protection 118
quanti@@ 118
sees 118
strug@@ 118
tac@@ 118
ur 118
2010 117
75 117
ass@@ 117
associ@@ 117
deter@@ 117
ern@@ 117
hood 117
illegal 117
instrument 117
iting 117
kar@@ 117
marketing 117
metho@@ 117
nat@@ 117
ots 117
paradig@@ 117
recycl@@ 117
sav@@ 117
tradition 117
vehi@@ 117
za@@ 117
zi@@ 117
band 116
bee 116
bush 116
cele@@ 116
centers 116
conserv@@ 116
fascin@@ 116
form@@ 116
ished 116
l-@@ 116
peter 116
pop 116
spin@@ 116
tape 116
thei@@ 116
winter 116
you@@ 116
2007 115
analo@@ 115
arr@@ 115
arri@@ 115
atten@@ 115
ay 115
clas@@ 115
conservation 115
ction@@ 115
darwin 115
eping 115
falls 115
illustr@@ 115
industri@@ 115
inspiration 115
islands 115
jer@@ 115
mili@@ 115
spa@@ 115
telescope 115
transport 115
ai@@ 114
crash 114
ferti@@ 114
ica 114
j 114
manufacturing 114
nin@@ 114
pacific 114
que@@ 114
sna@@ 114
tradi@@ 114
tz@@ 114
water@@ 114
wise 114
2000 113
21 113
arb@@ 113
aw@@ 113
bene@@ 113
caus@@ 113
confli@@ 113
diction@@ 113
er-@@ 113
ffe 113
hip 113
itation 113
laboratory 113
milk 113
pli@@ 113
typ@@ 113
volu@@ 113
who@@ 113
adam 112
apart@@ 112
archi@@ 112
bag@@ 112
burn 112
camp@@ 112
colli@@ 112
dec@@ 112
eller 112
innovative 112
mechanical 112
phan@@ 112
piano 112
ration 112
ref@@ 112
reli@@ 112
shu@@ 112
simil@@ 112
stry 112
tual 112
verage 112
windows 112
acci@@ 111
cast 111
corre@@ 111
dered 111
eur 111
ever@@ 111
lock 111
mysteri@@ 111
thou@@ 111
add@@ 110
anony@@ 110
che 110
dark@@ 110
dynam@@ 110
eland 110
geo@@ 110
gress 110
hit@@ 110
institution 110
los@@ 110
mamm@@ 110
mr@@ 110
opp@@ 110
passi@@ 110
perman@@ 110
sky@@ 110
stand@@ 110
tam@@ 110
tis@@ 110
ye 110
za 110
alist 109
anim@@ 109
boston 109
elec@@ 109
elim@@ 109
ing-@@ 109
osp@@ 109
pig@@ 109
propor@@ 109
refle@@ 109
restri@@ 109
so-@@ 109
stics 109
susta@@ 109
va 109
wired 109
23@@ 108
ager 108
ank@@ 108
bat 108
brow@@ 108
cau@@ 108
chip 108
cript 108
ern 108
esses 108
fau@@ 108
hell@@ 108
manipul@@ 108
one@@ 108
sa 108
than@@ 108
therap@@ 108
upp@@ 108
venue 108
19 107
citi@@ 107
curr@@ 107
humor 107
islam 107
mol@@ 107
oli@@ 107
olo@@ 107
ord 107
organ 107
pakistan 107
spr@@ 107
toler@@ 107
clip 106
dor@@ 106
gn@@ 106
hotel 106
inspi@@ 106
musli@@ 106
navi@@ 106
queen 106
scrat@@ 106
songs 106
spar@@ 106
wes@@ 106
whist@@ 106
178@@ 105
45@@ 105
aper 105
athle@@ 105
atives 105
av@@ 105
bert 105
biom@@ 105
common@@ 105
entrepren@@ 105
explosi@@ 105
films 105
gall@@ 105
journalist 105
less@@ 105
ollywood 105
phenomen@@ 105
plans 105
requ@@ 105
six@@ 105
symptom@@ 105
syste@@ 105
thin 105
600 104
absor@@ 104
ami 104
antibio@@ 104
black@@ 104
fabri@@ 104
fit@@ 104
juli@@ 104
m-@@ 104
multi-@@ 104
port 104
relative 104
sir 104
success@@ 104
thi@@ 104
web@@ 104
angeles 103
appl@@ 103
cock@@ 103
cool@@ 103
demon@@ 103
designs 103
fic@@ 103
fiction 103
ft@@ 103
medium 103
nel@@ 103
orche@@ 103
origin@@ 103
ous@@ 103
pollen 103
programm@@ 103
rus 103
smar@@ 103
taste 103
une 103
uns@@ 103
wikipedia 103
ai 102
amazon 102
bay 102
c. 102
element 102
kni@@ 102
mathemati@@ 102
real@@ 102
stent 102
surpris@@ 102
tee 102
theor@@ 102
ulti@@ 102
2.@@ 101
2009 101
are@@ 101
aug@@ 101
bol@@ 101
clever 101
esti@@ 101
gates 101
oud 101
post 101
sno@@ 101
tribu@@ 101
aks 100
lake 100
mous 100
organis@@ 100
partic@@ 100
prepar@@ 100
progra@@ 100
trau@@ 100
bos@@ 99
bun@@ 99
ctly 99
follo@@ 99
iphone 99
jan@@ 99
mary 99
sal 99
sent@@ 99
standards 99
stun@@ 99
tos@@ 99
2005 98
22 98
app 98
ash@@ 98
blog@@ 98
dent@@ 98
dir@@ 98
ene 98
exponenti@@ 98
great@@ 98
legi@@ 98
moder@@ 98
tate 98
tta 98
uss 98
whi@@ 98
27 97
any@@ 97
ap 97
att@@ 97
coll@@ 97
cyber@@ 97
danger@@ 97
ero@@ 97
exam@@ 97
grab 97
gration 97
ort 97
quo@@ 97
september 97
ss 97
stim@@ 97
stimul@@ 97
tili@@ 97
unger 97
yo 97
aqu@@ 96
arily 96
cially 96
defin@@ 96
fing@@ 96
foc@@ 96
gin@@ 96
instin@@ 96
martin 96
mess@@ 96
mom@@ 96
n. 96
phase 96
pip@@ 96
pir@@ 96
rab@@ 96
stati@@ 96
tali@@ 96
thr@@ 96
viol@@ 96
anda 95
bak@@ 95
ben 95
bin 95
blog 95
certain@@ 95
eo@@ 95
itali@@ 95
paris 95
phili@@ 95
pleas@@ 95
sahar@@ 95
sci@@ 95
sue 95
tz 95
deta@@ 94
fusion 94
gent@@ 94
hill 94
k-@@ 94
pharma@@ 94
philosoph@@ 94
strategi@@ 94
trend 94
tube 94
ually 94
26 93
diagra@@ 93
dru@@ 93
frank 93
llan@@ 93
lung 93
minim@@ 93
partner@@ 93
pool 93
tour 93
wol@@ 93
23 92
32 92
alt 92
astero@@ 92
budd@@ 92
cker 92
commun@@ 92
fic 92
genom@@ 92
glas@@ 92
hau@@ 92
mon 92
obama 92
ple 92
pose 92
proper@@ 92
rich@@ 92
tie 92
ald 91
animation 91
bron@@ 91
cus 91
diabetes 91
ere 91
essen@@ 91
gps 91
hac@@ 91
ja 91
oms 91
transforma@@ 91
vered 91
wis@@ 91
year-@@ 91
42 90
bg 90
bis@@ 90
chil@@ 90
illu@@ 90
janu@@ 90
jon@@ 90
kins 90
kis@@ 90
pen 90
questi@@ 90
refer@@ 90
resist@@ 90
var@@ 90
ay@@ 89
esh 89
fan 89
haiti 89
olymp@@ 89
sion@@ 89
sus@@ 89
teams 89
turing 89
an-@@ 88
automo@@ 88
democra@@ 88
diff@@ 88
dun@@ 88
hunger 88
indu@@ 88
korea 88
mach@@ 88
mm 88
sign@@ 88
spra@@ 88
symbol 88
tag 88
é@@ 88
club 87
consequ@@ 87
engagement 87
ford 87
indepen@@ 87
jen@@ 87
super 87
tus 87
wand@@ 87
95 86
abeth 86
bell 86
genu@@ 86
gery 86
heav@@ 86
illusion 86
kan@@ 86
les@@ 86
mammo@@ 86
manufac@@ 86
mich@@ 86
nation@@ 86
nest 86
oll@@ 86
ome@@ 86
op 86
pati@@ 86
polio 86
route 86
s. 86
tel@@ 86
veter@@ 86
weap@@ 86
.com 85
affe@@ 85
commer@@ 85
deep@@ 85
fortunately 85
ghana 85
hardware 85
iness 85
kat@@ 85
rier 85
scho@@ 85
sensi@@ 85
wild@@ 85
will@@ 85
woo@@ 85
65 84
diffic@@ 84
expan@@ 84
fab@@ 84
heal@@ 84
inte@@ 84
ji@@ 84
orbit 84
pad 84
stit@@ 84
talent 84
tap@@ 84
tis 84
titu@@ 84
universi@@ 84
zations 84
ale@@ 83
ange 83
arly 83
bby 83
brief 83
class@@ 83
distri@@ 83
fi 83
lege 83
rose 83
stanford 83
weal@@ 83
zer 83
zz 83
agri@@ 82
chol@@ 82
dh 82
ens@@ 82
hang 82
ku@@ 82
mari@@ 82
n-@@ 82
ooh 82
poly@@ 82
profession@@ 82
psychi@@ 82
rio 82
scr@@ 82
terrori@@ 82
ander@@ 81
ar-@@ 81
arch@@ 81
d. 81
dam 81
experim@@ 81
kel@@ 81
ki 81
lear@@ 81
origami 81
sher@@ 81
spee@@ 81
usual 81
agenda 80
bud@@ 80
fam@@ 80
fe 80
gst 80
hack@@ 80
iety 80
lux@@ 80
pyrami@@ 80
rely 80
sin 80
vels 80
wa 80
bble 79
bei@@ 79
brie@@ 79
cher@@ 79
cris@@ 79
dialo@@ 79
ecos@@ 79
epi@@ 79
film@@ 79
nai@@ 79
som@@ 79
tax@@ 79
tricks 79
uganda 79
zens 79
2004 78
48 78
alter@@ 78
broo@@ 78
chaos 78
colleag@@ 78
come@@ 78
confi@@ 78
enced 78
experiment@@ 78
gang 78
gin 78
glu@@ 78
gy@@ 78
jack 78
mail 78
smith 78
text@@ 78
trends 78
univer@@ 78
what@@ 78
2006 77
33 77
chen 77
filter 77
geographic 77
gut 77
hemis@@ 77
links 77
listen@@ 77
microsoft 77
moment@@ 77
motivation 77
psycho@@ 77
sandwi@@ 77
spen@@ 77
steven 77
ti 77
transi@@ 77
usi@@ 77
verb@@ 77
vulner@@ 77
ala 76
campus 76
frag@@ 76
health@@ 76
ib@@ 76
inde@@ 76
ital@@ 76
joe 76
ko 76
manhattan 76
patri@@ 76
rei@@ 76
sation 76
trin@@ 76
trou@@ 76
+ 75
dinosau@@ 75
ette 75
expen@@ 75
favor@@ 75
lee 75
mechanis@@ 75
mo 75
ogen@@ 75
ph 75
prev@@ 75
silicon 75
skep@@ 75
tes@@ 75
transp@@ 75
viet@@ 75
with@@ 75
yste@@ 75
28 74
85 74
alzheimer 74
ane 74
disc@@ 74
eting 74
ov@@ 74
port@@ 74
sel 74
ski@@ 74
skul@@ 74
symb@@ 74
tour@@ 74
ultra@@ 74
29 73
astro@@ 73
biolog@@ 73
brian 73
derek 73
differ@@ 73
foun@@ 73
israel@@ 73
ix 73
jim 73
long-@@ 73
mption 73
osen 73
phi@@ 73
plat@@ 73
profi@@ 73
ste 73
stly 73
sugge@@ 73
tiv@@ 73
tles 73
36@@ 72
architec@@ 72
band@@ 72
cise 72
decisi@@ 72
florida 72
forma@@ 72
h-@@ 72
institu@@ 72
matri@@ 72
maxim@@ 72
nee 72
religi@@ 72
sage 72
soldi@@ 72
sport 72
stephen 72
tel 72
tops 72
2003 71
ail@@ 71
aller@@ 71
ama 71
amy 71
anth@@ 71
ardo 71
finan@@ 71
geri@@ 71
ices 71
invasi@@ 71
kilo@@ 71
kr@@ 71
offen@@ 71
revol@@ 71
sen 71
tag@@ 71
texas 71
47 70
ario 70
consci@@ 70
dau@@ 70
expe@@ 70
experi@@ 70
flag@@ 70
gore 70
grab@@ 70
harmon@@ 70
initi@@ 70
mou@@ 70
neigh@@ 70
net@@ 70
q 70
ren 70
span@@ 70
é 70
2011 69
ade@@ 69
alien 69
bob 69
chromos@@ 69
condi@@ 69
dig 69
dings 69
glad@@ 69
golf 69
hierarch@@ 69
kevin 69
mode 69
ores@@ 69
oxford 69
oxytocin 69
pm 69
poster 69
rat 69
sequen@@ 69
stom@@ 69
temper@@ 69
2001 68
acr@@ 68
ah@@ 68
bli@@ 68
caf@@ 68
cel@@ 68
dama@@ 68
dation 68
enth@@ 68
extre@@ 68
gand@@ 68
gir@@ 68
gle 68
immedi@@ 68
jes@@ 68
nes@@ 68
ora 68
primi@@ 68
run@@ 68
satelli@@ 68
schizophren@@ 68
58 67
ab 67
ange@@ 67
bf 67
civi@@ 67
daniel 67
expedi@@ 67
finger@@ 67
ghtly 67
gur@@ 67
has@@ 67
help@@ 67
hus@@ 67
ins@@ 67
kor@@ 67
nom@@ 67
remo@@ 67
rs 67
saturn 67
stal@@ 67
tim 67
ville 67
11@@ 66
22@@ 66
250 66
28@@ 66
astrop@@ 66
base@@ 66
batter@@ 66
brun@@ 66
emp@@ 66
fes@@ 66
hori@@ 66
howard 66
ires 66
ker@@ 66
leon@@ 66
ly@@ 66
phosph@@ 66
ritu@@ 66
tenden@@ 66
tober 66
vin 66
ym@@ 66
700 65
800 65
bedro@@ 65
cient 65
dimension 65
dul@@ 65
fres@@ 65
johnson 65
motor@@ 65
peop@@ 65
sei@@ 65
smart@@ 65
sour@@ 65
stian 65
sw 65
syl@@ 65
tumor@@ 65
william 65
” 65
abra@@ 64
amer@@ 64
athan 64
barri@@ 64
blogs 64
ce-@@ 64
dow@@ 64
engine@@ 64
fing 64
gil@@ 64
intuition 64
mike 64
simulation 64
ung 64
xim@@ 64
zon 64
alli@@ 63
alo@@ 63
hip@@ 63
homo 63
individu@@ 63
inging 63
inve@@ 63
medic@@ 63
midd@@ 63
ole 63
parado@@ 63
republi@@ 63
rying 63
“ 63
andrew 62
bam@@ 62
bec@@ 62
cess 62
concern@@ 62
d.@@ 62
dopam@@ 62
element@@ 62
initiative 62
intensi@@ 62
jam@@ 62
jo 62
knowle@@ 62
mt 62
nick 62
optimis@@ 62
psychop@@ 62
pump@@ 62
quad@@ 62
revolution@@ 62
stam@@ 62
wea@@ 62
a. 61
arth@@ 61
bizar@@ 61
clear@@ 61
cum@@ 61
espe@@ 61
fair@@ 61
gab@@ 61
gie 61
graph@@ 61
ind 61
labor@@ 61
mmer 61
symbo@@ 61
terror@@ 61
ularly 61
urban@@ 61
valu@@ 61
victi@@ 61
wander@@ 61
zu@@ 61
120 60
2012 60
37 60
alexander 60
benjam@@ 60
bie 60
boun@@ 60
dens 60
gan 60
hai 60
iso@@ 60
model@@ 60
sper@@ 60
theore@@ 60
zon@@ 60
aa@@ 59
chem@@ 59
dn@@ 59
g-@@ 59
geor@@ 59
kon@@ 59
nis@@ 59
parks 59
previ@@ 59
reci@@ 59
restaurants 59
seem@@ 59
streng@@ 59
tale 59
teach@@ 59
wind@@ 59
72 58
avo@@ 58
bir@@ 58
hn@@ 58
ig 58
kit@@ 58
neo@@ 58
phere 58
satur@@ 58
strate@@ 58
2,@@ 57
36 57
artic@@ 57
doc@@ 57
evi@@ 57
exer@@ 57
hir@@ 57
mails 57
rat@@ 57
stein 57
stres@@ 57
tra 57
26@@ 56
31 56
abor@@ 56
alp@@ 56
cess@@ 56
hat 56
lands@@ 56
signific@@ 56
worl@@ 56
96 55
fallen 55
festi@@ 55
ision 55
mor 55
strat@@ 55
substan@@ 55
teenager 55
teles@@ 55
wart 55
ann 54
ater 54
campaig@@ 54
diagno@@ 54
earli@@ 54
ere@@ 54
impul@@ 54
inger 54
lik@@ 54
manu@@ 54
pause 54
signi@@ 54
sons 54
teria 54
í@@ 54
ames 53
anno@@ 53
aster 53
ation@@ 53
dium 53
environ@@ 53
equi@@ 53
fashi@@ 53
geome@@ 53
ich 53
immer@@ 53
moun@@ 53
rais@@ 53
sche@@ 53
tanz@@ 53
v-@@ 53
billi@@ 52
cia 52
dient 52
gens 52
hai@@ 52
hl@@ 52
john@@ 52
ration@@ 52
remark@@ 52
ret@@ 52
55 51
alterna@@ 51
beauti@@ 51
brazi@@ 51
deb@@ 51
dia 51
eing 51
gravi@@ 51
hen 51
ond 51
sten@@ 51
tent@@ 51
there@@ 51
tier 51
yorker 51
anders 50
aro@@ 50
aters 50
bank@@ 50
cogni@@ 50
gle@@ 50
ital 50
kil@@ 50
kore@@ 50
low@@ 50
nes 50
newsp@@ 50
para@@ 50
proble@@ 50
py@@ 50
stopp@@ 50
tioned 50
tte 50
unter@@ 50
utes 50
38 49
austr@@ 49
du 49
dung 49
epide@@ 49
hard@@ 49
justi@@ 49
kal@@ 49
kos@@ 49
libr@@ 49
mov@@ 49
myth@@ 49
ough@@ 49
perfe@@ 49
read@@ 49
sam 49
sop@@ 49
ston 49
tely 49
tem 49
asse@@ 48
eas@@ 48
elle 48
ener@@ 48
enzy@@ 48
gras 48
horizon@@ 48
incre@@ 48
know@@ 48
li 48
lli@@ 48
mama 48
mathema@@ 48
pau@@ 48
prise 48
tto 48
use@@ 48
vel 48
west@@ 48
world@@ 48
anten@@ 47
ech@@ 47
emotion@@ 47
eur@@ 47
fantas@@ 47
gif@@ 47
gold@@ 47
inven@@ 47
ket@@ 47
lei@@ 47
lun@@ 47
mati@@ 47
opti@@ 47
stock@@ 47
stol@@ 47
t. 47
un 47
yel@@ 47
zin@@ 47
arm@@ 46
en-@@ 46
ficial 46
fossi@@ 46
gel 46
ire 46
monter@@ 46
ques 46
stabili@@ 46
stig@@ 46
ter-@@ 46
utions 46
ada 45
chur@@ 45
ctively 45
mam@@ 45
nett 45
nie 45
relati@@ 45
rot 45
steri@@ 45
sup@@ 45
te-@@ 45
ttes 45
well@@ 45
65@@ 44
actu@@ 44
auto@@ 44
beh@@ 44
enor@@ 44
marke@@ 44
mobili@@ 44
selves 44
stes 44
stin 44
transplan@@ 44
tty 44
zen@@ 44
zy 44
alia 43
bile 43
dden 43
die@@ 43
dol@@ 43
eil 43
infra@@ 43
kei@@ 43
kir@@ 43
lan 43
melt 43
sud@@ 43
wen@@ 43
agi@@ 42
mann 42
massi@@ 42
oce@@ 42
ouse 42
pedia 42
profess@@ 42
responsi@@ 42
seri@@ 42
sis 42
tts 42
35@@ 41
86 41
chemi@@ 41
con 41
hacker 41
itely 41
mber 41
metap@@ 41
ousness 41
politi@@ 41
tiger 41
tters 41
xic@@ 41
chef 40
eig@@ 40
gru@@ 40
halt 40
ira@@ 40
las 40
materi@@ 40
nis 40
phy@@ 40
through@@ 40
unity 40
ang 39
com 39
garten 39
kilometer 39
kra@@ 39
rt 39
schwar@@ 39
usa 39
willi@@ 39
ander 38
atmos@@ 38
brilli@@ 38
dar 38
dows 38
erde 38
figh@@ 38
gel@@ 38
issu@@ 38
jung@@ 38
kap@@ 38
kinder@@ 38
norden 38
notic@@ 38
resul@@ 38
rie@@ 38
stic@@ 38
tally 38
tos 38
volun@@ 38
von 38
vul@@ 38
% 37
89 37
adul@@ 37
astron@@ 37
aus@@ 37
beg@@ 37
bet@@ 37
convin@@ 37
das 37
exu@@ 37
grou@@ 37
iti 37
scienti@@ 37
tech@@ 37
vid 37
39 36
ause 36
belo@@ 36
bilities 36
defini@@ 36
grow@@ 36
hn 36
kol@@ 36
mexi@@ 36
prac@@ 36
sab@@ 36
stir@@ 36
suc@@ 36
traff@@ 36
ativity 35
beginn@@ 35
dee@@ 35
elli@@ 35
fically 35
frau@@ 35
lage 35
pak@@ 35
probe 35
sexu@@ 35
tages 35
ware 35
57@@ 34
americ@@ 34
appropri@@ 34
chron@@ 34
dp 34
ein@@ 34
electri@@ 34
energi@@ 34
fest 34
laden 34
maga@@ 34
nah 34
passion@@ 34
sat@@ 34
zar@@ 34
busin@@ 33
del 33
integri@@ 33
judi@@ 33
quick@@ 33
shou@@ 33
standar@@ 33
stell@@ 33
tish 33
unter 33
automati@@ 32
bare 32
deca@@ 32
mau@@ 32
mbers 32
muse@@ 32
pers@@ 32
relev@@ 32
sands 32
sten 32
child@@ 31
doll@@ 31
ease 31
eit 31
flus@@ 31
kri@@ 31
not@@ 31
nt 31
osi@@ 31
ossi@@ 31
perspe@@ 31
tality 31
tradition@@ 31
tran@@ 31
tren@@ 31
ano 30
aria 30
euro@@ 30
gar 30
hundre@@ 30
identifi@@ 30
mers 30
nega@@ 30
osau@@ 30
societ@@ 30
ules 30
alex@@ 29
aller 29
andre@@ 29
anima@@ 29
beha@@ 29
big@@ 29
bili@@ 29
computer@@ 29
lie@@ 29
ox@@ 29
poe@@ 29
sach@@ 29
toll 29
valent 29
á@@ 29
bibli@@ 28
bon 28
call@@ 28
cals 28
capac@@ 28
das@@ 28
energ@@ 28
inge 28
marri@@ 28
nas@@ 28
perfor@@ 28
refu@@ 28
soft@@ 28
ã@@ 28
accor@@ 27
atz 27
block@@ 27
effe@@ 27
ein 27
employe@@ 27
files 27
intelli@@ 27
performan@@ 27
sug@@ 27
us-@@ 27
vide@@ 27
yor@@ 27
zur@@ 27
alter 26
aner 26
bren@@ 26
carol@@ 26
colle@@ 26
efully 26
fak@@ 26
geria 26
intellec@@ 26
internation@@ 26
kn@@ 26
minist@@ 26
ony@@ 26
psy@@ 26
ruption 26
spiritu@@ 26
stop@@ 26
tremend@@ 26
vili@@ 26
zine 26
ç@@ 26
29@@ 25
_ 25
aler 25
aus 25
aut 25
elt 25
fort 25
handy 25
hm@@ 25
hung 25
metaph@@ 25
resour@@ 25
serv@@ 25
stap@@ 25
sth@@ 25
tig@@ 25
verl@@ 25
atem@@ 24
bot 24
chs 24
depart@@ 24
europe@@ 24
fas@@ 24
inner@@ 24
jour@@ 24
kab@@ 24
ks@@ 24
lang 24
maj@@ 24
messa@@ 24
presi@@ 24
rin@@ 24
technolog@@ 24
wu@@ 24
chro@@ 23
dop@@ 23
eign 23
extrem@@ 23
gement 23
hr 23
kur@@ 23
lem 23
pel 23
pie@@ 23
rief 23
terr@@ 23
won@@ 23
allen 22
avail@@ 22
benef@@ 22
boot 22
chers 22
cken@@ 22
ille 22
informa@@ 22
kam@@ 22
len 22
oxy@@ 22
vil@@ 22
where@@ 22
ymp@@ 22
… 22
# 21
alls 21
alt@@ 21
chin@@ 21
econ@@ 21
freu@@ 21
hri@@ 21
kle 21
miss@@ 21
nie@@ 21
oughly 21
phen@@ 21
ppe 21
professi@@ 21
rand 21
rant 21
rd 21
safe@@ 21
test@@ 21
wick@@ 21
cke 20
engli@@ 20
europa 20
intel@@ 20
kamen 20
mee 20
nd 20
sie 20
tten 20
unbe@@ 20
vern@@ 20
wiki@@ 20
33@@ 19
bitten 19
cker@@ 19
digit@@ 19
ellen 19
fren@@ 19
fried@@ 19
git@@ 19
grad 19
lam 19
lang@@ 19
obo 19
ould 19
patter@@ 19
pus 19
ring@@ 19
schul@@ 19
sie@@ 19
symp@@ 19
wom@@ 19
ó@@ 19
deu@@ 18
diversi@@ 18
famili@@ 18
feed@@ 18
hab 18
iel 18
invisi@@ 18
je 18
kurz@@ 18
mali@@ 18
mana@@ 18
mately 18
mond 18
simp@@ 18
ss@@ 18
still@@ 18
tie@@ 18
weil 18
witz 18
è@@ 18
2-@@ 17
apos@@ 17
auto 17
bald 17
bau@@ 17
cken 17
diab@@ 17
eful@@ 17
esse 17
face@@ 17
fei@@ 17
gend 17
heim 17
lich@@ 17
lk@@ 17
meer 17
onder@@ 17
rhy@@ 17
sophistic@@ 17
step@@ 17
studi@@ 17
train@@ 17
– 17
) 16
000 16
curity 16
desig@@ 16
enz@@ 16
event@@ 16
exac@@ 16
fahr@@ 16
feld 16
glas 16
klein 16
kt 16
meister 16
nerv@@ 16
noti@@ 16
organ@@ 16
posite 16
practi@@ 16
stark 16
statisti@@ 16
them@@ 16
zy@@ 16
.b. 15
@ 15
betra@@ 15
comfort@@ 15
eine 15
enheit 15
fern@@ 15
gei@@ 15
herr@@ 15
intu@@ 15
km 15
mus 15
neuros@@ 15
pover@@ 15
scul@@ 15
ural 15
uten 15
ante 14
beri@@ 14
cept 14
dies@@ 14
ffe@@ 14
ghan@@ 14
gs@@ 14
kay 14
leu@@ 14
o. 14
onie 14
rapi@@ 14
sein 14
situ@@ 14
stero@@ 14
stur@@ 14
acher 13
b. 13
dit 13
emo@@ 13
eren 13
erie 13
exi@@ 13
feu@@ 13
gros@@ 13
hne 13
hoff@@ 13
ih@@ 13
klu@@ 13
liche 13
normal@@ 13
olog@@ 13
phar@@ 13
pro 13
schil@@ 13
strom 13
tier@@ 13
tivi@@ 13
tol@@ 13
weib@@ 13
ww@@ 13
zul@@ 13
abili@@ 12
best@@ 12
brei@@ 12
dab@@ 12
dem 12
ende 12
fen@@ 12
ges@@ 12
gren@@ 12
him@@ 12
japan@@ 12
kas 12
lag@@ 12
mach 12
milit@@ 12
mole@@ 12
osop@@ 12
ospi@@ 12
schwi@@ 12
spit@@ 12
stab 12
stab@@ 12
stein@@ 12
stens 12
stern 12
ted-@@ 12
u-@@ 12
vier 12
wald 12
wollen 12
zu 12
aden 11
alg@@ 11
auge 11
autos 11
beau@@ 11
bis 11
diag@@ 11
diseas@@ 11
dn 11
egal 11
fanta@@ 11
feel@@ 11
fiel@@ 11
hm 11
ith 11
kind@@ 11
kus@@ 11
leb@@ 11
ob 11
rau@@ 11
sili@@ 11
stige 11
telev@@ 11
uss@@ 11
70@@ 10
agen 10
cin 10
compan@@ 10
dimension@@ 10
frei@@ 10
geist 10
hl 10
inn 10
intro@@ 10
kel 10
kru@@ 10
ler@@ 10
mei@@ 10
mexic@@ 10
mith@@ 10
opport@@ 10
paci@@ 10
pid 10
rad@@ 10
rami@@ 10
rem 10
sung 10
tau@@ 10
tex 10
two@@ 10
vices 10
wur@@ 10
108@@ 9
34@@ 9
aku@@ 9
ample 9
bie@@ 9
britan@@ 9
brot 9
chen@@ 9
chir@@ 9
chter 9
ender 9
erer 9
erin 9
frie@@ 9
gni@@ 9
hart 9
holt 9
klei@@ 9
kro@@ 9
langu@@ 9
meth@@ 9
mir 9
norm@@ 9
other@@ 9
pment 9
slow@@ 9
sophi@@ 9
stud@@ 9
techn@@ 9
tod 9
trie@@ 9
unti@@ 9
wen 9
your@@ 9
zeit@@ 9
á 9
59@@ 8
amen 8
bergen 8
cht@@ 8
figu@@ 8
flan@@ 8
funk@@ 8
gabe 8
gend@@ 8
hin 8
instit@@ 8
interne@@ 8
kev@@ 8
kinder 8
kun@@ 8
lag 8
lle 8
masse 8
oren 8
rad 8
raid 8
scha@@ 8
schnei@@ 8
thom@@ 8
wolf 8
www.@@ 8
ñ@@ 8
‘ 8
aben@@ 7
absol@@ 7
atten 7
bot@@ 7
buch@@ 7
challen@@ 7
cht 7
dass 7
den-@@ 7
dir 7
enga@@ 7
famil@@ 7
fen 7
ffen 7
gyp@@ 7
haus@@ 7
hier@@ 7
hmen 7
ien 7
infi@@ 7
ings@@ 7
isra@@ 7
istan 7
kle@@ 7
kli@@ 7
kraft 7
mund 7
muster 7
nst 7
nul@@ 7
nun 7
privat@@ 7
sch 7
sche 7
schl@@ 7
sst 7
stif@@ 7
stung 7
toll@@ 7
verti@@ 7
wie@@ 7
ø@@ 7
ù 7
( 6
79@@ 6
^ 6
asi 6
berg@@ 6
besser 6
brau@@ 6
californi@@ 6
cently 6
cisco 6
complex@@ 6
degre@@ 6
drogen@@ 6
ele 6
every@@ 6
gele@@ 6
gem 6
graf@@ 6
grie@@ 6
ik 6
job@@ 6
mel 6
micha@@ 6
nach@@ 6
omen@@ 6
onen 6
princi@@ 6
reich 6
rö@@ 6
sep@@ 6
sich@@ 6
spiel@@ 6
ted.com 6
tei@@ 6
tsp@@ 6
tten@@ 6
tung 6
zent@@ 6
zig 6
zir@@ 6
ä@@ 6
í 6
ö@@ 6
aber 5
acht 5
asse 5
blat@@ 5
det 5
det@@ 5
ehrlich 5
eis@@ 5
etz 5
flei@@ 5
fs@@ 5
ften 5
hing@@ 5
industr@@ 5
insel 5
isch 5
klas@@ 5
kleiner 5
koll@@ 5
kul@@ 5
kunst@@ 5
landes 5
lex 5
mobil@@ 5
prei@@ 5
programme 5
ries@@ 5
schwa@@ 5
sinn@@ 5
ske@@ 5
stead 5
steu@@ 5
strateg@@ 5
tat 5
tete 5
tsam 5
tsch@@ 5
von@@ 5
wagen 5
wand 5
wie 5
zit@@ 5
ó 5
* 4
126 4
auf 4
baum@@ 4
bs@@ 4
chung 4
disci@@ 4
doch 4
doci@@ 4
drin 4
ehe@@ 4
ente 4
enz 4
fisch@@ 4
fore 4
fort@@ 4
happen@@ 4
hast 4
haus 4
hier 4
hosp@@ 4
intelligen@@ 4
judith 4
kern@@ 4
kom@@ 4
kop@@ 4
kre@@ 4
kt@@ 4
ktor 4
mie 4
mie@@ 4
minde@@ 4
mitten 4
mmer@@ 4
orten 4
pf 4
phos@@ 4
pite 4
repar@@ 4
samer 4
scher 4
schi@@ 4
solar@@ 4
stad@@ 4
subti@@ 4
tern 4
tet 4
toge@@ 4
ution@@ 4
viron@@ 4
w.@@ 4
ween 4
wein@@ 4
zei@@ 4
ï@@ 4
ü@@ 4
ć 4
́ 4
อ@@ 4
138 3
240@@ 3
aga@@ 3
anal@@ 3
angst 3
assen 3
ativi@@ 3
auff@@ 3
aum 3
bein 3
bey@@ 3
brenn@@ 3
chines@@ 3
dership 3
diabet@@ 3
dok@@ 3
dramati@@ 3
eben 3
einem 3
einer 3
eler@@ 3
elles 3
eres 3
ernst 3
expon@@ 3
fert 3
freude 3
geb@@ 3
gebra@@ 3
gegen@@ 3
genug 3
glau@@ 3
goti@@ 3
halten@@ 3
handel 3
herr 3
heu@@ 3
hinter@@ 3
hle 3
hna@@ 3
ier@@ 3
iger 3
junger 3
klo@@ 3
kran@@ 3
kti@@ 3
kum 3
lange 3
lauf@@ 3
lern@@ 3
lich 3
liches 3
meer@@ 3
mend@@ 3
merk@@ 3
mme 3
movi@@ 3
na-@@ 3
nah@@ 3
ober@@ 3
obvi@@ 3
omen 3
pf@@ 3
plasti@@ 3
pren@@ 3
program@@ 3
rants 3
reak@@ 3
schizop@@ 3
schle@@ 3
schlei@@ 3
schu@@ 3
schwei@@ 3
seine 3
smit@@ 3
spie@@ 3
spiegel 3
stil 3
strö@@ 3
toile@@ 3
ult 3
uner@@ 3
waff@@ 3
yester@@ 3
z. 3
zell@@ 3
zog 3
zt 3
 3
 3
à 3
â 3
è 3
ê@@ 3
.. 2
408 2
abend 2
absolu@@ 2
acht@@ 2
alen 2
alles 2
auf@@ 2
bastian 2
bein@@ 2
bele@@ 2
bett@@ 2
blatt 2
casi@@ 2
chti@@ 2
debat@@ 2
design@@ 2
dimensi@@ 2
eben@@ 2
echt 2
eck@@ 2
ei 2
eigen@@ 2
ement@@ 2
entre@@ 2
essen 2
fft 2
flori@@ 2
foto@@ 2
für 2
ganz 2
geld@@ 2
globale 2
gung 2
hinder@@ 2
ige 2
iges 2
immer 2
incredi@@ 2
kamp@@ 2
kapital 2
kilome@@ 2
kus 2
kö@@ 2
lager 2
langer 2
laut 2
leiter 2
licht@@ 2
mals 2
mathe@@ 2
mein@@ 2
mensch 2
molec@@ 2
nein 2
nen@@ 2
niem@@ 2
online-@@ 2
orte 2
politik 2
possi@@ 2
prü@@ 2
reich@@ 2
relation@@ 2
rote 2
russ@@ 2
schmu@@ 2
schn@@ 2
spiel 2
spru@@ 2
stag 2
sz@@ 2
tere 2
thema 2
trie 2
tun 2
tzen 2
vier@@ 2
wird 2
wo 2
wus@@ 2
zel@@ 2
zin 2
zop@@ 2
£ 2
² 2
â@@ 2
ë 2
ô@@ 2
ā@@ 2
ร 2
่ 2
.000 1
228@@ 1
352 1
535 1
abli@@ 1
afghan@@ 1
allgemeinen 1
ameras 1
arz@@ 1
asen 1
autor@@ 1
baum 1
bei 1
bern 1
blau 1
bras@@ 1
brasili@@ 1
cen 1
chert 1
chic@@ 1
childr@@ 1
dank 1
denly 1
desto 1
deut@@ 1
diesel@@ 1
dopp@@ 1
dorf 1
durch 1
effi@@ 1
eigent@@ 1
engl@@ 1
erst@@ 1
ertes 1
esen 1
eth 1
ewi@@ 1
fern 1
fett@@ 1
feuer@@ 1
ffee 1
fisch 1
frau 1
frei 1
fte 1
gab 1
gedanken 1
geist@@ 1
gere@@ 1
geru@@ 1
gerä@@ 1
geschü@@ 1
gott 1
gt 1
guten 1
gö@@ 1
habe 1
haps 1
haut 1
heim@@ 1
herz 1
hlen@@ 1
holz@@ 1
hre@@ 1
hren@@ 1
idee 1
ingen 1
internationale 1
ische 1
jap@@ 1
kam 1
kampf 1
kari@@ 1
kation 1
kauf@@ 1
keiten 1
kenn@@ 1
kern 1
kla@@ 1
klin@@ 1
kolle@@ 1
krieg 1
kunst 1
kü@@ 1
ld 1
lebe@@ 1
legen 1
lichen 1
llen 1
lok@@ 1
manhat@@ 1
marki@@ 1
maus 1
mehr@@ 1
mein 1
meine 1
mensch@@ 1
moral@@ 1
morgen 1
mut 1
mä@@ 1
mö@@ 1
möglich 1
national@@ 1
nen 1
neue 1
nung 1
oder 1
olly@@ 1
oxyto@@ 1
ppen 1
quant@@ 1
recht@@ 1
rede 1
regel@@ 1
regen 1
regen@@ 1
risi@@ 1
schaf@@ 1
schar@@ 1
schau@@ 1
schen 1
schen@@ 1
schluss 1
schnell 1
schwe@@ 1
sei 1
sohn 1
spezi@@ 1
ssen 1
stern@@ 1
stie@@ 1
sweise 1
sä@@ 1
teu@@ 1
tot 1
toten 1
tze 1
tzt 1
ule 1
unities 1
verdi@@ 1
viel@@ 1
wech@@ 1
weg@@ 1
wege 1
welche 1
welle 1
welt 1
wider@@ 1
wies@@ 1
wirkungen 1
wurz@@ 1
ystem 1
zelle 1
zielen 1
zimmer 1
zun@@ 1
zur 1
zw@@ 1
zwe@@ 1
zwei@@ 1
¡ 1
± 1
º@@ 1
à@@ 1
å@@ 1
ë@@ 1
ï 1
ò@@ 1
ön@@ 1
ör@@ 1
ø 1
ù@@ 1
ú@@ 1
über@@ 1
ā 1
ē 1
ě@@ 1
ī 1
ū@@ 1
ย 1
ย@@ 1
€ 1
√ 1
你@@ 1
葱 1
送@@ 1
